#version: 0.2 - Trained by `huggingface/tokenizers`
2 0
す る
1 9
い る
あ る
か ら
こ と
れ る
20 1
20 0
リ ー
な っ
そ の
な い
タ ー
な ど
ー ル
日 本
ッ ク
1 0
た め
ラ ン
イ ン
ス ト
こ の
よ り
ッ ト
な る
よ う
ン グ
い う
ー ト
ま た
あ っ
ュ ー
も の
ま で
1 8
ー ム
0 0
テ ィ
デ ィ
あ り
1 2
ー ド
ら れ
19 9
e r
ン ト
1 1
シ ョ
ラ イ
学 校
お り
大 学
バ ー
で き
i n
リ ア
か っ
こ れ
o n
a n
19 8
放 送
レ ー
よ る
ン ド
フ ァ
ジ ャ
プ ロ
そ れ
ア ル
な り
ショ ン
ッ プ
1 5
昭 和
よ っ
テ レ
ー ス
ー ク
リ カ
な く
e n
19 7
1 7
ロ ー
テレ ビ
コ ン
キ ャ
1 6
a r
受 け
現 在
カ ー
東 京
フ ィ
3 0
タ イ
し か
チ ャ
だ っ
世 界
o r
ラ ー
ア メ
リ ン
つ い
シ ャ
アメ リカ
シ ー
え る
マ ン
ス テ
時 代
ー ジ
英 語
な かっ
a t
使 用
19 6
ス タ
1 3
a l
1 4
会 社
e s
フ ォ
でき る
お い
平 成
サ ー
登 場
場 合
シ ュ
ジ ョ
ル ー
ら れる
リ ス
オ ー
行 わ
2 5
研 究
選 手
ク ラ
ア ン
と も
ラン ド
し い
しか し
作 品
ス ター
パ ー
め る
サ イ
i c
19 4
19 5
番 組
ッ ド
多 く
ベ ル
発 売
ジ ェ
た ち
ナ ー
レ イ
た り
i t
エ ン
ウ ェ
可 能
存 在
フ ェ
映 画
ダ ー
2 1
の み
ー ン
i s
か け
フ ラン
開 始
2 2
し ま
せ る
活 動
バ ス
2 4
h e
セ ン
レ ン
お よ
ア イ
オ ン
ブ ル
ヴ ァ
当 時
サ ン
ア ー
コ ー
ニ ュー
ド ラ
2 3
同 じ
取 り
出 演
鉄 道
ル ト
時 間
ック ス
呼 ば
ヴ ィ
リー ズ
対 し
ゲ ーム
およ び
シ ア
明 治
o l
一 部
2 8
メ ン
ト ル
2 6
チ ーム
に て
2 7
な お
行 っ
ニ ア
大 き
シ リーズ
開 発
発 表
ニ ー
2 9
な が
代 表
アル バ
e l
イ ツ
201 0
ナ ル
ウ ィ
ウ ン
i on
大 会
s t
だ け
以 降
地 域
開 催
同 年
変 更
シ ング
ス ペ
参 加
カ ル
関 係
さ ら
ク ター
マ ー
200 9
201 1
ド イツ
201 2
200 8
r e
5 0
キ ー
試 合
o u
お け
200 7
レ ス
イ ル
ブ ラ
モ ン
l e
け る
チ ェ
持 つ
以 下
ア ニ
アルバ ム
担 当
201 4
い っ
201 3
201 5
出 場
所 属
大 阪
な ら
グ ラ
I S
音 楽
イ ト
なが ら
ソ ン
19 3
ジ オ
自 分
デ ル
中 心
201 6
利 用
設 置
o m
リー グ
フラン ス
株 式
か つ
監 督
c h
ポ ー
引 き
以 上
さら に
エ ル
中 国
国 際
200 6
ビ ュー
記 録
201 7
ッ チ
ス ク
多 い
し く
事 業
収 録
ズ ン
一 般
作 曲
上 げ
出 身
a m
出 し
自 身
攻 撃
ク ト
201 8
ょ う
シ ン
シー ズン
行 う
ま り
ジョ ン
3 1
e t
イ ス
考 え
ク ロ
優 勝
20 19
委 員
高 等
生 ま
a s
ウ ス
中 央
女 性
文 化
教 育
こ う
情 報
必 要
o f
知 ら
ビ ー
i l
00 0
ネ ル
こ ろ
ド ル
4 0
キャ ラ
社 会
アニ メ
付 け
事 件
卒 業
問 題
200 5
リ ング
フ ト
た だ
通 り
パ ン
ロ ン
ネ ット
地 方
ほ か
う ち
ジ ュ
務 め
シング ル
自 動
用 い
設 立
10 0
都 市
イ ギ
位 置
と き
ほ ど
ール ド
r o
持 ち
い く
ジ ン
ー ション
in g
k m
イギ リス
め て
マ イ
デ ン
タ ン
200 0
ルー プ
計 画
ま っ
し て
ト ラ
世 紀
わ り
ス ー
結 果
テ ン
終 了
ッ カー
同 様
最 終
高 校
入 れ
戦 争
及 び
ガ ン
販 売
さ ん
わ っ
a c
影 響
ジャ ー
当 初
20 20
200 4
B S
グ ループ
セン ター
an d
最 初
E R
ダ イ
デ ー
A N
ハ イ
制 作
u s
バ イ
た い
バ ル
人 間
ハ ン
メン バー
マ ル
機 関
d e
部 分
ジ ア
タ ル
選 挙
建 設
以 外
ま ま
一 方
起 こ
生ま れ
獲 得
リ スト
地 区
人 物
シ ステ
女 子
ザ ー
オ リ
ラ ス
最 後
そ して
かつ て
メ ント
システ ム
ト リ
ダ ン
特 に
経 済
テ ー
合 わ
彼 女
技 術
ガ ー
ロ ッ
状 態
場 所
e d
ヴ ェ
モ デル
ボ ー
バ ン
政 府
コ ミ
t h
入 り
発 生
I N
I C
キャラ クター
全 国
野 球
調 査
ぞ れ
プ リ
それ ぞれ
ワ ー
年 度
ッ シュ
年 間
決 定
廃 止
I I
ち ゃ
意 味
r a
ライ ブ
デ ビュー
と ころ
プ レ
O N
200 3
航 空
出 版
政 治
しま う
施 設
6 0
ケ ット
向 け
チャ ン
カ ン
教 授
記 念
S T
作 詞
公 開
持 っ
ドラ マ
就 任
歴 史
ラ ジオ
戦 闘
ホ ーム
京 都
ただ し
関 する
構 成
主 義
合 衆
ト ン
en t
ア ナ
路 線
キ ング
ダ ム
S t
名 前
デ ザ
そ う
契 約
u n
A R
ボ ール
高 い
能 力
公 式
19 0
ファ ン
全 て
製 造
ビ ス
相 手
特 別
200 2
7 8
ろ う
同 時
ロ ック
た る
が っ
設 定
B N
生 活
ロ シア
管 理
ビ ル
列 車
海 道
i g
車 両
ティ ー
実 施
シャ ル
ク ション
つ け
採 用
200 1
機 能
戦 い
合 併
初 めて
出 来
道 路
か り
テ ル
通 常
イ ド
3 5
リー ス
組 織
帝 国
プ レイ
指 定
議 員
対 する
A T
リ オ
ウ ォ
IS BN
T he
目 的
運 行
最 も
丁 目
イ タ
クラ ブ
シ ェ
4 8
ニ ング
最 大
at ion
ん ど
受 賞
果 た
カ ード
プ ラ
u m
ッ ツ
名 称
i v
漫 画
サ ッカー
ミ ュー
ル ス
本 作
生 産
与 え
科 学
4 5
企 業
合わ せ
対 応
ハ ー
総 合
協 会
交 通
ー ター
ート ル
も っ
t he
ま る
u r
セ ル
共 和
使 わ
始 め
最 高
ス コ
ヤ ー
製 作
t er
18 9
そ こ
部 隊
勝 利
ラ イン
スー パー
海 軍
8 0
ジャ ン
ディ ング
ジ ー
a y
サイ ト
わ る
続 け
C D
公 園
搭 載
運 転
ブ リ
事 務
警 察
デザ イン
結 婚
太 郎
一 人
ユ ニ
バ ンド
運 動
ク ス
基 本
自 由
リ リース
含 む
イン ター
イタ リア
北 海道
営 業
大き な
宇 宙
ヨ ー
パ イ
主 人
新 聞
伴 い
ディ ア
時 期
江 戸
J R
ス カ
ミ ー
独 立
コ ード
ソ フト
ユ ー
編 曲
し ば
主 に
タイ トル
予 定
ビ ア
切 り
N H
カ ップ
ク リ
199 0
完 成
199 9
完 全
a g
発 見
内 容
ほ と
企 画
i m
エン ジン
以 前
イ ベ
一 覧
ッ グ
連 続
実 際
人 口
飛 行
編 成
a d
い わ
サー ビス
ギ ー
加 え
7 0
成 功
18 8
大 正
参 照
ポー ツ
小 説
提 供
活 躍
e c
ほと んど
組 み
3 3
i d
i r
NH K
専 門
特 徴
オー プ
自 ら
オ リン
経 営
入 っ
時 点
期 間
F C
ス ポーツ
重 要
移 籍
I n
理 由
m m
ポ ン
o t
o w
た ら
ディ ー
メ ートル
神 社
フ ル
o s
ノ ー
決 勝
フ リー
ちゃ ん
デー タ
構 造
物 語
古 屋
様 々
性 格
子 供
乗 り
199 8
行 動
朝 日
しま っ
す べ
対 象
レー ス
評 価
イベ ント
立 ち
と っ
異 なる
文 字
運 営
名 古屋
挙 げ
再 び
ひ と
少 年
ワ ン
スト ラ
新 た
初 期
不 明
イン ド
3 6
導 入
く る
よ く
マ ス
A L
好 き
設 計
テー マ
スタ ン
ミュー ジ
撮 影
開 業
O R
ピ ック
ど う
劇 場
広 島
ア ップ
ベ ース
e m
ト ロ
フ レ
すべ て
言 わ
連 合
病 院
A S
紹 介
改 称
移 動
指 導
199 7
認 め
支 援
指 揮
国 道
の ち
5 5
ピ ー
チャ ー
わ ら
キャ ン
打 ち
朝 鮮
ウ ル
人 気
ホ ール
i a
デ ュー
ギ ュ
工 業
非 常
法 人
表 記
規 模
199 6
こ こ
クラ ス
県 道
労 働
198 0
学 園
9 0
ト ー
3 4
環 境
c m
限 定
ピ ン
大き く
3 8
イ ズ
述 べ
ナ ン
国 家
共 同
出 す
キ ュ
男 性
表 示
199 5
展 開
コー ナー
舞 台
程 度
少 女
ゴ ン
写 真
フ ジ
以 来
ポ ート
ゅ う
国 民
フォ ー
装 備
ダ ル
追 加
ま す
団 体
ジ ナル
言 葉
er s
関 連
ベ ン
ト ゥ
文 学
楽 曲
u t
u l
教 会
工 場
T V
競 技
A M
3 7
距 離
結 成
E N
も と
パ ス
多 数
変 化
A C
電 気
ず れ
ファ イ
地 球
銀 行
T O
込 ん
ラ ム
じ め
け れ
チ ュ
方 法
番 号
ん な
由 来
会 議
199 4
強 い
ファ ー
3 2
作 戦
込 み
映 像
ウ ンド
過 去
ライ ト
福 岡
発 行
T H
C h
区 間
ぶ り
立 て
息 子
ワ ールド
o c
美 術
オリ ジナル
空 港
議 会
や す
全 体
演 奏
ー カー
横 浜
思 い
18 7
R E
地 下
じ る
天 皇
い は
ロッ パ
裁 判
建 築
ら か
199 3
高 速
さ い
3 9
韓 国
ヨー ロッパ
な し
協 力
試 験
配 信
ア フ
a p
九 州
通 信
バ ラ
ロー マ
ケ ン
会 長
事 故
ッ ジ
自 治
原 作
形 式
果た し
199 2
ウ ム
死 去
オリン ピック
ステ ージ
国 内
4 7
連 邦
スペ イン
周 辺
ニュー ス
候 補
ク レ
o o
タイ ム
統 領
仕 事
社 長
ヨ ーク
ほ ぼ
自 然
大 統領
陸 軍
プロ デュー
掲 載
タイ プ
登 録
ア ク
対 戦
大 戦
初 代
ピ ア
か る
整 備
カ リ
ヴ ォ
U S
支 配
コ ース
込 ま
い い
メ ージ
ら し
ア ジア
統 合
キ ン
レー ション
ご と
4 4
生 徒
マ ーク
行 い
装 置
い ずれ
誕 生
民 主
R O
ト ップ
ある いは
違 い
引 退
197 0
199 1
ル ド
し よう
ス ティ
イン グ
普 通
た っ
べ き
な か
チ ン
T BS
経 験
生 き
付 き
効 果
専 用
使 っ
198 9
複 数
チ ョ
状 況
動 物
千 葉
受け る
i e
a k
方 面
ロ ス
現 代
ロ ード
4 6
ネ ス
ミ ニ
ナ イ
学 生
発 足
運 用
o p
産 業
同じ く
V E
公 演
含 ま
メ イン
B C
o v
5 00
な けれ
パ ート
部 門
イン ト
種 類
198 7
大 臣
ベ スト
工 事
S P
移 転
基 づ
ペ ン
も う
確 認
家 族
ボ ン
ギ ャ
表 現
破 壊
ト ラン
輸 送
プ レー
編 集
ケ ー
比 較
元 年
繰 り
主 張
掛 け
郵 便
制 度
で す
本 部
ゴ ール
唯 一
198 8
成 立
h t
A n
中 継
オ ブ
ガ ル
ア ラ
9 78
替 え
報 告
魔 法
イ ラ
新 しい
ア ウ
か し
ニュー ヨーク
途 中
個 人
条 件
か い
モ ー
王 国
D V
行 政
形 成
人 々
死 亡
バ ック
図 書
カ ナ
L E
入 る
男 子
県 立
業 務
ワ ーク
付 近
勝 ち
え ば
I D
A P
リー ン
u b
取 得
c e
保 護
連 載
r i
将 軍
ち ら
フ ラ
方 式
198 6
ゆ る
反 対
4 9
成 績
シャ ー
使 い
正 式
本 人
近 く
ク ル
系 統
発 展
以 後
ガ ス
ッ ション
デ オ
指 す
料 理
18 6
げ る
主 要
C M
博 士
コ ロ
求 め
周 年
ブ レ
グ レ
198 5
言 う
と う
オ ス
行 き
4 2
サ ル
直 接
観 光
国 立
ニ ック
続 い
芸 術
拡 大
追 い
5 8
ア ンド
選 出
セ ント
愛 知
ゲ スト
a b
フ ロ
ゴ ル
a v
スタ ジオ
オープ ン
出 さ
ト レ
ジェ クト
方 向
電 話
呼 び
セ ット
スペ シャル
は じめ
き っ
ズ ム
デ ジ
ント ン
競 馬
DV D
ツ アー
所 在
復 帰
有 名
ら い
店 舗
言 語
合 い
ウェ ー
セ ス
ア ド
C O
ア レ
施 行
グ ラン
k g
5 6
本 社
ール ズ
198 4
F A
シ ル
es s
食 べ
ゲ ン
迎 え
描 か
武 器
や っ
ヘ ル
ペ ージ
4 3
す ぐ
後 半
雑 誌
生 物
メ ディア
書 き
父 親
南 部
系 列
is t
レ ギュ
ム ー
地 上
関 西
ポ イント
ま し
キ シ
ア カ
アナ ウン
レン ジ
俳 優
流 れ
本 線
含 め
o g
続 き
作 ら
新 潟
4 1
開 設
O S
ラ ル
精 神
大 型
つ つ
司 令
選 択
5 7
N E
ス キー
シー ン
関 し
ス ケ
ら く
分 類
ミ ン
示 す
神 戸
ロ ンド
女 優
I T
コン ピ
文 庫
パ ラ
務 める
作 家
イ ー
作 り
平 均
市 民
編 入
ar d
TH E
特 定
事 実
取 締
オ ール
組 合
A D
人 民
植 物
ティ ング
198 3
近 い
選 ば
見 せ
復 活
分 け
取 っ
ロ ボ
196 0
地 元
進 出
レギュ ラー
離 れ
198 2
ノ ン
グラ ム
あ まり
ビ デオ
が る
決 め
ニ コ
パ リ
ビ ン
5 9
が り
エ ア
オ ル
て る
批 判
ギ リ
王 座
カ ラ
な さ
小 さ
兄 弟
思 わ
関 東
よ れ
リー ト
ソ ング
R e
ホ テル
il l
外 国
翌 年
メ ラ
支 持
エ イ
く り
ゼ ン
フォ ン
ブ ランド
被 害
東 北
艦 隊
メ ーカー
メ イ
防 衛
5 4
残 っ
アイ ドル
安 全
ケ ル
投 票
原 因
f or
扱 い
所 有
障 害
A K
代 わり
プ ト
ロ グ
3 00
政 策
台 湾
U N
神 奈
プロ ジェクト
仲 間
電 子
スト ン
設 け
al l
ワ イ
レ コード
つ き
カ イ
商 品
チェ ン
医 療
中 学
温 泉
グ リ
特 殊
な わ
沖 縄
ミ ュ
ヴァ ン
es t
細 胞
トラ ック
あ たる
落 ち
ミュージ ック
市 場
直 後
山 口
o d
ユニ ット
静 岡
el l
富 士
in e
標 準
説 明
延 長
ス ピ
行 為
198 1
入 学
シ ティ
実 験
地 名
配 置
主 演
残 し
エ ネル
リ ック
神奈 川
ヘ ン
購 入
ロンド ン
ワ ード
レ ベル
197 9
し ょう
スト ー
惑 星
チ ー
) -
チ ュー
モ ード
化 学
得 点
し ん
さ ま
ゴ ー
197 2
加 入
電 車
p h
タ ウン
コンピ ュー
成 長
増 加
敗 れ
起こ し
明 らか
記 述
ar t
ク ライ
土 地
ブル ク
改 正
脚 本
建 物
失 敗
仕 様
長 野
e b
返 し
従 来
高 く
派 遣
ナ イト
バ ッ
太 平
ミ ス
L I
速 度
エネル ギー
演 出
アフ リカ
い つ
B O
な ん
ロ ット
製 品
オ フ
通 じ
各 地
イ メージ
達 成
基 地
バー ジョン
ポ ール
呼 ぶ
福 島
無 い
ミ ア
5 1
ブ ン
A l
住 民
リ ティ
プ ル
改 造
使 う
ド ゥ
内 閣
定 期
規 定
出 会
年 代
ド ン
バ ート
埼 玉
マ ネ
太 陽
ウェ イ
ウェ ア
197 8
ま だ
振 り
軍 事
北 部
巨 大
ク リス
シャ ン
長 崎
語 っ
作 業
ダ ウン
フォ ル
た く
拠 点
連 盟
一 郎
伝 え
アナウン サー
制 御
法 律
M A
ブ ルー
形 態
ソ ー
政 権
発 電
ショ ー
強 化
強 く
旅 客
歌 手
指 し
グ ル
記 載
経 由
197 5
け ん
理 事
5 2
上 記
テ スト
海 外
ボ ル
ヒ ット
197 3
デジ タル
一 時
ス タイ
例 えば
ナ ム
リ エ
処 理
レ ット
レ ッド
せ い
機 械
エ レ
きっ かけ
見 る
言 っ
作 成
比 べ
言 い
資 料
少 ない
ド リ
部 屋
記 事
停 止
長 い
ら しい
t o
197 6
n d
L O
プレイ ヤー
戦 後
同 社
示 し
指 摘
商 業
報 道
革 命
分 離
込 む
デ ュ
空 間
197 4
二 人
建 て
ナ ス
停 車
集 め
独 自
博 物
接 続
優 秀
解 散
面 積
ポ ジ
9 9
カ ラー
広 く
い ち
児 島
S S
交 差
5 3
岡 山
メ ル
集 団
197 1
詳 細
創 設
ハ ウス
か なり
ジョ ージ
フィ ル
197 7
制 限
n e
ソ ロ
伝 説
セ イ
分 野
ピ オン
少 なく
米 国
住 宅
置 か
軌 道
デ イ
条 約
中 華
読 み
至 る
実 現
ホ ー
学 院
c t
ザ ン
ク ー
母 親
ド ー
196 9
o b
統 一
継 承
ヒ ー
スター ト
機 体
お ら
ラン ダ
P C
E C
i p
披 露
理 論
コ レ
進 め
P S
基 準
鈴 木
紀 元
コミ ュ
機 構
や ま
交 換
プ ライ
作 っ
i f
現 れ
195 0
仙 台
安 定
田 中
限 り
プロデュー サー
責 任
描 い
リア ム
ア ス
競 走
操 作
コ ール
カナ ダ
パ ーク
相 当
農 業
刊 行
デ ス
押 し
本 来
エ ス
新 設
昇 格
古 代
意 識
周 囲
書 か
196 8
ストー リー
感 じ
殺 害
し ゃ
伝 統
ギ ター
続 く
O L
な み
向 か
194 5
ブラ ック
参 戦
兵 庫
ライ ダー
共 通
コミュ ニ
熊 本
行 く
ニ ュ
全 員
B A
友 人
in d
医 学
ダイ ヤ
ター ン
民 族
名 誉
挑 戦
S H
乗 っ
近 年
ル ート
勢 力
展 示
スタイ ル
エ リア
か ん
交 流
ロ ール
チャン ピオン
予 選
鹿 児島
10 00
要 素
陸 上
g e
小 学
ou r
毎 日
6 2
貢 献
主 催
i k
同 盟
維 持
大 陸
も ら
動 き
わ け
命 令
土 曜
と り
自 体
家 庭
つ く
通 称
反 応
コ ス
岐 阜
iv e
毎 年
性 能
範 囲
金 曜
スタ ッ
ニ ャ
イン タ
貨 物
解 説
皇 帝
役 割
ニ ス
ジ ル
除 く
K O
しく は
8 8
じ ゃ
中 村
F M
it y
あ れ
T R
オー ストラ
内 部
フィ ン
段 階
連 れ
工 学
メ ダル
札 幌
体 育
起 き
向 上
クロ ス
マ ッ
an t
パ ワー
出来 る
4 00
地 震
訓 練
S h
禁 止
オーストラ リア
ジャ パン
継 続
フォ ード
認 定
貴 族
ゼ ル
現 役
回 転
宗 教
キ ロ
体 制
ミ ング
ヶ 月
出 る
コンピュー タ
落 と
N e
エ スト
せ ん
ソ ード
N A
ア リ
ドラ ゴン
ダン ス
共 演
刑 事
奈 良
秋 田
開 通
や か
思 っ
宣 言
196 7
課 程
しま い
取 引
エ ー
S p
インター ネット
改 革
w it
キ リスト
オ ランダ
声 優
通 過
ウィ リアム
カ メラ
u e
治 療
山 田
ま と
知 り
判 断
校 舎
P r
備 え
A r
全 く
7 7
得 る
M E
東 海
観 測
ブ レー
主 な
チャン ネル
主 題
ス キ
結 ぶ
逮 捕
巻 き
対 策
良 い
フィ リ
佐 藤
首 都
単 位
テ ク
助 け
次 郎
コー チ
ボ ス
負 け
連 絡
原 子
v er
知 っ
サ ラ
一 緒
前 作
あ い
名 義
本 名
向 かっ
プロ グラム
再 開
スタッ フ
スコ ット
定 義
よ し
要 求
196 4
生ま れる
す れ
s e
6 4
減 少
ig ht
訪 れ
サイ ズ
ピア ノ
S E
提 案
吉 田
テ ム
前 後
18 0
石 川
危 険
あ ら
飛 び
V ol
バ トル
ソ 連
ショ ナル
日 曜
Y O
基 礎
U n
F I
リー ダー
更 に
制 定
メ ジャー
ひ ろ
ニ ン
コン ビ
M O
立 っ
戻 っ
首 相
発 言
カ バー
r an
B l
身 長
196 6
マ リ
取 る
も しくは
ミ ル
始 める
終 わっ
週 間
自 己
欧 州
196 5
止 め
パ ル
書 店
投 手
残 り
移 行
売 り
世 代
西 部
セ ー
分 割
S U
旅 行
用 いる
シ ナ
芸 能
依 頼
衆 議
7 5
小 型
エ ピ
B E
トリ ック
会 員
しば しば
ベ イ
イング ランド
6 5
コ ント
た ま
定 め
防 御
ッ キー
u d
オ ペ
得 意
捜 査
後 述
異 なり
ラン キング
エン ディング
向か う
教 師
投 げ
ま さ
ス ラ
判 定
ほ う
進 学
通 し
ゆ う
感 染
消 滅
レ ント
i o
マ スター
発 射
C H
ノ ル
兵 器
既 に
書 い
大 字
ガ イ
未 来
マ シン
児 童
す ぎ
勤 務
消 防
アウ ト
ポジ ション
ず か
近 代
i an
つ ける
隣 接
ソ ナ
単 独
エ リ
ボ ク
プ リン
ーク ス
更 新
ア シ
戦 車
マ ラ
同 一
改 良
6 1
新 宿
サイ ド
会 場
a st
騎 士
保 存
リー ム
保 険
帰 国
国 鉄
ス マ
中 止
年 齢
M I
学 会
く ら
D e
著 作
リア ン
推 進
当 選
立 つ
建 造
戦 士
小さ な
ド ライ
ポ リ
回 復
ロ イ
一 定
電 力
ヴァ ー
ず つ
出 力
or t
指 名
6 3
記 憶
く れ
視 聴
ウィ ン
始 まる
諸 島
ア ント
任 務
テ イ
乗 車
ボ ード
コ ル
ティ ン
区 域
ec t
p er
置 く
195 5
あ たり
ニ ッ
フィ ールド
ツ ィ
ic h
知 事
か か
王 子
ファ ミ
到 着
at e
阪 神
6 8
メ ッ
消 費
松 本
T h
継 い
だ い
ヒ ロ
機 器
6 7
ユ ダ
後 継
長 男
リア ル
当 たり
ホ ル
後 期
作 用
始 まっ
194 7
練 習
L e
Y ou
様 子
共 産
C om
ヤ マ
196 3
グ リーン
演 じ
キ ュー
理 解
置 き
海 岸
ベル ト
サ ポート
ヒ ト
収 め
長 官
ケ ーション
車 体
r y
ペ ル
大 量
文 書
N o
幕 府
資 格
た び
管 轄
ロボ ット
対 立
実 行
半 島
ティ スト
M ar
A A
フィ ー
ま つ
ア マ
モ リ
や り
ポー ランド
有 する
マ ク
応 じ
平 和
チェン ジ
与 える
起 用
青 年
本 塁
意 見
進 行
アカ デ
衛 門
殺 人
出 現
仮 面
身 体
196 2
命 名
無 く
ド ロ
フェ ン
作 る
やす い
亡 く
富 山
リ ュー
機 動
徒 歩
P l
9 8
いわ ゆる
前 述
c om
リ ュ
供 給
教 え
憲 法
M S
困 難
ヤ ン
画 面
三 郎
街 道
物 理
ネット ワーク
コン サ
イラ スト
A I
ロー ズ
ハ ル
ど も
目 標
ユダ ヤ
師 団
通 算
解 放
ジア ム
A G
ア リー
M C
i b
立 場
194 4
今 日
急 行
送 り
設 備
t e
河 川
初 回
趣 味
ベル ク
サイ ル
高 橋
ウ ルト
カ ス
ヘ ッド
対 抗
北 緯
エ ド
カ ール
ル ール
任 命
傾 向
過 ぎ
ミ サイル
確 保
思 想
創 立
196 1
づ け
U R
新 人
ウルト ラ
ブ ロック
P ro
195 4
伊 勢
元 々
当 て
直 前
計 算
入 れる
低 い
モ ノ
ヒ ル
在 籍
駆 逐
特 急
山 本
領 域
付 い
和 歌
東 部
清 水
コ マ
シ ュー
ac k
属 する
資 金
弁 護
健 康
カ ット
194 8
上げ る
生 命
開 幕
イル ス
民 国
注 目
ラ グ
換 え
ッ ター
195 6
D E
わ ずか
一 番
ち ょう
オープ ニング
吸 収
I ON
処 分
連 隊
い き
195 9
べ く
模 様
D S
a u
変 え
解 決
か 月
コミ ック
コンサ ート
金 属
小 林
徳 島
モン スター
194 9
ビ ジ
目 指し
物 質
幹 線
執 筆
ま ず
タ ク
194 1
195 8
天 文
ゲ ル
休 止
宮 城
医 師
書 房
撤 退
ば かり
アイ テム
価 格
姉 妹
上 位
ティ ア
信 号
形 状
合 計
スク ール
シ ス
審 査
大 和
再 生
交 渉
南 北
も り
ネ ーム
か さ
スト リア
ト レー
IN G
学 科
司 会
準 備
サ ブ
6 6
アー ティスト
自 衛
伊 藤
両 親
ジュ ニア
15 0
一 種
階 級
ナ ショナル
ネ タ
秘 密
サ ム
月 曜
ツ ェ
イン ディ
ア プリ
動 画
入 団
サ ス
インタ ビュー
メ キシ
ド ア
青 森
犯 罪
呼 ん
持 た
固 定
194 0
ど の
リー ド
深 夜
ポ ルト
アカデ ミー
d er
記 者
ブラ ジル
サ ウンド
マ リア
民 間
歌 詞
伴 う
検 査
スタ ント
エピ ソード
前 年
ジャン プ
日 間
お か
許 可
テ ナ
グラン プリ
O W
哲 学
ハ ード
C l
戦 隊
宮 崎
ジェ イ
ピ ング
地 位
ク イズ
ウ ッド
普 及
as s
徳 川
無 料
殺 し
I G
先 生
オー バー
適 用
トン ネル
執 行
知 識
早 く
ダ ブル
大き い
ウ イルス
ウェ ル
サ ンド
球 団
G P
テ ロ
モ ンド
p r
194 3
ジャ ック
遺 跡
スペ ース
ブ ー
v ol
川 崎
a in
じ ょう
藤 原
大 分
愛 称
ア ッ
占 領
む ら
危 機
期 待
東 経
組 ん
向 き
笑 い
公 立
空 軍
プレ ミア
差 し
見 える
ア ム
襲 撃
公 共
武 装
権 利
失 っ
判 明
p p
爆 発
検 討
ティ ブ
率 いる
寺 院
レ スト
逃 げ
必 ず
ネ イ
m an
ヴァ イ
マ ッチ
体 重
A V
潜 水
認 識
く ん
オ ート
崩 壊
結 局
ケ ース
メキシ コ
分 か
こ そ
E D
イ オン
フォル ニア
回 り
本 格
バ レー
0 8
6 9
前 半
195 2
ファ イル
入 社
ル イ
オー ディ
リ ズム
ウ ント
ロ ング
エ ト
進 ん
香 港
食 品
ど ちら
U E
分 析
少 し
や や
録 音
ラン ス
注 意
登 板
希 望
II I
マ イル
同 日
燃 料
短 期
ワ イト
守 る
l y
機 会
同 士
A Y
シ ック
寄 せ
講 師
鎌 倉
続 ける
0 1
互 い
カリ フォルニア
合 格
免 許
背 景
カ タ
毎 週
現 場
上 昇
携 帯
市 街
敗 北
戦 う
オー ストリア
っ と
メ ガ
な た
ラン ク
停 留
加 藤
分 布
週 刊
I V
創 業
ラ ボ
アイ ル
195 7
ク ール
臨 時
ざ ま
大 幅
概 念
s h
職 員
ツ ァ
ベ ト
だ ろう
チー フ
渋 谷
果た す
チャ ート
方 針
一 族
調 整
b er
た か
開 校
合 流
き り
加 盟
神 経
負 傷
用 意
リン ク
ス ウェー
シュ タ
ゾ ン
衛 星
エ フ
レー ター
プロ レス
大 使
i al
三 重
不 足
195 3
表 明
改 善
財 団
7 9
収 容
プ ス
C on
呼 称
イス ラ
十 分
スウェー デン
多 かっ
兵 衛
次 第
山 形
パ ッ
195 1
話 し
194 2
き ょう
合 っ
暮 らし
支 店
十 字
始 まり
B e
フェ ル
提 出
通 っ
買 収
し ろ
弟 子
有 効
19 30
い か
表 す
し み
結 ん
プロデュー ス
地 点
シ カ
学 習
送 っ
ワ シ
194 6
市 長
q u
否 定
ト ム
拡 張
で に
前 身
レ ッ
茨 城
優 れ
on e
O P
遺 伝
ロ ウ
ボー カル
ミ ネ
ト ーク
三 菱
良 く
場 面
取 ら
ハ ム
や が
過 ご
タ レント
S C
an g
テ キ
す でに
ケ イ
強 制
左 右
流 れる
統 治
変 身
ゆ き
置 い
各 種
6 00
ビジ ネス
人 類
リ コ
大 賞
区 別
命 じ
合 成
M P
め ぐ
集 合
ラ ブ
A m
メ ール
閉 鎖
ホ ン
ベ ー
スタ ジアム
沿 い
論 文
ウェ ブ
描 写
藩 主
現 象
原 則
ウォ ー
ク イ
ス ル
患 者
あ げ
専 攻
兵 士
略 称
試 み
f f
金 融
アレ ク
ヴェ ル
武 蔵
福 井
重 量
ホ ワイト
古 墳
8 9
久 保
シ ップ
遺 産
生 じ
見 え
ラン ト
ag e
次 い
ラ テン
住 む
推 定
こ ちら
寄 り
G M
サ ウ
ク リア
翻 訳
オ フィ
長 く
レ オ
自 転
住 ん
渡 辺
まと め
広 告
a h
7 2
レ コー
アイル ランド
捨 て
増 え
南 西
ヒ ュー
フラン ク
も ん
竣 工
作 中
やが て
G O
ジョ ー
う え
中 部
カ レ
人 生
戦 略
判 決
かけ る
あ と
i es
ソフト ウェア
先 発
自 宅
ッ キ
ポ ル
E X
数 学
ミ ナル
付 属
en d
往 復
祖 父
拒 否
合 う
積 極
0 9
ラ ク
か わ
小 田
ハ リ
ア ート
o h
講 談
す なわ
すなわ ち
マン ス
ご ろ
相 互
規 制
I P
I R
8 00
北 西
さ え
ラ ・
軍 人
吹 き
お う
扱 う
ーン ズ
古 い
現 地
残 る
7 6
も たら
国 会
ア クション
i de
8 5
さま ざま
実 業
マ ジ
求 める
支 払
v s
ビ ッグ
侵 攻
駅 前
抜 け
パー ソナ
ス イ
マ グ
大 半
価 値
結 び
移 管
シ ート
i x
0 4
プ ラス
東 洋
案 内
E n
格 闘
1 20
o k
切 っ
指 示
歩 兵
称 し
よ い
死 後
福 祉
a z
突 き
海 上
高 度
現 実
手 段
興 味
体 験
かか わら
証 明
井 上
ど こ
は る
八 幡
知 る
あ き
P h
ヴィ ル
低 下
空 気
考 える
相 撲
信 頼
l d
ハ ンド
植 民
ロ ケット
法 学
結 合
セン ス
駆 け
属 し
フ ライ
がっ こう
ブ ック
パイ ロット
ボ タン
震 災
残 さ
組み 合わせ
0 5
ow s
も つ
電 鉄
フィ ア
遅 れ
フォ ーム
ティ ック
広 い
装 甲
改 名
事 態
代 理
W A
走 行
留 学
楽 器
っ て
歴 任
ブ レイ
E T
ヴァ ル
ね る
プロ ダ
u re
ター ミナル
抵 抗
や し
終 点
ガン ダム
ネ ー
し ょ
基づ く
画 家
ご う
エ ジ
悪 魔
話 題
中 間
マ ガ
若 い
H e
生 息
承 認
188 9
8 6
広 場
英 国
変 わっ
or d
王 者
0 6
有 し
貿 易
エ ク
ス リ
数 多く
19 20
ガ リー
テ イン
レー ベル
9 5
役 所
事 情
満 た
ント リー
資 本
国 王
次 元
予 備
投 資
LI VE
本 編
護 衛
グ ロー
本 拠
率 い
募 集
東 西
ハ ッ
の り
規 格
協 議
u c
集 中
外 交
深 い
わ たっ
フ ット
ば し
申 し
en s
白 い
修 道
強 力
つ なが
W ind
育 成
プ レス
応 援
超 える
ハ ート
平 日
ar y
改 修
ショ ップ
8 7
開 か
バ レ
i z
超 え
ビ ット
ワ イド
北 東
ら す
反 乱
f e
正 体
軍 団
ベト ナム
上 がっ
集 落
衝 突
バン ク
冒 険
木 曜
ic e
S e
ス パイ
ドライ バー
終 わり
移 住
相 談
起こ す
人 形
表 面
岩 手
心 理
群 馬
アク セス
ペ ット
聞 い
193 9
至 っ
a w
渡 り
あ なた
ま ち
池 田
モ ーター
ステ ーション
ジ ット
ソ ビ
完 了
レ ート
は ず
プ ール
メッ セ
当 たる
感 情
教 室
起 点
従 っ
和歌 山
警 備
諸 国
初 め
S O
is h
暗 殺
入 手
将 来
つ まり
統 計
手 法
脱 出
S u
メ ディ
実 力
or y
箇 所
音 声
北 京
バー ン
フ ー
ド ・
動 作
議 論
平 方
0 3
四 国
アイ ス
各 国
隠 し
ウ ト
部 下
0 2
引き 続き
Ne w
過 程
or e
辞 典
駅 舎
の 子
進 化
取 材
進 む
基づ い
か す
稲 田
バラ エ
メ ロ
保 有
探 偵
カ トリック
世 帯
on g
C E
ゼ ロ
エン ター
セ レ
男 女
個 体
193 7
タ リー
規 則
ポルト ガル
地 帯
演 劇
放 射
提 携
投 入
譲 渡
ア タ
コレ クション
上 野
用 語
パート ナー
ス ティー
居 住
協 定
下 げ
iv ers
ライ フ
無 線
分 子
歴 代
ボ ディ
戦 艦
ソ ウル
目 指す
アメリカ ン
ベル リン
買 い
ディ レ
ラ リー
7 3
発 達
天 然
ゼ ルス
必 殺
限 ら
再 建
千 代
着 用
割 り
際 し
エ ース
越 し
付 ける
ク ロー
大 人
ブレー キ
ディ スク
南 東
生 み
ニッ ポン
新 田
名 付け
午 後
新 型
信 仰
エ ム
コ ピー
議 長
訪 問
下 り
東 映
従 事
ジェ ーム
当 日
銀 河
ソビ エト
u st
証 券
そ んな
側 面
全 米
M us
モ スク
学 者
ヌ ス
ブ ラン
養 子
バス ケット
戻 る
全 長
受け 入れ
およ そ
ド ーム
手 が
ワシ ントン
操 縦
O K
コ ア
ロ バート
絶 対
中 世
普 段
ち なみ
ス イス
20 21
バ ード
落と し
C T
発 着
ラ ッ
キャ リア
末 期
社 員
記 さ
転 換
守 備
キ ア
ポー ター
爆 弾
ジ ニア
張 り
殺 さ
女 王
0 7
エジ プト
渡 し
直 し
ディ ス
締 結
多 様
グ ランド
ヨ ン
緊 急
伸 び
バー グ
終 え
機 種
スピ ード
お お
長 期
確 立
達 し
参 議
要 請
エ ール
193 6
ス ポン
商 店
西 側
観 客
政 党
巨 人
8 3
義 務
翌 日
b y
境 界
ッ ズ
授 業
起こ っ
ギリ シャ
ブ ログ
ス ポ
リ ウス
回 避
幹 部
昇 進
メ イト
ど り
マ ド
フィル ム
高 知
繰り 返し
す ら
it e
栃 木
選 抜
終 盤
一 切
中 山
人 工
マ ックス
生 成
つ か
争 い
焼 き
項 目
M L
赤 い
T E
職 業
離 脱
手 紙
た け
戦 国
実 質
和 田
学 ん
ユー ザー
テ ッド
ブ ロ
テイン メント
プロダ クション
発 揮
史 上
ホ イ
テ ニス
コ ロン
コ メント
恐 れ
ゴル フ
な す
幼 少
ッ サ
約 束
W E
輸 入
レ オン
け い
193 8
エン タ
イ レ
9 2
芸 人
C o
コミュニ ティ
西 武
oo k
ナ メント
f r
S c
) ,
マネ ー
カ ロ
描 く
書 籍
ライ ター
乗 る
単 行
人 員
メ ー
月 刊
古 く
徐 々
越 え
死 ん
9 6
劇 団
補 助
Wind ows
解 体
D J
ベ ット
傘 下
活 用
恋 人
ブ ライ
収 入
敷 地
a i
か く
初 頭
8 2
回 る
ゲ ート
正 確
S F
ov e
悪 い
アニメ ーション
最 多
p e
下 記
本 当
k e
た と
売 却
ヴィ ン
連 結
ロ ゴ
W or
ま い
ドラ ム
令 和
リ ニュー
as e
金 沢
ろ し
分か れ
ジャ イ
い ろ
ハン ガリー
上 映
附 属
守 護
ナン バー
ソ ニー
ロ サン
祭 り
鳥 取
チュ ア
8 1
対 決
リニュー アル
コ ラボ
夫 人
働 き
トー ナメント
現 存
p l
酸 化
ジ ム
a ch
D O
接 触
公 表
流 行
ファ ッション
読 売
連 携
恋 愛
切 れ
パーソナ リティ
ジェ ット
午 前
仏 教
戦 死
フ リ
料 金
財 政
現 れる
屋 敷
E S
来 る
半 分
ウィ ル
ラグ ビー
両 方
o y
o x
ダ メージ
駐 車
画 像
盛 り
明 る
D D
グ ロ
プ ラン
キ ス
社 名
武 田
ハ ウ
オペ ラ
態 度
答 え
ト ヨ
栽 培
評 論
々 木
と ど
性 質
解 釈
小 野
is s
モ ア
9 7
ロサン ゼルス
五 郎
ミ ッション
聞 き
放 映
on d
会 話
子 ども
マガ ジン
ロー カル
自 殺
神 話
ガ ール
育 て
た ん
ま ん
T T
ation al
ガ ード
太 田
国 境
B r
予 想
ク エスト
順 位
勝 負
早 稲田
ト ライ
渡 っ
創 刊
ミ ッド
先 行
スト リート
修 正
タ ス
B L
佐 賀
V er
ガ ラス
ゴール デン
手 術
ヒー ロー
キ ック
水 曜
頭 部
複 雑
T e
数 字
クライ ナ
中 野
興 行
193 5
し た
尋 常
山 梨
トル コ
構 想
パ ク
スカ イ
. ,
合 意
天 使
私 立
曰 く
国 勢
カ ム
ブ ス
ヤ ル
p t
193 3
大 手
整 理
顧 問
交 響
伯 爵
マイ ケル
会 館
ま れ
具 体
角 川
上 海
ic al
標 高
違 う
須 賀
小 さい
7 4
C P
入 口
s s
ac e
お こ
キャ ッチ
か かる
込 め
8 4
合 同
交 代
極 めて
材 料
ヘン リー
マ ニア
災 害
リ ット
ア ミ
p s
モ ール
メッセ ージ
193 4
い え
装 着
み んな
暴 力
構 築
フィ ック
メ カ
血 液
ic a
ウ クライナ
ルト ン
見 つ
本 体
P G
レ ル
モ チーフ
沿 岸
類 似
い け
バスケット ボール
見 せる
戻 し
明 確
あら ゆる
決 意
看 護
改 め
チ ル
悪 化
作 者
詰 め
ギリ シア
重 ね
19 28
7 1
7 00
圧 倒
木 村
シェ ル
発 動
防 止
チ ア
193 2
同 期
探 し
もっ とも
時 計
T S
デ ・
ファミ リー
25 0
ゴ ールド
TO K
混 乱
ライ バル
出会 い
S ch
メ タル
脱 退
黒 い
保 持
あ わ
コ ート
古 典
有 限
異 常
キャ スター
開 い
授 与
と る
し ゅ
両 者
深 く
投 稿
トラン ス
スケ ート
ワ イン
m ent
グラ ス
N O
ミ リ
セ プト
さ くら
下 部
ノ ス
修 了
様 式
ア レンジ
主 力
9 1
en ce
上 陸
火 曜
除 い
容 易
レン ジャー
語 り
差 別
19 29
ョ ン
経 緯
振 興
ヒロ イン
一 致
マ リー
確 定
戦 線
F L
加 工
スト ロ
in t
姿 勢
帰 還
ボー イ
働 い
取り 上げ
優 先
ユ ース
蒸 気
ケ ージ
ル イス
支 部
ま せ
や く
措 置
ミ ラ
9 3
カ ッ
B M
病 気
レ ール
利 益
外 部
エ ンド
挿 入
再 度
激 しい
称 さ
1 10
上 下
球 場
ジャ ケット
バラエ ティ
デ モ
改 札
フロ ント
之 助
監 視
願 い
バイ パス
以 内
中 島
即 位
しば らく
違 反
新 規
M e
奴 隷
柔 道
公 認
レコー ディング
先 輩
193 1
ゲ ー
楽 団
トヨ タ
高 松
調 べ
が ん
E x
わ れ
区 分
短 い
う た
団 地
ツ ー
上 がり
次 男
著 書
9 4
印 刷
抜 き
関 数
ファン タ
変 換
H I
C A
決 まっ
送 ら
重 視
不 詳
復 興
C L
電 動
在 学
oc k
s p
参 謀
も ち
生 涯
石 油
保 守
In ter
最 近
劇 中
H P
回 数
イ エ
一 員
申 請
N S
ベ ス
予 算
レン ズ
スポン サー
併 設
じ ん
モ ーション
再 現
ノ ース
倒 し
ステ ル
クレ ジット
当 該
有 力
シナ リオ
一 家
輸 出
下 車
先 端
も し
権 力
降 り
日 記
モ ル
r u
主 体
っ ぽ
タ ッグ
チ ス
ドラ フト
地 図
ディレ クター
夫 婦
爆 撃
出 走
屋 根
マ ニ
触 れ
称 号
北 側
19 23
モン ゴル
O F
打 率
瀬 戸
イン チ
ら え
T A
平 安
L L
誘 導
快 速
m e
道 具
ヤ ング
レ ム
短 編
後 方
搭 乗
跡 地
愛 媛
さ せ
推 薦
ディ ズ
ク ソン
合 戦
ス リー
突 然
遠 征
空 中
太 子
E d
イスラ エル
松 山
ち ょ
19 27
測 定
解 除
F E
振 る
ub e
I A
i re
上 り
ボ ックス
ライ オン
著 名
問 わ
通 行
戻 り
un d
モスク ワ
コ ム
タ ワー
大 隊
19 24
に く
異 なっ
外 見
大 橋
ク リー
C K
ほ ん
キャン パス
オーディ ション
エ ディ
意 思
学 ぶ
ご く
C ol
直 通
最 強
印 象
退 職
子 孫
フィリ ピン
と おり
ド ライブ
at h
広 げ
チャ ード
上 部
最 低
東 側
c c
く れる
黄 色
b e
一 体
ジェーム ズ
過ご し
ダ ーク
考 慮
追 放
wit h
多 摩
収 集
単 純
ジャ ズ
妖 怪
あ の
ビ ジョン
出 発
ギ ン
閲 覧
パ フォー
信 じ
半 ば
活 性
文 献
通 う
許 さ
ク ルー
19 26
19 25
ラ スト
気 象
攻 略
引き 継
費 用
て ん
春 日
英 雄
マ リオ
ミュージ シャン
象 徴
ら しく
ビ ーム
当 主
幼 稚
離 婚
P R
H O
帰 っ
ミ ックス
ティ ス
ファイ ナル
G r
パ ック
該 当
ア キ
関 与
関 心
台 風
レン ス
も とも
もとも と
市 内
国 土
特 典
故 障
キャ スト
S y
抱 い
バ リ
滞 在
i le
返 す
歌 っ
資 源
ジャン ル
不 可
討 ち
ち ゅう
幼 い
親 友
並 び
c l
クラ シック
戦 っ
火 災
再 会
引 っ
漢 字
フォ ーク
出来 事
言 え
盛 ん
ステ ークス
依 存
チャ ールズ
修 理
な ぜ
忘 れ
ゲ イ
オ プ
ネ ン
ヴィ ー
スコット ランド
失 わ
パ ソ
学 術
ケー ブル
敗 退
流 通
部 品
モ ニ
ブラ ウン
河 内
攻 め
証 拠
打 撃
ワ ル
侵 入
ソ ル
菓 子
I O
学 び
タン ク
C S
決 戦
分 岐
起 源
マイ クロ
ナ ミ
同 級
抑 え
委 託
効 率
ドル フ
リス ナー
宝 塚
レスト ラン
ポ ケ
H T
N N
シア ター
言 及
前 田
射 撃
コ ウ
前 期
ひと り
信 用
う る
高 田
折 り
任 意
山 脈
は じ
が ら
意 図
か かっ
怒 り
負 担
カ テ
借 り
ピ ーター
音 源
コ スト
絵 画
モ ス
er t
プ ター
コン セプト
北 朝鮮
起こ る
温 度
気 持ち
食べ る
ド キュ
ボク シング
あ ろう
受 験
聖 書
区 画
ッ ピング
an n
亡く なっ
地 理
自 社
- )
出 馬
特 集
訴 訟
マル チ
エ ロ
ディズ ニー
ラ ウンド
発 掘
er n
日 常
右 衛門
シ リア
複 合
ド ール
香 川
パッ ケージ
パ ターン
入 力
滋 賀
最 新
走 る
線 路
平 野
U T
ar e
文 明
ネ マ
次 々
来 日
移 り
グ レイ
ア ダ
f t
り ん
ic k
oo d
大 野
青 山
ジュ ール
特 性
1 30
中 期
Pl ay
回 っ
記 し
全 域
スー ツ
M y
沿 っ
変 形
19 22
南 側
R A
嫌 い
ポ スト
キャン プ
解 消
c on
リ チャード
想 い
P ar
単 に
ス プ
代 替
キ ット
ナル ド
伝 える
アシ スタント
埋 め
ネ シア
ま え
岡 田
直 線
天 正
動 産
ハ ラ
i er
エ クス
無 人
犠 牲
A d
近 鉄
終 わる
あ たっ
ぐ る
分 解
G T
19 18
到 達
織 田
研 修
ジ ラ
お も
家 臣
消 し
ソ ース
ショ ート
ファ ル
進 み
長 年
住 居
セ ミ
将 棋
衣 装
ま ら
自 民
一 環
L D
ペ ーン
ング ル
ポ ップ
エ ッ
田 村
W h
ベ リー
FI FA
ap an
TOK YO
インディ アン
わ し
インター チェンジ
辞 任
ざ る
処 刑
援 助
肉 体
コミ ックス
ス ロー
19 19
じ ゅ
破 り
ビ ュ
上 がる
包 囲
マ ツ
ク トル
演 技
試 作
国 有
バッ ハ
接 近
ゾ ーン
兼 ね
スター ズ
発 明
親 王
キ ル
症 状
簡 単
ージ ェ
前 方
レー ン
l a
タ ム
後 ろ
ファー スト
突 破
ガ リ
観 察
ic s
コミュニ ケーション
っ くり
周 り
取り 入れ
配 備
怪 獣
思 う
記 号
u g
シカ ゴ
生 じる
ゼ ント
シ スコ
神 宮
ゆ え
セン チ
分 裂
高 級
占 め
佐 々木
明 け
行 方
L a
校 長
扱 わ
An d
パー ツ
抱 え
犯 人
谷 川
送 信
働 く
ac t
塗 装
fe at
5 000
ボー ナス
故 郷
全 線
パフォー マンス
E P
ノ イ
山 崎
天 王
代 わっ
去 っ
3 000
ファイ ター
伝 承
エ ラ
次 ぐ
保 障
文 部
黄 金
テ ネ
不 良
資 産
パソ コン
合 唱
撤 去
楽 し
負 っ
マ レー
学 年
循 環
スマ ート
イ ェ
参 考
キャン ペーン
宣 伝
全 面
発 音
除 き
総 督
フェ リー
ar l
i i
サン ダー
批 評
J oh
同 名
伴 っ
リ ヒ
独 特
ベル ギー
ol og
ライ センス
ス パ
メ トロ
議 席
デン マーク
司 法
方 言
回 収
マ ット
ド リーム
変 わら
再 編
19 21
タク シー
少 将
既 存
キャ プ
ッ カ
食 事
クリス マス
メ モ
出 席
座 席
続 編
D F
甲 子
恐 怖
教 員
才 能
診 断
ス ン
ド ウ
カ フェ
別 れ
O r
衝 撃
ウィ ーン
ou n
ナ ビ
g r
ダ ニ
ラン プ
期 限
S M
w w
選 ん
基づ き
今 後
大 佐
示 さ
共 有
北 条
フット ボール
女 の子
連 覇
架 空
た し
観 音
え き
J AP
所 持
W eb
下 位
G E
北 陸
ON E
中 隊
端 末
カレ ッジ
保 安
し も
定 着
経 路
建 立
通 る
疑 問
スト ライ
You T
同 月
三 角
番 地
車 線
み な
大 将
LO VE
キロ メートル
事 前
19 14
V A
訴 え
応 用
解 析
Wor ld
財 産
ア リス
功 績
修 行
フレ ーム
冒 頭
カ ート
双 方
友 達
近 畿
気 候
上 演
歌 う
ヴォ ル
J apan
言 える
im e
村 上
在 住
大 西
水 戸
シュタ イン
出 張
推 測
火 山
奪 わ
属 性
後 者
経 過
成 分
トレ ード
カ ウン
フィ ギュ
厚 生
K E
Un ivers
領 土
台 車
か ね
電 波
信 長
H z
a e
国 防
助 手
スキ ル
認 可
出会 っ
マイ ナー
地 獄
v e
プレミア ム
ハ ワイ
詩 人
と て
養 成
抗 議
ネ オ
警 視
ピン ク
庁 舎
一 連
出 資
ブリ ッジ
ギ ア
ユニ バー
デ ラ
閉 店
促 進
相 続
封 印
メ ス
ウ ラ
サ ウス
フラン シスコ
仕 え
落 語
放 つ
海 洋
用 途
フィリ ップ
駆 動
ヤ ク
バ ット
ミ ラー
今 回
報 じ
フィギュ ア
す け
大 名
成 田
マ サ
別 名
ヘ ビー
士 官
安 打
戦 時
自 主
フィ ール
実 績
送 る
宇 都
19 00
大 宮
リス ク
モ ント
バレー ボール
教 皇
造 船
wit ter
アマ チュア
退 団
ター ル
L ove
AN D
ヘ イ
気 づ
開 館
あ く
怪 我
バ イス
未 満
チ ック
市 川
味 方
い える
四 郎
イ ラン
M V
I E
フィン ランド
学 区
変 わり
やす く
工 作
要 塞
後 任
開 店
違 っ
イス ラム
上 田
素 材
会 見
書 記
メイ ク
厳 しい
セ ブン
原 題
加 わっ
D r
審 議
高 原
正 義
イ ナー
ハイ ム
テー プ
実 装
S D
d u
証 言
コン テン
創 造
浴 び
19 12
想 定
降 伏
説 得
マ スク
ジェ ル
ミュージ カル
JAP AN
たと えば
派 生
青 春
テキ サス
ノ ール
宇都 宮
ホール ディング
固 有
レー ダー
短 縮
トラ ブル
実 家
コ ムー
賞 金
演 じる
移 民
美 子
遊 び
勉 強
開 局
s on
ビ リ
人 数
死 刑
暴 走
正 面
レー ザー
無 かっ
is c
難 しい
H E
M an
作 画
雇 用
コロ ナ
小 川
武 将
表 彰
ou nd
支 え
損 害
オフィ ス
C R
ct ion
だ ん
メ タ
F or
夜 間
移 植
コムー ネ
と ら
ポケ モン
カン パ
乗 客
ロ ケ
中 川
図 る
森 林
コ フ
ヤ ード
み つ
あわ せ
足 利
Mus ic
衛 生
o st
マイ ク
例 外
や る
開 拓
粒 子
南 海
若 干
合 体
ボ ウ
民 営
19 17
決 める
保 健
e x
小 倉
日 々
描 き
地 形
救 出
課 題
パ ウ
近 郊
マラ ソン
避 難
w e
St ation
ユー ロ
歌 唱
死 者
く らい
師 範
総 務
中 日
は り
倒 す
ビ ール
不 満
苦 手
ウ ー
並 行
橋 本
し き
受 信
運 航
ア ブ
変 わる
防 ぐ
掲 げ
B GM
逆 転
運 輸
10 1
消 え
エリ ザ
坂 本
他 人
19 10
ウェ スト
デ ア
総 理
数 々
エル ン
体 系
ht t
周 波
F O
こ ん
as h
向 かい
総 称
国 外
ス ミス
海 賊
若 手
少 数
郊 外
ト ウ
会 計
聖 堂
イル ド
マ ップ
入 門
ふ く
魔 女
は っ
T r
ガ ールズ
トレー ニング
五 十
話 す
並 ん
ベ ート
持ち 主
簡 易
シ ド
終 戦
ア サ
融 合
感 謝
需 要
ギ ル
高 山
キュ ア
ノ ート
ハン ター
un g
二 十
大 島
打 点
戦 力
取り 付け
広 域
質 問
スペ ン
エレ クト
西 洋
ボ イ
ーク ル
実 用
ゴ リ
ショ ット
ナ レーション
秀 吉
デザ イナー
さ き
ポ リス
選 定
秘 書
パン チ
上 級
損 傷
プラ ット
h y
オ レ
ル ーム
ベ ラ
ッ タ
D A
ウェブ サイト
勃 発
司 教
タン パク
相 模
男 爵
美 しい
転 じ
東 宝
正 月
山 陽
低 く
P O
- 』
小 松
エ ット
請 求
ショ ッピング
ア ーム
馴 染
運 賃
フェ スティ
暫 定
ロ イド
i um
ら ん
近 隣
一 帯
AR T
ヴェ ン
日 中
タイ ヤ
流 し
三 井
ス ・
存 続
接 し
ガ ラ
降 格
巻き 込ま
ガ リア
チャ レンジ
セ ラ
併 せ
最 中
特 技
函 館
題 材
倒 れ
V S
努 力
レス ラー
騎 兵
アレク サンド
F l
提 唱
アル ゼン
就 職
データ ベース
特 許
関 わっ
ul t
P ER
適 切
空 襲
な れ
V ER
ホールディング ス
ル ン
パ ネル
パ ール
コン ク
し れ
ボ ート
鉱 山
レ ジ
ふ る
入 院
事 例
アン ダー
実 況
栄 養
商 人
ツ ール
逃 亡
分 校
競 争
威 力
が わ
ア ール
ト ロン
阪 急
ロイ ヤル
手が け
語 る
主 導
ロー ン
アルゼン チン
現 行
飛 ば
G A
サ イン
オー ケ
グラ フ
遺 体
ステ ップ
ディー ゼル
関 わら
行 なっ
ムー ビー
レ イン
偶 然
捕 虜
迎 える
召 喚
北 米
つい に
A BC
待 ち
航 海
明 日
リ ト
T witter
破 っ
駐 屯
女 神
積 み
東 方
サン タ
提 示
フ レー
切 る
t r
仕 掛け
コント ロール
19 13
反 発
19 11
チェ ル
慶 長
急 速
シン ガ
ナ ・
座 標
オプ ション
a x
成 果
登 山
L ive
魔 王
ミ ステ
払 い
山 下
阻 止
ス ロ
タ ッチ
ノル ウェー
圧 力
リ フ
行 なわ
見 つけ
わ たり
疾 患
見 解
マー ケット
中 将
先 頭
オ ーク
上 流
一 旦
松 平
Com p
オ レンジ
ポ ンド
れ い
外 務
戦 前
こ く
O p
交 点
軍 隊
家 督
示 唆
し り
フェ ア
イ チ
任 じ
告 白
若 者
下 し
吉 野
プレ ゼント
飲 み
シ オ
小さ く
騒 動
ペ ア
走 り
占 める
改 編
風 景
エンタ テインメント
航 路
とて も
フェスティ バル
ディ ン
テク ノ
及 ぶ
ガ イド
長 女
構 内
供 用
コ メディ
家 康
魚 雷
t y
ト イレ
関 わる
く に
セ ロ
オリ コン
D C
な う
横 須賀
it ion
町 名
琉 球
t on
ショ ウ
打ち 上げ
ペ ー
全 身
インター ナショナル
G I
l and
師 事
ぼ う
コマ ンド
読 者
勲 章
リ ル
水 素
相 対
YouT ube
倒 さ
もら っ
G e
u k
st r
IN E
空 母
さ と
要 因
北 九州
天 才
従 業
S A
ヌ ー
リ ッ
老 人
コンク リート
瞬 間
奉 行
べ る
北 方
S er
生 存
キャプ テン
移 っ
コンテン ツ
h a
s c
した がっ
一 貫
ショ ック
救 助
三 浦
表 し
魔 術
出 典
三 島
ズ ル
打 者
容 疑
売 上
市 営
乗 せ
退 任
P L
会 津
役 員
チェ ーン
ナ リスト
前 回
王 朝
海 峡
ネ ズ
守 り
頻 繁
ロー ラ
メ モリ
19 15
NE W
バ カ
レ ア
野 村
ヴォ ー
船 団
保 育
手 掛け
K A
食 い
じ ゅう
認 める
p ro
着 陸
囲 気
雰 囲気
紛 争
返 り
評 し
豊 田
憧 れ
は ら
確 率
インド ネシア
連 勝
シンガ ポール
悪 く
トー マス
同 僚
踏 み
権 限
後 藤
歌 劇
接 する
190 8
ベン チャー
バイ オ
艦 長
ち なん
スタ ンド
M US
覚 え
東 海道
コン テスト
番 線
H D
根 拠
講 座
施 さ
か た
マネー ジャー
協 同
9 00
高 齢
岡 崎
非 難
り ゅう
ピ ット
プロ モーション
I M
エド ワード
き ゅう
ゆ く
ピ ュ
番 台
並 ぶ
ま く
この 頃
グレ ード
掛 ける
スカ ウト
コ モ
ラ ジ
オーケ ストラ
ニー ズ
石 井
監 修
れ ん
開 き
社 団
デ ート
アナ ログ
プロ イ
容 量
三 十
ブル ース
戻 す
Joh n
招 待
検 索
回 し
ージ ー
ニ ックス
島 根
主 流
扱 っ
補 給
高 野
190 7
開 放
当 局
浜 松
遂 げ
スト ーン
アル ファ
あ さ
や め
あく まで
釣 り
シュ ート
有 料
立 た
量 産
ol d
不 能
ジ ュー
メ ット
上 京
正 規
豊 富
パ クト
思 議
行 事
目 撃
創 作
ra y
G u
s ch
お そ
メン タリー
ミュ ン
徹 底
時 刻
み る
終 結
豊 か
閉 じ
ル ・
医 薬
カー ン
伊 達
偵 察
反 映
撃 破
大 韓
ド クター
当 地
or k
ージ ュ
バイ ク
ボ ーン
踊 り
改 めて
旅 団
AC K
シン ガー
ク レイ
変 える
応 募
パー ティー
質 量
ペ イ
サイ クル
配 布
三 振
乗 降
レン タル
限 界
トゥ ー
m er
マ マ
取 扱
彫 刻
本 土
編 纂
放 出
着 い
天 気
バ ナ
一 面
ポ ケット
喫 し
甲 斐
評 議
本 店
度 々
UE FA
同 行
下 ろし
P V
そ ば
名 乗っ
日 産
もら う
r d
休 日
そ も
テ ーション
二 郎
プ ー
船 舶
レ ディ
み や
渡 る
訪 れる
飼 育
U M
復 讐
am e
in a
日 立
戦 術
史 料
官 僚
放 棄
近 藤
ブ ーム
げ ん
放 っ
F F
リ ダ
福 山
感 覚
m y
動 員
ず み
揚 げ
リ ゾ
競 輪
隠 れ
引 用
ガ ム
プレ ート
イラ ク
加 速
a il
突 入
皇 后
バ ランス
出 産
君 主
共 著
お き
語 ら
修 復
酵 素
ニ ョ
療 法
190 6
講 演
ば ん
縮 小
運 命
L A
セ ックス
宮 殿
激 しく
ない し
テ リー
k y
W e
種 族
C C
スタ ル
ミ ック
繁 殖
基 盤
延 伸
つ れ
メ イド
あ ん
ゲ ット
エン ス
ケ ード
中 断
認 知
都 合
庭 園
ファンタ ジー
保 管
カップ リング
直 径
構 え
戦 場
し ゅう
u p
真 実
削 減
前 線
お く
オ オ
無 視
立ち 上げ
排 除
イ リ
ば ら
オス マン
オ ケ
ム ーン
修 士
ジー ランド
フォ ース
al e
弱 い
成 り
検 出
実 践
叩 き
ニュー ジーランド
審 判
避 け
at a
装 飾
挙げ る
制 覇
ア トラン
ル ク
ガ ニ
マ キ
署 名
ポ ロ
義 塾
am p
勧 め
山 地
切 ら
セル ビア
もっ と
諏 訪
心 臓
コロン ビア
大 気
アプリ ケーション
ゲ ージ
財 務
好 意
R ec
ダウン ロード
パ ロ
遭 遇
ヴィ ッド
移 し
an ce
源 氏
文 芸
元 気
人 種
不 思議
ダイヤ モンド
外 れ
在 位
ツ イン
室 町
K I
っ かり
が く
容 姿
カ プ
サ ークル
190 9
控 え
ート ン
ハー フ
M M
国 連
回 路
i el
半 年
ネ ク
アラ ブ
愛 し
山 岳
- (
BO X
コン クール
廃 車
密 度
名 乗る
変 動
ラ フ
o ol
事 典
博 多
なく なっ
ドリ ヒ
妨 害
動 力
勝 手
Inter n
わ たる
f l
夫 妻
コー ラス
木 造
告 げ
バー ス
休 み
スイ ッチ
奏 者
ミ ット
青 い
モ バ
し め
エ ージェ
プロイ セン
兼 任
騎 手
壊 滅
慶 應
ラ ップ
プロ セス
19 16
マン ション
内 蔵
帰 り
炭 素
ent s
ぶ ん
ダー ビー
近 づ
カンパ ニー
当 たっ
O n
亡 命
om e
ース ター
伊 豆
王 位
Q u
・ ア
斎 藤
リー ナ
東 急
予 約
強 調
ビ ング
前 提
馬 場
ig h
スト ア
ジェ ン
表 紙
ER O
毎 回
日 野
Univers ity
入 場
り ょう
タ カ
制 服
割 合
オー ナー
ソ ニック
ず る
流 域
敗 戦
地 中
誇 る
ミ ズ
入 賞
出 土
理 想
配 属
み ち
ター ボ
楽 部
外 観
re am
コ ク
な き
独 占
サウ ルス
G o
失 い
前 日
ラー メン
か み
ir l
き ん
テ ス
本 町
車 内
st em
武 士
アー カイ
世 話
プラ ザ
河 原
C ar
美 濃
ニ オ
無 し
通 貨
ザ ク
横 断
スコ ア
ナ ウ
大 津
自 称
征 服
水 系
階 段
ホ ッ
倶 楽部
公 社
oc i
水 産
松 竹
転 向
S L
パ ナ
W OR
ボ ストン
み ず
初 演
不 安
が い
数 値
正 解
意 向
気 筒
延 期
アイ ランド
陥 っ
付 く
混 合
of t
ライ ド
ak e
結 ば
気 温
モー ニング
ビー チ
J A
上 場
A b
F ran
改 装
プロ グラ
St e
選 ぶ
教 科
カ ンド
チェ スター
スト ップ
ラー ズ
神 田
落 下
後 輩
ね ん
ゆ り
リ ャ
キ スタン
ど んな
圧 縮
乙 女
発 覚
集 まっ
売り 上げ
囲 ま
境 内
削 除
14 0
ヘル ム
野 田
広 がっ
上 杉
使 える
カ メ
イン スト
大 谷
ロ マン
U P
舞 い
アラ ビア
j ect
ラ ウ
原 理
数 え
天 体
ノ フ
AL L
it h
テ ール
最 小
背 中
黒 人
サン デー
補 佐
近 江
考 案
但 し
台 詞
c o
大 切
組 む
まつ り
米 軍
キ ム
藤 田
チ ップ
水 上
にく い
シル バー
D NA
刑 務
同 人
ドキュ メンタリー
ファ イト
晩 年
ザ ・
er e
予 測
や はり
re e
ワ ール
鹿 島
主 任
ロ ジー
マジ ック
逃 れ
拘 束
L in
乗 員
担 っ
r on
コー ヒー
さい たま
薩 摩
早 い
支 流
M BS
環 状
維 新
墓 地
ス ピン
外 科
190 5
手 伝
絶 滅
さ か
飯 田
ロ フ
渡 さ
小 山
E l
視 点
すぎ る
制 し
農 民
M on
ジェ ネ
コ ック
成 人
Pr ess
fr om
文 章
品 種
定 員
道 場
ML B
書 く
通 学
予 告
陥 落
整 数
武 道
警 戒
ロッ テ
満 州
チェ ック
楽 章
余 儀
フリー ドリヒ
埋 葬
乾 燥
ゆ み
メ ダ
読 む
チャ イ
決 議
電 源
牽 引
クラ ウ
チェ コ
図 っ
スポ ット
魅 力
は や
種 目
a de
せ よう
着 手
寄 付
M ac
ベ ニア
墜 落
浦 和
配 給
ゴ ム
え もん
バレ エ
宿 泊
or g
189 7
不 正
総 会
力 士
季 節
ミ シ
小 屋
リア ー
失 点
G B
よう やく
抜 い
旧 制
論 理
青 木
タ ナ
天 保
太 字
バ リー
喧 嘩
バ ルト
婦 人
N TT
叔 父
M B
福 田
明 石
落 選
評 さ
前 面
ic t
ア ラン
15 00
つ な
間 隔
ミ ナ
吉 川
海 戦
妊 娠
オ ム
ライ ズ
か ぶ
酸 素
歌 謡
おそ らく
ピ ク
り つ
阿 部
ガ ース
グレ ート
日 市
ラ ト
歌 舞
臨 床
双 子
体 力
甲 板
出 店
アー ケード
原 画
領 主
T D
コ ーン
エン ジニア
ウォ ル
学 名
検 察
死 ぬ
式 典
アリー ナ
無 理
メ リー
ディー ズ
無 効
フィ ート
夕 方
継 ぎ
es e
もたら し
総 裁
セ ク
司 馬
と め
f er
ド レス
観 点
ッ シャー
実 在
アル コール
ウォ ーター
山 頂
空 手
ナ チス
ボ リ
グラ ウンド
シ ネマ
電 機
事 項
さ わ
カラ オケ
主 役
マ ール
加 賀
ou s
モバ イル
出 撃
調 教
む しろ
国 籍
比 例
ヘ リコ
内 務
ニ ール
189 6
ザー ズ
os e
尽 く
ライ ナー
ア ニア
避 ける
進 める
ほ しい
エリザ ベス
含 ん
百 貨
三 木
デ ッキ
固 め
an k
襲 わ
レ ード
グラ フィック
ナ ポ
住 み
190 3
Play Station
引き 継い
AK B
け ど
公 国
ステ ン
フ ュー
is e
定 める
電 化
飾 っ
Al l
ダ ード
at t
ol l
シ オン
上 手
I s
エ ミ
チョ ウ
曖 昧
車 種
え ん
尽 力
珍 しい
美 人
い れ
プロ テ
両 国
室 内
ハ イン
交 際
狙 っ
乗り 入れ
キ ラ
伝 わる
重 複
所 蔵
190 1
人 格
バ イト
ヤマ ト
大 塚
ミ ドル
無 限
マン ガ
クイ ーン
高 架
探 検
天 神
長 谷川
en n
交 戦
山 中
確 実
和 解
公 爵
師 匠
選 考
刺 激
ど ん
紋 章
部 族
看 板
ユ ナイ
築 い
イ ヤー
リゾ ート
S R
u x
重 力
役 場
16 0
AT ION
ス ズ
物 資
ID E
調 理
学 長
it t
液 体
チ ナ
リ ク
E U
大 好き
抱 き
ハ ロ
我 々
プロ ト
フロ リダ
ト ス
ユナイ テッド
南 方
ア ダム
届 け
リ オン
抑 制
信 濃
広 報
軽 量
y n
熱 帯
古 川
生き る
D R
上 院
内 側
欧 米
著 者
皮 膚
ヘリコ プター
岩 波
チャン ス
石 田
後 部
起こ り
昆 虫
く ま
ナ ップ
置き 換え
レー シング
MUS IC
N C
ガ ソ
謝 罪
土 佐
対 照
山 城
イー スト
s u
通 勤
笠 原
長 岡
体 操
ひ ら
P A
く だ
集 英
典 型
ヴェ ー
ナポ レオン
189 0
五 輪
ガー デン
g l
大 坂
業 績
き ょ
レス リング
管 弦
有 機
づ くり
職 人
同 等
オ ラ
確 か
侵 略
正 しい
イ ク
わ かる
車 庫
m a
佐 野
可 愛
つ もり
ベ ール
儀 式
毛 利
an s
ネ コ
ヴィ ス
アタ ック
止 める
で ん
ジャー ナリスト
歌舞 伎
il d
リー フ
カ スタ
ルー マニア
ヴァイ オリン
近 衛
盛 岡
IS S
グ レー
称 する
大 衆
全 般
m i
被 災
前 者
学 問
合わ せる
プロ ー
眼 鏡
ョ ウ
保 証
まっ たく
B I
任 期
ッ パ
ニ オン
守 っ
or n
ぼ し
回 答
ズ マ
ST ER
B ar
コー ポ
三 河
レ ビュー
同 意
ow er
模 型
190 4
P art
B U
新 潮
ガソ リン
吹 替
12 5
付 与
焼 失
走 っ
が し
長 編
フィ ラ
宮 廷
化 合
推 理
ジョ ーンズ
活 発
ず っと
ウ イ
ro w
捕 らえ
g en
ジャ クソン
松 井
配 下
ど れ
調 達
ヘ リ
キー ボード
ジョン ソン
ジャイ アン
全 部
純 粋
イン テ
人 事
下 旬
考 古
客 車
巡 洋
松 田
B R
水 道
す み
日 向
シ ロ
絶 え
ニコ ニコ
フ ロー
k W
品 質
Bl u
濃 度
捜 索
白 人
P a
敵 対
はる か
め い
忍 者
ヨ ハン
ジョン ・
しか も
ヒト ラー
ぞ う
分 間
診 療
単 語
心 配
生 え
永 遠
タ ケ
賛 成
役 者
コラボ レーション
高 崎
透 明
サン フランシスコ
開 く
喪 失
藤 井
総 長
首 位
い ま
ラ ッシュ
出 雲
運 河
リ ッチ
達 する
緑 色
ブル ック
カ ワ
H S
ハ ルト
リ トル
190 2
隊 長
覚 醒
S m
大 公
m p
み どり
性 的
ig n
ミネ ート
シ ード
述べ る
条 例
スプ リング
安 倍
中 盤
学 位
貸 し
南 アフリカ
福 音
今 作
身 分
教 団
L S
理 学
東 武
救 援
飾 り
集 会
セ ール
リ ティー
ラ マ
化 石
はっ きり
立 地
R PG
ディ オ
M AN
救 急
姫 路
言 動
スティ ック
細 川
フェ イス
名 詞
降 板
川 口
す ず
if e
ボ ルト
漁 業
内 戦
品 川
アルバ イト
買 っ
M o
外 野
電 池
改 築
銀 座
救 う
ザ ード
ベ ック
高 め
代 行
追 っ
決 して
行 列
左 衛門
祖 母
回 想
死 体
人 権
ラ ド
法 則
開 け
解 雇
全 集
イ カ
地 面
歯 科
et h
F R
薬 物
ッ キング
大 変
キャ ップ
高 木
稼 働
大 地
水 中
スト ック
締 め
ダ ・
下 院
CO M
野 菜
砂 漠
バイ エルン
ズ ・
闘 争
筆 頭
優 しい
か 所
y s
出会 う
東 南
贈 ら
N BA
ド ナルド
最 古
真 っ
要 望
春 秋
パー ティ
吉 本
外 側
リア ス
人 材
操 る
i am
砲 撃
参 入
T KO
ドラ えもん
施 し
デ ター
並 み
コ イン
下 流
冬 季
ロー プ
だ し
封 じ
専 属
たけ し
椅 子
バー ジニア
食 料
大 輔
歩 行
大 山
G re
BE ST
神 殿
こ だ
ぱ い
結 晶
千代 田
好 み
勇 者
退 社
テー ブル
主 宰
日 光
配 慮
担 う
d es
恒 星
ペ ラ
特 番
リー ガ
ふ じ
個 別
育 っ
原 田
命 中
ノ ミネート
目 覚
C G
精 霊
広 がる
ワーク ス
住 友
勤 め
遠 藤
チ オ
起 動
カ ウント
浅 草
大 い
1 12
婚 約
顧 客
序 盤
ra ph
b o
ブレイ ク
- 」
倉 庫
後 年
ウ マ
IS O
講 義
マル クス
シン ボル
3 50
フレー ズ
T I
か え
撃 墜
騎 乗
幸 せ
法 的
ル ネ
無 事
O ff
ビ ート
シ グ
E M
本 項
ブ リン
河 口
長 らく
就 い
や ら
カ ントリー
教 養
海 水
行 使
懸 念
読 ん
通 路
it ed
プリ キュア
エ イト
ゼ フ
ヘ ッ
史 跡
ed ia
189 8
マー シャル
T ER
褐 色
数 十
牧 場
ム ス
幕 末
クリ エイ
排 気
w ay
マ リン
抗 争
面 目
ノ コ
ou t
ライ ヴ
an c
照 明
SU PER
ジュ アル
セ ガ
ニ ル
親 子
大 尉
重 賞
増 大
ro s
敷 設
替 わり
分 かっ
なら び
US S
継 ぐ
東 芝
名 鉄
バ レン
省 略
ギ ス
挟 ん
将 校
荷 物
演 説
荒 川
支 社
帽 子
降 下
カ レー
発 し
耐 え
I X
飲 食
建 国
僅 か
大 田
介 入
周 期
シャ ツ
ヴ ン
沈 没
滅 亡
ぜ ん
サ スペン
延 び
10 5
G R
ヘ ア
と ん
ロ ビン
セ カンド
シェ ア
検 証
ト ニー
ボ イス
結 論
m on
y l
ろ ん
ow n
当 然
余 り
チ ベット
187 1
AG E
併 用
ブ ール
繊 維
ソ ウ
集 める
筑 波
島 津
立 体
たび たび
超 人
H ar
が ち
天 井
ハ マ
就 航
ボ ブ
リ ラ
ペ ース
年 末
の ぼ
ジョージ ア
衰 退
で し
桜 井
復 元
公 務
検 定
タイ ガース
ぶ つ
流 用
住 人
3 60
熊 野
ち ん
ピ ラ
論 争
口 径
メ ニュー
が た
ク リーム
B B
従 軍
従 い
プリン ス
施 工
百 合
ブル ガリア
クト リー
経 歴
討 伐
重 傷
ふ れ
反 射
介 し
商 号
評 判
レ ナ
ノ ア
土 木
ホイ ール
株 主
モン テ
大 久保
小 島
済 み
暗 号
189 9
W ill
上 回る
天 下
アー サー
ギ タ
J O
西 村
シ ミュ
恐 竜
小田 原
改 組
野 生
学 級
し ら
製 薬
統 括
定 数
辞 職
ル フ
会 談
幼 馴染
誘 拐
k i
for m
わ ざ
聞 く
呼 吸
ub l
半 数
っ こ
am es
サ ント
獅 子
黒 田
ブリ ュ
興 業
フ ード
ルー ツ
R ob
ス ピー
キ リ
水 泳
創 建
中 等
クリ スタル
本 物
伸 ばし
コン テナ
Am er
予 防
奪 い
ム シ
滑 走
満た す
佐 久
い ん
187 3
佐 世
ット ー
ベ ーター
県 内
ピ ース
王 立
横 山
in c
監 査
ザ ル
し かっ
歌 い
認 証
佐世 保
ッ パー
水 平
アーカイ ブ
短 く
b l
ケ ア
- -
改 訂
奨 励
ブラ ッド
ダニ エル
ベ ア
併 合
ボ ラン
民 俗
ッ ティ
金 額
セント ラル
電 撃
クト リア
早 川
切り 替え
出 生
le y
D X
返 還
っ ち
対 処
海 兵
パ シ
妖 精
殆 ど
m in
残 す
路 面
d i
ディ フェン
元 禄
NE T
生 かし
欲 しい
果 て
断 念
O D
追 跡
ユニバー サル
ar k
拳 銃
ぼ く
ot t
白 石
セー ブ
寛 永
ド キ
リ ポーター
F r
クロ ア
模 し
" )
U FC
町 内
TO UR
振 動
シャル ル
O VA
住 所
化 粧
テ ラ
ダ イス
だ り
ヴィ ア
コン スタン
毎 月
ライ フル
コ ト
農 林
ア トラ
マ ウント
特 化
退 役
盗 塁
D ay
真 理
ツ ォ
八 王子
科 目
食 堂
G S
原 料
推 移
チ リ
グ ッド
天 国
ツィ ア
アダ ルト
本 種
スク リーン
幅 広い
芝 居
失 う
現 状
比 率
統 制
I L
疑 い
面 し
ド ミ
さ せる
大 井
アド ベンチャー
ゼ ー
U B
大 蔵
新 作
有 利
京 阪
定 理
ナ イン
小 泉
打 っ
AA A
テ オ
Intern ational
オフィ シャル
ent al
P er
表 題
e p
アー ズ
ハ リー
タ マ
デ レ
フェ ラー
チ ケット
MA X
順 次
メロ ディ
み なさ
テ ック
n a
乗 務
賠 償
関 節
ウェ ールズ
M ic
左 翼
g le
汚 染
甲 府
芸 名
リ バ
新 築
Y A
う まく
緩 和
覆 わ
肖 像
港 湾
RO CK
治 安
ホ ット
奇 跡
箱 根
コ ネ
同 市
楽 天
センチ メートル
グ ッズ
交 易
ブ ロード
U D
正 教
窓 口
特 撮
カ ツ
き ら
プラット フォーム
リ ム
尾 張
マ イン
丘 陵
要 する
ビ アン
グロー バル
西 方
予 報
モ ニー
プレ ックス
艦 艇
洪 水
ザ ス
明る い
ゴ ジラ
カ ミ
紅 白
年 次
M at
残 留
譲 り
ディ ーン
同 作
ar s
突 撃
遠 く
an a
西 口
中 核
真 面目
長 調
ダ ス
完 結
柴 田
プリ ント
K e
G l
伊 東
尊 敬
望 む
後 日
習 得
進 歩
て い
安 田
配 列
岡 本
ar a
トリ オ
CP U
法 務
Ch r
出 口
ナイ ター
指 令
豊 臣
厳 しく
初 戦
菊 池
ダン サー
展 望
報 酬
he l
切 断
定 年
魔 力
ヴェ ネ
国 分
キ ース
マレー シア
S K
中 京
張 っ
リ ボン
捕 獲
発 症
M F
q ue
デ ッド
C ent
イ エス
鑑 賞
航 行
ギタ リスト
メ アリー
牡 馬
狩 り
ation s
支 線
ミステ リー
今 井
ダブル ス
ペン シル
A pp
こ んな
エ キ
加 える
招 い
ブ ロン
ジャイアン ツ
ド ッグ
筋 肉
Sy stem
撃 ち
引 く
A s
エ コ
ノ ベル
中 退
I t
立 川
被 告
アン ナ
エ ゴ
受 章
P E
特 異
サー チ
ク リスト
分 散
ヴィル ヘルム
動 く
捕 手
ヨ シ
お と
京 成
技 能
わ が
食べ 物
体 内
玩 具
レイ ク
バ グ
異 名
H C
ぐる み
郷 土
麻 雀
国 務
深 刻
着 工
城 主
ライ ナ
htt p
ミュン ヘン
ジ メント
B er
お ん
セ フ
造 り
勝 っ
ホ ラー
支払 い
幼 児
胴 体
せ よ
手 続き
ウ リ
細 菌
テキ スト
シ ールド
詳 しく
b r
クロア チア
う ら
景 観
上 述
満 足
187 2
サ マー
水 準
人 質
キュー バ
至 ら
ライ ブラ
プリン セス
少 佐
博 覧
生 態
人 称
M i
標 的
隊 員
耐 久
w ard
スト レート
漫 才
リュ ウ
y a
誤 解
ハ ナ
ア パート
10 3
ハリ ウッド
哨 戒
つなが っ
D AY
th er
シ スト
垂 直
同 国
朝 廷
池 袋
ケン タ
貫 通
ピ ール
没 年
公 益
早 期
プロ フィール
カ ウ
ナ ラ
V OL
あ や
互 換
洞 窟
J r
負 う
管 区
バ キア
湘 南
沿 線
見つ かっ
ミ ッ
題 し
バ ト
傍 ら
大 王
樹 立
アン テナ
間 違
G en
ヴァ ージ
反 撃
神 学
奪 取
告 知
is m
O M
ord s
ラン ダム
民 衆
島 田
サ ク
ト マ
権 威
ut e
適 し
城 下
カ レン
ピ エール
リト アニア
ワ イルド
奪 っ
脅 威
シド ニー
ベン チ
わ たし
M r
意 志
A B
M ag
投 与
転 用
親 交
上 空
" (
F U
厳 密
知 的
ギャ グ
友 好
in s
専 念
神 聖
D L
使 え
ア ース
船 体
聞 か
繰り 広げ
引 い
強 度
技 法
狭 い
ツ イ
A t
美 女
解 任
о в
っ 子
業 界
海 底
オ イル
光 線
蹴 り
わ さ
符 号
く ろ
エ ント
189 5
石 炭
フ ロン
南 極
い じめ
世 間
今 度
SH OW
入 ら
同 型
後 退
都 心
曲 線
顕 著
リン ズ
テレビ ジョン
斉 藤
テイ メント
P ol
旭 川
携 わっ
・ デ・
ディ ナ
抜 擢
八 戸
か ず
立て る
フラ ッシュ
果 実
商 標
グ レン
背 後
電 磁
マネ ジメント
k a
物 体
駅 名
内 田
悩 み
マ ウス
ブライ アン
じ ょ
コ ンド
187 5
C or
シャ トル
ア ーク
P e
絵 本
落と す
列 島
介 護
パ レス
ボク サー
住 吉
年 金
186 8
半 身
京 王
18 80
引き継 が
ab le
アル ゴ
アナウン ス
殿 堂
東 山
表 情
もたら す
明 かし
解 答
は ん
ユニ オン
M R
ステ ー
近 世
府 中
不 要
外 伝
V R
ar ch
ルー ン
富 田
10 2
マ ニュ
出 品
水 野
会 っ
セ ラー
ビ リー
地 質
貴 重
なか なか
ク タ
リ レー
暮 らす
違 法
過 剰
取り 戻し
ブ リー
排 出
石 原
老 朽
H er
成 し
極 端
モ ト
増 し
売 れ
ベース ボール
チン コ
プライ ズ
ロ ニ
サー バ
R o
a f
ス ワ
造 ら
W BC
出 入
188 6
リ ッジ
先 代
浜 田
g er
タ バ
in o
警 告
再 婚
法 令
ア ジ
ふ た
シ マ
ap p
和 泉
工 芸
ハ ーン
多 用
も も
プログラ ミング
職 務
Ar t
母 音
在 任
熱 心
問 い
赤 色
充 実
セ ッション
狙 う
逃 し
露 出
パロ ディ
グ ー
コン サル
個 々
個 性
シングル ス
公 民
ing s
異 動
入 居
潜 入
ア バ
親 衛
所 長
数 百
ネ ディ
追 わ
平 面
ナン ス
アイ デア
歩 い
借 金
M et
ウェ ン
小 路
冷 却
暗 黒
ヨ ハ
本 田
189 3
ut ion
我 が
上 司
n er
備 える
一 行
継 が
赤 坂
ア ビ
In c
ナイ フ
台 北
仮 名
G irl
敗 れる
発 信
N P
会 い
戻 さ
re t
思 考
ar i
駐 在
虐 殺
セ ッツ
返 さ
割り 当て
部 位
ア ベ
イ ノ
セ キュ
幹 事
n et
バル セロ
挨 拶
18 78
エ ビ
望 ん
リ メイク
y o
E L
種 子
所 得
l es
St ud
花 火
サ リー
首 長
唱 え
原 型
189 2
マス コミ
マー ティン
エレ ベーター
クー デター
連 動
武蔵 野
発 注
B F
バルセロ ナ
星 野
西 暦
EN T
ソング ライター
もち ろん
エクス プレス
レ フ
c y
ヴィ チ
那 覇
性 別
カ ジ
忠 実
A ir
ベ ッド
取り 組み
思い 出
ぎ ょう
サ クラ
浅 野
同 志
olog y
把 握
祝 日
付 加
債 務
牧 師
生 前
赴 任
増 刊
ヘ ー
クラス メイト
噴 火
チャンピオン シップ
y ou
礼 拝
音 響
前 橋
新 書
公 司
内 野
初 日
常 務
川 越
医 科
d o
エ ナ
未 だ
水 域
A ss
由 紀
生み 出し
1 18
根 本
越 後
小 笠原
挑 む
グラ フィ
脂 肪
誤 っ
技 師
バ ク
十 郎
マ スコット
向 い
v el
アド レス
方 程
ラ ック
渡 す
留 まっ
仕 組み
金 庫
ピ アニ
加 わる
都 立
ダ ース
王 女
O ne
お っ
シ ウム
ST AR
v on
ウル フ
ど ころ
13 5
繋 がっ
抽 選
宮 本
の び
流 出
呼び かけ
s er
飲 料
ホン ダ
サ ギ
188 7
干 渉
廃 棄
概 ね
不 動
代 々
集 配
パ ブリ
田 辺
勢 い
商 工
日 米
交 付
あ え
タ ラ
ic an
き れ
小 牧
帰 る
さ く
ア ロ
去 る
標 本
コー プ
ミ カ
広 大
as on
宮 内
W ar
i en
ers ion
怪 物
安 藤
t d
マ ケ
マ ンド
最 寄り
ゥ ー
ウィリアム ズ
エージェ ント
ウ エスト
オ イ
お 前
つ る
入 植
ポー ズ
メ リ
マル ク
川 上
準 々
反 面
次 官
頂 点
関 わり
伝 達
マサ チュー
慶 応
助 言
療 養
泣 き
コ コ
マサチュー セッツ
倫 理
津 軽
太 鼓
ゴ リー
対 面
知り 合い
サー キット
シ フト
佐 伯
海 域
症 候
旅 館
松 浦
アント ニオ
グラ ビア
演 習
ペル シア
て つ
ゆ かり
酒 井
週 末
ダン ジョン
熊 谷
J e
11 5
登 記
t a
189 1
受 容
わ かっ
レ シ
藤 沢
名 人
R ad
庶 民
船 橋
フィ ニ
も らい
電 圧
対 空
セル フ
ran s
ロ ル
除 去
pr es
ER S
起 訴
飛 ぶ
カロ ライナ
吹き 替え
el e
鎮 圧
取 れ
G oo
189 4
橋 梁
バン ダイ
低 迷
夏 季
in k
伏 見
判 事
有 権
10 4
サ ード
タ リ
増 設
重 大
白 色
ベ リア
メ ソ
変 異
オ カ
ナ ック
平 行
越 前
下 関
パ レード
187 6
皇 子
探 索
リ クエスト
斬 り
T ra
要 件
B i
精 度
N et
町 田
デ ント
流 さ
ラン カ
カー ブ
ル パン
プ トン
新 しく
d ay
加 わり
スト リ
ハ ヤ
起こ さ
ム ズ
不 在
南 米
契 機
落 成
王 妃
秋 葉
部 長
av e
東 口
恵 まれ
淡 路
家 系
明 かさ
支 所
ワ ク
C OR
ブラ ウ
プロ セ
ム ラ
使 者
釈 放
久 留
葬 儀
逃 走
笑 顔
外 し
適 応
ジ ング
燃 焼
ッ チャー
喫 茶
取り 組ん
一 気
惚 れ
大い に
イ ・
フレ ッド
神 々
難 易
豊 橋
光 学
188 5
ピ ーク
菩 薩
タイ ミング
カ ブ
ハ ミ
ア プロー
エ ーション
弾 薬
横 綱
羽 田
ま か
比べ る
信 者
捉 え
官 房
4 000
皇 太子
骨 折
名 乗り
ギャ ラリー
ロ ド
不 振
対 称
面 倒
識 別
リ モ
ぎ り
他 社
アプロー チ
G L
自 信
11 3
フィラ デル
火 星
17 0
た て
中 旬
市 制
突 如
シュタ ット
11 1
NEW S
N AS
津 田
つなが る
公 的
移 さ
フィラデル フィア
ト マス
変 遷
許 し
ビ ッド
森 田
各 社
支 給
分 ける
AT O
う つ
わ か
若 松
g h
育 ち
馬 力
替 える
力 学
ポン プ
In st
み なみ
ヒ ン
気 圧
187 4
磁 気
院 長
目 黒
防 災
ホ ークス
オ ロ
領 地
体 調
呪 い
IC E
立 法
負 い
手 前
ブレ ード
UN D
挙 行
な つ
組み 込ま
j p
豪 華
掲 示
C oun
モ ロ
格 納
at or
スリ ム
撃 退
188 4
角 度
18 70
良 好
右 側
稲 荷
ッ セル
188 8
N ight
キ ッド
ワー ズ
誇 り
I BM
望 遠
郡 山
P RO
宣 教
セ リフ
阻 害
爵 位
ディス プレイ
ケ ート
まん が
活 かし
殺 す
め ん
公 募
協 奏
マド リード
本 郷
懲 役
ル カ
ヶ 所
招 集
し の
八 木
同 性
アー ノ
合 理
志 願
コ ブ
金 田
据 え
チーム メイト
バ ウ
享 保
ク レー
各 駅
遅 く
ボー イズ
分 から
薄 い
化 し
真 相
競 合
コンピュー ター
習 慣
テクノ ロジー
服 装
だ ら
策 定
W W
ブ ロー
感 じる
フォ ール
オ ウ
ラ ード
ロッ コ
転 校
し っかり
アシ スト
剣 道
小 隊
ピ カ
加 茂
右 手
待 っ
マー ケ
わ から
ち に
安 政
声 明
本 国
中 東
実 戦
復 旧
ツ キ
チャンピオン ズ
Goo gle
植 え
テ ュ
摂 取
ヤク ルト
U C
内 海
187 9
さ し
出 荷
エン ジェル
S ou
ま ね
留 め
M T
M ON
p m
浄 土
戸 田
オ ナ
パー セント
グ ン
新 生
最 適
コンビ ニ
さ つ
管 制
ミ ヤ
就 役
リ ッツ
イスラ ーム
リ バー
農 村
基 金
打 席
メ ド
シ ッ
ゾ ー
教 諭
陣 営
ス パー
中 田
C r
都 内
u al
狙 撃
大 森
ww w
D o
並 べ
E r
定 時
バ リエ
ハ ド
ザク セン
P P
ド メイン
メン タル
爆 破
牝 馬
フィ クション
喜 多
梅 田
オム ニ
u ra
駆 使
リー マン
タ ミン
プレー ヤー
n o
松 尾
浮 上
10 9
R C
ルー ズ
制 約
b le
塗 り
タイ ガー
デ バイス
右 翼
崩 れ
は な
タ ント
世 田
任 さ
em a
村 山
E le
チェ ロ
m l
過 激
186 9
エ リック
視 覚
こ い
見 なさ
セキュ リティ
シ ブ
ディ ・
os h
二 塁
C V
ま き
エ ントリー
初 版
あ だ
ま しい
ポ スター
コーポ レーション
多 少
高 める
飼 い
オ ト
am a
コミ ュー
ちょ っと
a ir
カル タ
正 当
禁 じ
出 題
量 子
見 直し
辞 退
津 波
ユ キ
白 鳥
ピアニ スト
弘 前
宝 石
陰 謀
サ ロン
火 力
三 田
マ ック
巡 っ
13 9
スト リー
V TR
クラ ーク
損 失
竹 内
商 事
K B
最 期
ウィ ーク
X T
母 体
探 査
砲 兵
排 水
パ パ
ド ミニ
ナ ード
ディ アン
く じ
日 程
リー チ
16 00
楽し む
探 す
An n
た ろう
t ra
フェ ス
re d
農 家
ラ ヴ
保 全
歩 く
le x
大 神
じ み
チャ ージ
シャ イ
引き 起こし
ター ゲット
プ チ
助 ける
同 局
弱 点
ファイ ア
注 文
ざ い
怪 人
数 列
ネズ ミ
丹 波
仮 想
市 販
ー リ
パイ プ
マ カ
珍 しく
付 か
ジョ ル
飛 ばし
金 子
ボラン ティア
L P
因 子
有 馬
ライ アン
ウォ ール
利 根
エ リー
金 銭
ジェ リー
過ご す
電 流
コン パクト
本 質
工 科
想 像
西 鉄
D on
ド コモ
M Hz
M X
松 原
カ 国
当 てる
秩 父
ぼ す
薬 剤
10 8
( "
早 朝
売 買
割 引
両 手
水 雷
平 凡
密 か
撃 沈
貨 車
n g
ま わり
農 場
u ro
四 日市
法 廷
運 搬
カウン ター
単 なる
日 蓮
ぐ ち
賭 け
拉 致
常 識
丸 山
出 入り
ア ・
アル ト
従 う
年 少
風 呂
ト ミー
側 近
名 目
教 区
絶 望
貨 幣
目 立つ
ビ ートル
ライオン ズ
幽 霊
M a
ル ナ
デ リック
同 校
種 別
ダ ッシュ
it a
抱 く
L td
中 原
土 壌
三 塁
コ ラム
得 票
フェ ルト
バ リア
新 井
機 材
消 化
ジュ ン
山 内
薬 師
C an
じゅ ん
マーケ ティング
寄 生
フレ ンド
ヴィ ヒ
引き 上げ
因 ん
ユー ゴ
破 産
le t
ic o
とり わけ
M k
エンター テインメント
集 まり
明る く
所 領
内 陸
寛 政
校 区
い す
貧 困
公 会
巡 る
広 げる
制 圧
百 科
野 党
ビ ック
時 空
リュー ション
急 遽
軽 減
友 情
射 殺
棋 士
T om
ゾン ビ
秋 山
こ ども
イ ブ
クロ ン
em ent
宇 治
分 かる
ティ ッシュ
ジェ リア
じ り
時 折
カル ロス
ポル ノ
実 態
木 材
A c
寿 命
ハッ ピー
推 奨
at er
ベ リ
ザ ール
欠 点
中 佐
木 曽
書 院
B o
記 す
警 部
ダイ ナ
D P
繰り 返す
ファ クトリー
str um
クラ フト
越 える
千 歳
増 強
警 官
総 額
医 者
Com m
家 老
卓 球
誘 い
か な
た かっ
広 瀬
朝 倉
輩 出
真 珠
奪 還
シ ニア
ジェ フ
発 祥
エ グ
気 味
トリ ウム
満 了
自 作
吸 血
増 える
永 久
工 房
アル メ
手 塚
実 写
占 い
退 学
of f
ナ ギ
アウ グ
7 50
鳥 羽
ハイ オ
拍 子
客 員
Pro ject
プライ ベート
シ リン
渓 谷
くだ さい
F e
i us
チェ ス
救 済
南 京
取り 扱い
ファミ コン
新 曲
an e
モ ナ
バ チ
b ur
ワ ース
左 側
改 定
陽 子
免 疫
後 楽
秩 序
アイ ヌ
香 り
高 層
書 類
バ マ
奇 妙
アン リ
リ ミックス
ウォ ン
P et
最 上
ルー シ
ヶ 谷
上 方
市 電
爆 笑
ポ ニー
軍 艦
口 調
革 新
ボ ウル
作 動
ク マ
激 怒
軍 用
可 決
I AL
歌 わ
ハンド ル
C F
こ なし
マ ント
フェ リ
つ ば
駅 伝
努 め
魔 物
エフ エム
イ ケ
笑 っ
188 2
Y S
会 合
イン ディーズ
ジェ ラ
A g
ゆ め
F OR
決 着
支 える
水 路
U L
ニ ズム
盆 地
氏 族
投 球
悲 劇
H i
任 ぜ
前 進
平 田
イエ ロー
鳥 居
ミ ツ
は し
か かり
安 芸
傾 斜
危 惧
初 出
ペンシル ベニア
N or
アン ティ
ト リー
元 素
単 一
AC E
頻 度
招 き
シェ イ
シ チ
al k
砲 塔
フォ ト
弥 生
N ational
具 合
ら さ
高 岡
収 益
一 宮
中 津
素 晴
ボー イング
金 剛
L ife
S ON
没 し
矛 盾
ク ン
LE D
行 進
究 極
B D
冷 静
焦 点
Op en
ゼ ネ
og raph
掘 り
Z ERO
勇 気
寄 贈
飛 鳥
D ream
タイム ズ
ワ ット
彗 星
陸 奥
ボ ロ
ウィ ング
中 毒
学 士
ミラ ノ
広 がり
伊 賀
紀 伊
サ キ
ヴェネ ツィア
ツ ッ
強 盗
アンド レ
Su per
入 隊
死 に
パウ ロ
知 名
ウィ ー
ov er
Q U
優 位
隠 居
Col le
ク モ
J P
T ok
転 落
のり ば
ブラ ザーズ
バル ブ
ト キ
採 択
z e
ul l
た た
せ き
不 全
田 原
シミュ レーション
ふ たり
阿 波
永 禄
ペ ルー
三 好
捕 食
吹 奏
素 人
郡 区
踏 襲
ジャ ージー
世田 谷
ホ リ
染 色
那 須
囲 碁
旗 本
オ ハイオ
W ii
工 程
ハン マー
な ぎ
ト ール
AR D
パ チンコ
倒 産
スタン ダード
傭 兵
本 数
MV P
間 違い
国 語
真 田
G U
液 晶
引き 起こす
対 峙
YO U
執 政
組 ま
バリエ ーション
伊 予
村 田
倉 敷
列 伝
気 動
調 子
日 高
フォ ート
J CT
ダ ート
野 外
ウ ズ
繁 栄
旗 艦
出 せ
太 夫
北 口
石 垣
受け 取っ
牧 野
開 戦
コ ット
債 権
フ ン
昼 間
ム ン
西 川
楽 譜
v en
適 合
高 島
正 常
一 見
ヶ 丘
D av
ミ ール
著 しく
決 断
英 文
文 政
弾 き
188 1
WOR LD
主 婦
兵 力
マ ナ
誤 り
平 等
返 っ
めぐ る
拒 絶
す り
ビ クター
ミ スター
運 び
ノ ット
仮 説
移 る
スケ ール
P M
M c
起き る
円 形
検 事
S ec
後 世
直 轄
裏 切り
バ スター
H igh
レ ク
本 堂
鳥 類
急 激
流 入
プロテ スタント
賃 金
ギャ ル
客 室
松 下
乗 組
鶴 見
アトラン タ
河 野
苦 労
r en
知 れ
オリ ックス
ら っ
政 務
括 弧
つ とめ
名 づけ
北 上
10 6
ロー グ
ア テネ
足 立
あき ら
情 熱
全 車
管 内
発 する
V O
b ox
ビ ィ
T o
ケー プ
g o
こ なす
マ ート
パン ク
オーディ オ
リ ッシュ
エ ウ
情 勢
ハ ット
先 進
ライ ス
ケー キ
燃 え
ト シ
格 好
没 後
被 っ
退 官
町 制
ソ ール
役 職
近 接
還 元
が み
ドラゴン ズ
シ ール
ホ ーク
幻 想
全 曲
ゴー スト
an o
オムニ バス
ス ノー
J U
歩 き
歩 道
手 続
N G
好 評
で しょう
フェ クト
三 宅
2 20
デ ビル
Will iam
ひろ し
見 学
中 立
天 候
体 格
ト レイ
コミュー ン
大 川
Sp ec
ラ ラ
変 数
X X
党 首
一 撃
正 室
P re
m at
ハイ パー
先 祖
ド ニア
去 り
安 価
ふる さと
目 論
門 下
動 詞
ro id
好 ん
11 6
栄 え
首 席
セン サー
常 陸
元 帥
アップ デート
バ ブル
南 口
狙 い
標 識
矢 野
静 か
採 掘
聞 こ
美 容
RO M
とど まっ
ベ ッ
寄 与
ノー ベル
妄 想
辞 め
スティ ング
p ort
イ ザ
播 磨
スタン ス
教 える
s y
st er
起 工
実 体
グ ア
ドロ ップ
ソ リ
軍 勢
op h
ベ クトル
サ タ
フロ ア
ゲ オル
トラン プ
見 舞
6 000
及 ん
日 付
ンド ラ
アー マー
め ざ
00 00
岩 崎
破 綻
始 動
m us
シ アン
リ ナ
11 4
緊 張
ド ック
ダ グラス
ロ ・
功 労
車 輪
ファ ーム
調 節
サン ディ
帯 び
187 7
図 鑑
av a
む ね
苦 戦
時 々
西 宮
目覚 め
同 地
パ ルス
読 書
楕 円
領 事
レ ズ
詐 欺
ウ イング
サ ッ
ユ リウス
愛 情
ホ ロ
自 覚
at o
レ バー
移 設
テイ ラー
めぐ み
井 戸
巨 乳
先 住
兼 務
通 商
多 大
on y
じ っ
次い で
恵 子
an y
is ch
釧 路
大 事
打 た
18 00
ろ く
ピ ッチ
山 陰
フ レイ
じ い
現 金
鑑 定
アル ミ
や さ
ノ ・
社 内
ダ メ
白 山
押 す
石 橋
相 馬
艦 船
セ リエ
エ ステ
ジョ ニー
ク ォ
一 斉
勘 違い
クリス チャン
す す
化 け
イ ア
M od
改 題
重 い
つく ば
一 目
ユーゴ スラ
真 言
創 始
射 程
孤 立
工 藤
フェ ニックス
M in
忠 誠
11 7
Chr ist
幾 何
別 冊
木 下
チャ ル
久留 米
M AR
Z O
レ ポート
ツ ク
原 稿
F T
入れ 替え
担 任
見 事
割 れ
セール ス
し む
追 悼
好 む
本 木
国 産
校 名
ビ ジュアル
教 官
喜 び
S I
灯 台
フラン ツ
小 沢
転 送
高 まっ
プレ ゼン
Sch ool
持 続
納 言
モ ジュール
表 さ
一 塁
踊 る
T AK
尾 崎
y e
校 歌
稽 古
行 か
載 せ
もう け
ブ ドウ
残 存
大 関
独 裁
玉 川
ア シュ
金 色
髪 型
治 世
田 舎
エッ セイ
奪 う
偉 大
ホ スト
司 祭
大 石
別 府
郡 庁
ウィ キ
正 しく
1 200
ハウ ゼン
Y U
グ マ
クラ ッシュ
必 須
選 び
サン ス
理 念
勧 告
オ ックス
単 体
番 手
結 城
作 風
AC T
10 7
ョ ー
L INE
立 花
l er
鉱 物
アル プス
クレ ア
す い
チョ ン
ウ エ
位 相
マー ガ
ミ ャ
左 手
ス ロット
ニ ウム
アップ ル
多 発
ヒ ドロ
迎 撃
間 接
産 地
トル ク
青 葉
指 数
著 し
赤 字
水 力
パ キスタン
リ ヤ
オブ ジェクト
カ シ
主 砲
ハ チ
内 藤
プロセ ッサ
東 大
c k
J I
麻 生
造 形
わ い
フラ ワー
予 言
JR A
ot o
EN D
デル タ
追 う
運 休
運 送
名 所
ch n
エル フ
Lin ux
ra d
パシ フィック
習 い
勾 配
フラン ソ
原 案
町 域
蜂 起
御 所
刻 ま
動 脈
入 部
冠 し
如 来
常 勤
上 限
P K
p or
パラ ダイス
ロ ジャー
先 駆け
大 村
ノ リ
4 50
寸 前
本 願
麻 薬
さ っ
ユ ウ
愛 する
ニック ネーム
着 け
カプ セル
アルメ ニア
188 3
グ アイ
パ ズル
新 町
バッ テリー
め き
飛ば さ
欠 場
理 科
申し 出
アー キ
専 務
高 地
ス キャン
ハ ロー
レ アル
補 強
上 旬
と ある
ュ ル
西 経
落ち る
クロ ウ
複 線
ブ ッシュ
フォ ックス
乗 用
お じ
触 媒
千 里
阿 弥
w ork
常 磐
斜 面
ハイ ブリ
r es
in al
r pm
告 発
カ ザ
和 平
T ime
ア ピール
公 衆
永 井
演 算
B BC
実 証
民 放
始 発
基 調
イン ズ
学 部
専 修
白 河
投 下
ヶ 原
北 野
暴 行
ロー ラー
太 刀
再 興
コン テ
中 型
strum ental
V I
ウィル ソン
名 門
R NA
発 車
ひ こ
本 多
チー ズ
最 長
西 ドイツ
シ リ
川 内
サ リン
あ げる
ス ラム
皇 族
と くに
大 社
自 立
Rec ords
本 気
知 能
迫 っ
M Y
一 色
特 有
脱 走
遊 撃
集 積
狩 猟
AT E
か き
タ キ
官 位
慕 容
重 点
B as
フ ルト
両 側
切 手
服 部
動 機
レ ッジ
加 熱
封 入
魔 界
厚 い
船 長
虐 待
島 式
モニ ター
ネ ーション
幅 広く
Bl ack
チャー ズ
プ ラー
破 損
血 管
語 源
ou p
ね じ
特 攻
n al
任 せ
道 中
基 幹
ミ ク
アー チ
地 蔵
ア パ
食 糧
立 憲
オート バイ
と こ
博 し
プライ ム
触 れる
ッ テ
計 測
累 計
舞 鶴
if ic
l in
招 聘
ワン ダー
ニ カ
浮 か
自 国
視 察
はじ めて
小 売
八 重
密 着
ノ ブ
へ い
ソ ックス
白 川
リ フト
一 門
犯 行
着 く
ダウン タウン
大 原
代 官
バイ ザー
意 気
ざ わ
子 爵
放 置
不 二
公 布
吸 い
土 器
ユーゴスラ ビア
日本 橋
と く
12 8
oc al
愛 好
ア グ
四 季
換 装
訪 ね
さら なる
ソナ タ
公 安
ま み
双 葉
ウィ ンド
おか げ
そも そも
H ist
U p
一 角
擁 立
ば り
鉄 筋
エンター テイメント
ガ タ
グル メ
測 量
順 番
同 居
A FC
大 河
直 す
転 生
失 踪
北 斗
題 名
待 機
追 撃
あ て
交 わし
田 園
講 習
引き 分け
家 政
少 尉
進 展
仕 える
の ぞ
お さ
ひ め
ディ ック
きょ く
家 屋
国 旗
揃 っ
疑 惑
鎮 座
ハイブリ ッド
広 まっ
概 要
レー ジ
いっ ぱい
ニャ ン
in ter
武 者
C ON
ユ リ
小 児
er al
南 端
コ イ
民 事
新 社
松 江
能 登
メ リット
A WA
抑 える
相 違
フェ ザー
ひ ょう
学 芸
会 う
桐 生
駿 河
シ ーク
ス テレ
ス チュ
一 生
増 やし
告 示
な に
寿 司
難 波
en e
現 職
スカ ート
R ock
ヤマ ハ
A F
動 向
穏 やか
あだ 名
抜 く
ク ワ
生 体
真 似
T y
ッ シング
ハン マド
ダ ール
ボ ケ
突 っ
ホ セ
書 簡
入 会
邸 宅
ジョ セフ
スク エア
三 条
オー ネ
代 数
ボ ム
ファ ント
実 務
ティ ム
MI X
刺 し
工 夫
道 徳
ノ ウ
G H
マ ヌ
ID OL
St ar
ガ メ
リ ブ
g el
フラン シス
亡く し
飛 ん
悟 空
24 0
小田 急
合 法
成 る
異 例
運 ば
キ ッズ
新 興
ワー ナー
内 装
放 ち
受 付
ドラ ッグ
RE AM
茶 屋
18 60
有 無
イ グ
足 り
スケ ジュール
ビートル ズ
観 戦
テ ラン
J ST
転 写
単 発
ク ビ
醍 醐
V al
満た し
c ol
健 一
御 殿
抜 か
日 テレ
樺 太
フォ ワード
遂 行
ラン グ
8 000
C BC
全 日
直 営
薬 品
松 岡
V o
媒 体
せ つ
重 なる
機 銃
落と さ
感 動
ナ ツ
海 老
ド リー
葛 飾
集 まる
疑 わ
主 将
豊 島
ニ スト
菅 原
ハン ス
ドゥ ー
対 談
中 尉
グロー ブ
Amer ican
出 港
蓄 積
SP EC
詳 しい
川 村
武 術
a ut
巫 女
醸 造
み たい
順 序
コ ラ
発 現
浸 透
自 在
川 島
代 役
本 州
補 償
入り 口
R AD
And roid
P DF
有 形
アフ ガニ
襲 名
首 脳
たく さん
ホッ ケー
の う
収 穫
ゴ ミ
年 上
D isc
連 装
12 1
アフガニ スタン
W BA
エ リート
所 要
T M
や き
国 体
厩 舎
l ine
曽 根
ピ エ
フォー マット
ダイ エー
ケンタ ッキー
バ ッグ
役 目
高 麗
pres ents
B est
藤 本
ム スリム
本 家
痛 み
砂 糖
難 民
ウォー ズ
混 ぜ
迫 る
玄 関
ホーム ズ
夏 休み
強 引
ハー モニー
他 者
ヨ ウ
受 託
スト レス
高 温
僧 侶
差 異
フォー ラム
常 連
アルゴ リズム
ルー キー
メ ロン
太 守
遣 い
ie w
O H
B ook
リン カーン
祈 り
ミ サ
呪 文
王 家
G IR
ザ ック
ハミ ルトン
ヨ ル
便 宜
サイ バー
休 暇
農 学
ム ル
容 器
硫 黄
ホ フ
本 館
浮 世
In d
騒 ぎ
分か れる
ステレ オ
幸 福
os s
ア ト
カ ク
母 艦
っぽ い
行 なう
伝 わっ
掌 握
本 尊
決 まり
踏 切
セー ラー
生 理
ギャ ング
そ り
町 村
O B
た つ
オ マ
八 郎
皮 切り
下 野
R ed
サ ック
階 層
嫌 っ
ダ ラ
プラス チック
通 知
B ro
踏 まえ
タ ウ
大 寺
諦 め
AS H
ライン ナップ
サ リ
岡 村
サ ビ
つ ぶ
風 俗
出 血
鎮 守
ク ラン
ゴ ッド
ホ ップ
7 000
ナ トリウム
ニ ク
it al
カー ズ
お は
襲 っ
農 地
行 える
生 育
刺 史
導 い
アー ツ
コス プレ
難 しく
へ ん
デ ッ
京 浜
or s
有 罪
キャ ッシュ
付 随
大 夫
間違 え
合 金
アド バイス
カタ ログ
ノ ヴァ
ター ビン
ルー ニャ
史 学
シ ベリア
Z e
ぐ れ
タ ック
ホ ーン
意 義
タ イン
党 員
2 30
パ ワ
消 す
解 明
レ ・
打 つ
飛ば す
北 軍
T our
プ ソン
デ カ
追 求
陸 地
AR A
ハイン リヒ
カ セット
バナ ナ
m o
食 材
隠 さ
C a
み ゆき
オ ファー
決 まる
リ ハ
わ す
ヒ ュ
ウォ ーカー
デ ヴィッド
AS E
ヴォー カル
嫉 妬
か 国
次 期
古 河
再 選
シン プル
屋 上
つなが り
志 村
カテ ゴリ
アレ ックス
孤 児
小 柄
ヴィ クトリア
灰 色
気 分
に ほん
バイ バル
マーガ レット
大 友
天 平
擁 護
祖 先
ボー グ
右 腕
木 製
後 援
有 数
クラウ ド
収 納
ニ エ
メ ーター
親 族
銃 撃
In t
人 文
ゾ ナ
写 本
巡 回
市 道
挿 絵
系 図
途 上
鈴 鹿
青 色
SE X
ak a
半 径
廃 校
コー ディ
トレ イン
B ill
メン テ
チョ コレ
ド ット
S ing
伝 記
方 形
あ つ
ロ ッド
台 頭
録 画
東 亜
不 死
在 日
P OP
男 優
ギ ニア
サイ エンス
クロー ン
学 制
車 輌
付き 合い
成 年
文 法
加 算
気づ い
食 用
チョコレ ート
利 点
ィ ー
c he
新 制
フィ ッシュ
略 奪
ボン バー
生 没年
ひ かり
営 む
ホ ウ
極 東
混 同
ナム コ
it s
イラスト レーター
差し 替え
ネイ ロ
腫 瘍
sh ip
多 額
之 介
オ ズ
et y
イ ロ
キャ ノン
ミル ク
親 善
勝 つ
当 社
C am
が れ
不 利
ハ リス
戯 曲
AM A
そ っくり
馬 車
枚 数
破 る
ちょう ど
湾 岸
ou se
志 摩
智 子
落 合
反 論
ra g
喜 劇
図 ら
就 く
IN AL
本 機
小 樽
u ch
ユニ フォーム
ピ オ
手が ける
( -
日 比
リン 酸
型 式
屋 外
ギャ ン
添 え
コ シ
富士 見
ボ トル
犯 し
取り 戻す
メ チル
傑 作
女 流
政 界
ゴ ス
ソ ラ
連 敗
凍 結
ガ キ
寄 せる
法 政
ト ーン
ミュ ラ
伏 せ
叢 書
旋 回
x t
e in
p o
アミ ノ
も はや
堆 積
ケ ネディ
換 える
F re
商 会
R I
朗 読
ざ ん
政 令
桃 山
州 都
除 外
1 19
追い 込ま
採 取
村 立
相 棒
レ ックス
コロ ム
反 し
稼 ぎ
ブ ース
輝 く
2 10
侵 害
ザ イ
ide o
キン ス
あ ゆみ
除 け
ヒ ント
郵 政
R em
大 内
逸 話
キャ ニオン
アレクサンド ル
S um
免 除
店 員
ナ レーター
打ち 切り
定 住
ア ポ
吾 妻
at ed
離 れる
一 瞬
閣 僚
製 鉄
勝 率
大 沢
W I
ハー バード
с к
強 豪
輝 い
在 来
F S
進 水
西 郷
ジャ ース
リ ベ
天 満
近 所
オル ガン
カスタ ム
亜 種
アイ アン
が け
与 党
競 艇
ギャ ラク
IG HT
ア ズ
イリ ノイ
久 米
12 3
対 話
実 習
ツッ コミ
E m
原 始
パイ ア
さ り
控 訴
メガ ネ
お る
ム ハンマド
追い 詰め
コ ング
処 置
il le
孤 独
離 陸
酒 造
t ain
づ き
一 橋
婚 姻
生 誕
ドラ マー
Rad io
ニュー ジャージー
デイ リー
フェラー リ
シ ラ
ノ ック
・ カ
C B
色 々
進 路
ast er
占 拠
サ ハ
弁 当
面 白
喫 煙
P ART
T w
営 利
田 川
ア イン
ダ スト
初 等
弱 く
町 長
遊 園
哲 也
K S
腹 部
神 道
台 地
ナー ズ
pr ess
遠 隔
家 畜
器 具
長 老
P I
ネ ック
ファ イン
円 盤
武 力
iv er
日 経
八 代
トロ ント
3 20
再 発
とも ない
遺 構
ハード ウェア
見 つける
縄 文
モン ズ
D es
捧 げ
ソ シ
N FL
対 馬
アカ ウント
デ ール
金 山
ik e
コ リ
ヒ ップ
広 東
樹 脂
運 ぶ
南 軍
ワ ゴン
クラ ウン
オ ース
断 っ
r it
r am
回 線
P RE
ア ワー
短 調
当 事
イレ ブン
好 ま
is ion
拡 散
K U
ウ サギ
真 空
慣 れ
暴 動
相 応
遅 い
あ らか
交 え
複 製
インディ アナ
こう とう
原 発
系 譜
焼 け
スト ル
遠 い
伝 道
曜 日
コロム ビア
エア ロ
・ マ
論 じ
カン ザス
中 性
椎 名
緑 地
仲 介
微 分
稲 葉
俳 句
含 める
G N
バン タム
Rob ert
全 滅
麻 呂
ナビ ゲ
カル チャー
ワー プ
od y
軽 い
北 極
ブ ックス
待 つ
冷 房
消 失
保 っ
ハ ワード
・ ド・
長 州
ノ キ
ボ ット
信 託
13 6
サ ザン
愛 人
次 女
ジ ミー
Tok yo
ふ り
ペー パー
S ong
主 席
186 4
き み
聖 職
国内 外
各 々
r al
依 然
膨 大
赤 軍
シェ ン
柔 らか
コー ラ
ムー ア
コン プレックス
ッ ペ
一 揆
ギ ルド
正 統
us s
ウェー ブ
リ ウム
山 手
ア レン
尼 崎
舞 踊
コ ナン
特 命
次 長
日 露
主 教
授 け
文 藝
園 芸
H ot
な ぞ
サ ポーター
通 い
カ ゲ
考 察
見 出し
ディー プ
頼 朝
タバ コ
ぶ っ
好 物
祭 神
マケ ドニア
ミリ オン
ダ ック
由 美
オー ガ
興 奮
邪 魔
ケ リー
修 業
色 彩
未 明
他 方
動 い
高 価
ペ テル
ファイ ブ
リ ップ
吊 り
高 かっ
交 互
w eb
レ モン
ード ン
c a
フランソ ワ
タイ ア
完 璧
散 歩
侯 爵
日 活
汎 用
N T
導 体
順 調
フ ラー
ペ スト
フェ ース
進 軍
マン チェスター
聖 人
高 額
ジャー ナル
親 戚
アンド リュー
函 数
スト リーム
多 彩
所 管
ü r
尽く し
野 口
しゃ べ
注 釈
レイン ボー
飲 ん
支払 う
が き
襲 い
遺 族
有 人
G K
ライ ム
ファ レンス
大 砲
O ly
ナ ッツ
ロ ク
宮 古
スク ー
哺 乳
ラッ セル
河 合
語 尾
和 子
ber g
徴 収
要 員
マル コ
ホル ム
カップ ル
王 室
リ サーチ
アレク サンダー
県 庁
チ カ
直 ちに
al d
たと え
断 層
頭 脳
Oly mp
Y ork
オ ク
千 秋
西 田
預 け
なん て
減 っ
手伝 い
樹 木
分 泌
クルー ズ
V IE
招 か
親 しま
カテ ゴリー
あらか じめ
アルファ ベット
モ テ
代 わる
k s
フ ック
テイ ク
和 名
リン ゴ
フェ ッ
for d
アリ ゾナ
伸び る
ゲ リラ
民 法
フロン ティア
次 回
平 原
商 船
応 え
番 外
数 千
C he
骨 格
財 閥
水 田
眠 り
転 移
天 津
紙 幣
薔 薇
12 2
ur n
ウ ッ
デ スク
外 来
崩 し
S oci
暗 い
キ エフ
パ トリック
流 す
ティ ーン
オ ニア
や む
動 かす
大 師
at es
P ower
ノ ム
没 収
186 2
満 点
E A
解 剖
のび 太
et t
レー サー
き わ
留 守
н а
ミ キ
知り 合っ
F W
ナ ポリ
シュ ル
繋 がり
字 幕
に ゃ
ヒ メ
受け 継い
ズ ー
ゾ イド
復 刻
携 わる
え い
フ ・
頂 上
マー ズ
・ リーグ
Ph il
炭 鉱
特 設
集 約
見舞 わ
キャ ット
CL UB
参 事
改 変
最 速
斜 め
コ パ
趣 旨
シュー ティング
ファイター ズ
インスト ール
代 謝
SM AP
松 島
温 暖
本 山
フォー ミュラ
大 崎
G EN
任 天
先 述
エ ヴァン
閉 校
夜 行
ルート ヴィヒ
戦 法
カ 月
肯 定
砲 弾
攻 勢
15 5
ね こ
急 性
プラ ズマ
He art
対 局
い た
増 築
展 覧
ごと く
ラ ビ
マニュ アル
遭 い
J our
マ ザー
年 始
致 命
南北 朝
公 明
撤 回
AN A
F ri
弾 圧
サ テ
上 越
織 り
神 楽
荒 木
厳 格
細 かい
誘 わ
バス ク
w h
ひ ど
歓 迎
リハ ビリ
ゴ ット
ト ・
htt ps
集 結
出 世
巡 り
明 神
答 える
今 川
アン ケート
景 気
川 原
造 成
グ リー
西 尾
よ み
ベ テラン
破 棄
高 まり
ジャ ネイロ
山 川
S ol
P ubl
主 権
電 信
メダ リスト
以 南
四 方
スター リン
天 地
サー バー
渋 滞
積 ん
イ ナ
相模 原
NAS A
馬 鹿
デジ モン
R S
n ow
余 裕
信 越
慢 性
群 れ
等 級
繋 がる
原 爆
bo ard
b it
役 人
本 文
サ ール
A ct
水 面
ne w
台 数
さ やか
淀 川
WA VE
コ ナミ
Ch arl
店 長
杉 山
コ メン
on s
同 窓
ゥ ル
聴 い
サ マ
人 体
ストライ ク
全 土
N PO
県 民
上 原
別 々
ヒュー ストン
ニ バル
援 護
r ic
ウェル ター
ス クラ
大 介
生き 残っ
遥 か
スティー ブン
J ava
撮 り
ナ ノ
奉 納
気 付い
D I
ミシ ガン
他 国
救 わ
ニコ ラ
x x
プラ ハ
け んど
id ge
み らい
ビ タミン
空 き
ミュー ズ
ふ み
払 っ
天 狗
積 載
テク ニック
大 国
スペ クトル
ス パル
警 報
レー タ
ハッ タン
飾 る
コ タ
深 め
F ac
ロ ア
元 老
増 殖
Re g
ニ ウス
現 し
スカ パー
及 ば
レン チ
利 き
薬 学
免 れ
反 省
覚 悟
マン ハッタン
レシ ピ
な じみ
伊 那
テ イル
ユ ン
出 番
悲 しみ
186 3
南 朝
休 憩
めぐ っ
特 権
最 悪
ブレ ット
惹 か
ラン ナー
配 達
あ す
l l
C ity
生み 出す
水 源
無 償
r ing
フレ ッシュ
お ば
取 れる
天 野
サ ヨ
請 け
AT M
あり が
さ よ
さよ なら
極 め
軽 く
上 層
中 枢
包 括
執 り
16 5
レッ スン
エレクト リック
リッ ヒ
通 報
パン ツ
R es
コン パ
CE O
H A
書 物
ミュー ジアム
186 7
無 数
飛 車
び き
ジョ イ
カー プ
三 原
マッ ハ
投 じ
Cl ub
乃 木
クイ ーンズ
休 養
休 刊
理 工
飛 騨
P o
ア ワード
好 調
辺 境
ブ エ
基 部
あ ず
ジ オン
恨 み
fer ence
山 村
知ら さ
セ グ
プ ラント
パレス チナ
Spec ial
タ グ
イ ヌ
目 立っ
出 家
高 雄
さ す
解 き
平 家
主 翼
S al
じ ま
同 梱
争 う
コミュニケーション ズ
増 田
さ ぎ
援 軍
片 岡
Mar k
T Y
オ ットー
ゼ ット
ッ ソ
テン ベルク
柔 軟
速 い
テロ ップ
モ ラ
処 女
甘 い
17 5
支 局
曹 操
アド バン
過ぎ る
家 事
進 撃
に ち
カ ニ
年 表
負 荷
S an
墓 所
講 和
デ リ
iel d
佐 竹
聴 取
な さい
楽 しみ
M OR
ク ィ
M ich
降 水
Sp ort
ロ リ
少 なかっ
王 族
d a
コ メ
佐 渡
拷 問
駆け つけ
フ ス
寛 文
片 側
おお むね
抽 出
西 南
ミニ ゲーム
en g
投 げる
オックス フォード
名 声
洗 礼
窒 素
通 告
ボル ン
ヒル ズ
NP B
P ort
エ スカ
仮 定
語 学
カタ ルーニャ
裕 福
ジェ ロ
Bl ue
通 話
青 少年
i ence
総 数
直 樹
ア コース
アク ア
日 清
小 室
陥 る
体 型
防 空
W D
汽 船
あえ て
デ トロ
ゼネ ラル
e k
大 洋
O T
武 家
強 大
内 科
ニン テン
一 流
異 性
ジャ ニーズ
よ こ
睡 眠
食 物
つ くる
魔 神
争 っ
制 裁
ell a
板 橋
ウェ イン
ユー ザ
壊 し
おこ なっ
ゥ ス
カ ヴァー
出 動
コ カ
ペテル ブルク
S un
大 将軍
トライ アル
家 具
宇 和
自 家
ヘル メット
マツ ダ
外 さ
抹 消
デトロ イト
釜 山
c es
口 癖
クロ ム
模 索
ウン テン
精 密
ッチ ン
乗り 換え
男 の子
186 1
大 垣
確 信
いか に
ッ ポ
ハ ブ
186 5
嘉 永
仕 上げ
成 熟
氷 河
FE ST
八 十
i j
封 鎖
張 る
アトラ クション
ヒ ート
ヴィ ッチ
バル カン
え り
ト イ
優 しく
激 突
ヘッ セン
ミ レ
西 山
亡く なる
スティー ヴン
アコース ティック
テネ シー
土 屋
志 向
受け 継が
ニコ ライ
い し
デ リー
本 校
宰 相
中 高
ソロ モン
パ ト
任 官
晴 れ
Dav id
ぶ ら
総 統
う ん
旋 律
ア ラス
AN N
奈 々
嫡 男
ツ リー
スズ キ
替 わっ
バッ ファ
導 く
SH I
吉 岡
宣 告
剣 術
ワク チン
た どり
w or
ア セ
ス カー
盗 賊
合 宿
12 4
M G
ケ ント
釈 迦
ケ ーン
造 営
安 置
ホル ン
一 新
新 川
布 告
5 50
大 成
バー ガー
使 節
遂 に
陣 地
推 し
少 な
er o
アウグ スト
W WE
保 つ
土 俵
・ エ
魚 類
フランク フルト
ぐ らい
ピ ッツ
パ ニック
地 盤
末 裔
バ ニ
Mic ros
b um
そ ろ
往 来
掃 除
抜 ける
いろ いろ
コー スト
課 税
まつ わる
D ie
ヴ ュル
オー ダー
形 容
石 器
ど おり
シン セ
続 行
p art
素 直
同 誌
克 服
N I
係 数
満 ち
指 輪
魔 導
コロ ラド
ター ズ
ヶ 崎
アル ミニ
AK I
T er
世 論
12 7
は ち
ス ラー
出 羽
V F
な な
or a
スティ ン
ス ネ
モ モ
ソ タ
交 番
地 裁
病 死
ス ライド
融 資
グ ルス
バ ビ
ブレ ム
引っ 越し
イン ス
手 掛ける
直 流
背 面
久保 田
達 人
遺 言
リオ デ
ド ス
脅 迫
ん じ
会 派
救 っ
設 ける
スト ロング
小 池
a el
娯 楽
奉 仕
為 替
参 拝
G ra
わ かり
12 6
サスペン ション
対 岸
徳 間
酒 屋
漬 け
豊 川
クライ アント
巡 礼
めぐ り
伊 丹
先 駆
単 式
搬 送
異 母
WE B
天王 寺
デラ ックス
パナ ソニック
点 数
指 標
多 田
特 例
花 園
ミシ シッ
ウ ラン
リ ィ
ver y
カ エ
麻 衣
リオデ ジャネイロ
豪 雨
進 入
意 外
逃 げる
ペ ドロ
民 謡
ア ポロ
Th om
タ クト
桑 田
発 作
阿 蘇
基 督
ke y
i T
留 まり
賞 賛
ラ ファ
弾 丸
ッ シー
ロ マンス
ク ・
石 灰
補 充
鬼 太郎
G HT
ェ ン
v ent
常 時
い ずみ
186 6
丹 後
大 敗
養 護
ぐ ら
ツ ル
ム ・
津 山
ふれ あい
脱 落
ジ ロ
イン パクト
Pa ul
а н
譲 っ
ア ングル
誇 っ
キ ラー
増 やす
C al
ブラウ ザ
ノ ミ
共 訳
日 系
ロー レンス
S W
フェ イ
ナ チ
仕 方
いっ たん
若 き
は い
キ ミ
愛 国
強 烈
Micros oft
名 物
親 しく
SPEC IAL
硬 式
告 げる
多 岐
摂 津
志 望
券 売
ivers ary
真 宗
低 減
琵 琶
アス レ
米 子
マイ アミ
合 弁
金 髪
ラ ート
慣 習
メンテ ナンス
隼 人
で る
ポ ッド
シア トル
クリエイ ティブ
リ ントン
適 当
ウィ ッチ
戦 記
築 か
ぬ い
ナ オ
子 女
リオ ール
D B
アンダー ソン
上手 く
全 力
都 営
ぐ り
新 羅
ミ オ
テナ ント
Ass oci
下 ろ
長 尾
まし ょう
悩 ん
皮 肉
F i
ファ ンド
トレー ナー
長 け
us h
火 器
し ぎ
持 株
通 じる
鉱 業
サー カス
ens is
L AN
公 正
M er
一 条
自 慢
ロー リング
チャー リー
サ ロ
狙 わ
国 営
コロ ニー
ワン ダ
住 職
佐 倉
寝 台
救 い
itt le
エ キス
ティ アン
北 村
小 麦
in i
減 らし
ジェイ ムズ
振 付
突 起
体 質
劣 る
決 闘
詩 集
フィ ス
のぼ る
ッ セ
at ive
引き 受け
N K
マ クロス
小 西
振る 舞い
b all
築 城
電 報
準 拠
特 色
アン チ
アーキ テク
練 馬
フル ート
いか なる
育 つ
CO L
イン ク
ol e
J ames
遺 物
平 井
H y
職 場
am m
ナ ンド
メ ア
母 方
uc k
派 手
羽 根
コンスタン ティ
R ich
産 出
メ ーション
奇 襲
守 ら
エル サ
K BS
おは よう
ル ノー
プロ ペラ
う どん
下 さ
勝 者
ガイ ア
未 知
代 用
永 田
高 圧
US A
アム ステル
沼 津
プ エ
大 東
まる で
ミネ ソタ
春 季
18 50
た ば
つ う
ゾ ウ
召 集
デイ ヴィッド
ひ な
使 徒
土 砂
モ デ
シチ リア
尊 重
ニ カル
新 春
キン 肉
聖 母
門 司
広 義
於 い
押 さえ
挑 ん
遮 断
報 復
貯 金
亡 き
日 刊
跳 ね
ガ ブリ
ne y
通 用
スタ イン
AT A
G ood
ネ パール
ホ ース
on t
V HS
営 ん
ト リア
周 回
閉 館
ヴェ スト
ベ ネズ
紳 士
国 府
変 装
等 しい
R T
鋭 い
北 端
知 人
部 員
グル ジア
物 流
トゥ ール
M D
誘 惑
L et
L ib
中 古
納 入
チョ コ
堀 江
志 賀
レ バ
M ed
in n
マイ カ
折り 返し
ロ ビー
凱 旋
もたら さ
断 絶
速 く
マー チ
別 荘
d el
薄 く
頼 り
ば ね
四 十
取り 扱う
反 転
無 罪
eb ook
みな と
抱 える
迷 宮
ヵ 月
共 闘
赤 外
通 訳
受け 入れる
カ ズ
遅 延
チェ リー
素晴 らしい
直 結
補 正
ブロード ウェイ
付 録
派 閥
ゴ ードン
寄 っ
北 川
漏 れ
アルミニ ウム
ヴァ ルト
カン ボ
条 項
AM E
ぼ ん
NE C
寄 稿
商 売
or i
路 上
黒 色
シャー プ
・ ス
生 地
トロ ール
源 流
郡 内
K ing
z a
握 っ
囚 人
諸 説
収 める
Te chn
業 者
組み 立て
レー ヌ
面 会
大 勢
党 派
D IS
本 殿
ヴァージ ョン
か せ
出 向
フォ ルト
RE COR
竹 田
D REAM
立 案
スペ ル
組 成
ヤン キース
この 世
左 腕
ケン ブリッジ
ハド ソン
望 月
アク ティブ
ストロ ーク
奈 子
慎 重
知 恵
胞 子
カ リス
宇 部
大 破
グラン ト
13 8
I m
ち ゅ
単 身
消 息
ハイ ビジョン
フレ デリック
な ろう
大 同
ベネズ エラ
ナ ナ
S l
添 加
く わ
с т
N Y
T ri
養 父
皇 室
顔 面
マイ ナス
OL D
篠 原
ビ オ
失 脚
3 30
ぷ り
諜 報
出 展
S oft
片 方
指 向
ジャ ングル
マ フィア
ベ ーション
湿 地
向 こう
m s
ゲ ス
長 門
ステ ア
ウォ ーク
ミシシッ ピ
議 事
C y
バ ッド
野 望
フ ライト
佐久 間
. .
もら え
目 録
ro p
領 有
ion s
執 事
ケー タイ
小 銃
休 業
掛 かる
年 長
グ ルー
悩 まさ
L i
大 江
意 匠
メー タ
クライ マックス
原 曲
資 材
いわ き
閉じ 込め
殴 り
エイ ジ
書 紀
ジ ーン
坂 井
届 か
ヘ クター
ロ ブ
イン フラ
無 敵
テー ター
公 職
フリー ト
ぱ ら
潜 在
高 槻
近づ く
奥 州
S am
充 電
飛び 出し
火 薬
ヤク ザ
意 欲
原 産
買 う
秋葉 原
M ay
旧 姓
本 番
ま こと
カ リスト
逝 去
ど っ
ワ ト
屋 内
スピー カー
エグ ゼ
ミ シェル
ー ズ
なく し
未 遂
起 因
A E
k o
田 口
軌 間
兄 妹
掲 げる
サテ ライト
テ ュー
リ タイア
ス チ
六 本木
ピ ストン
シュ トラ
サヨ ナラ
行 こう
ケ ロ
牛 乳
ブレ イン
ポ ス
手 配
熱 血
ミズ ーリ
じ て
電 灯
c i
怒 っ
エ チオ
市 原
信 州
専 任
島 原
キ ネマ
連 発
いき なり
カメラ マン
参 画
ニ シ
C X
大 門
準 じ
く う
セ ダン
ミ ハ
転 属
楽し める
下 げる
池 上
ドキュ メント
草 津
ヨー ゼフ
以 っ
鶴 岡
アル ビ
com p
ア ドルフ
もの まね
装 填
S NS
アムステル ダム
ゴ シック
使 命
もら える
幕 内
遭 っ
ア ザ
シ ネ
元 和
ビル ボード
ひ がし
不 幸
亀 山
iv al
呼び 出し
書 道
萩 原
辺 り
A ward
ナ リ
マ タ
硬 貨
E E
市 中
エンター プライズ
M il
W i
よし もと
不 法
以 北
モー ツァ
バ タ
愛 用
15 2
シャ イン
ソ フィア
ネ スト
留 置
叫 び
密 接
J o
転 身
公 使
TR A
着 任
こ ま
臨 海
入 国
トゥ ス
E AN
ス キン
洋 画
監 禁
14 4
製 紙
NE XT
スパイ ダー
年 下
ウォ ッチ
エチオ ピア
ル ビー
ピ ート
作り 出し
14 5
アイス ランド
サ ントリー
テ ージ
入 選
壊 さ
誘 致
スー プ
E MI
反 動
文 久
暮 れ
痛 め
陰 陽
元 来
飼 っ
濃 い
IC A
キ ノコ
カンボ ジア
P at
何 者
V ersion
給 与
引き 換え
ヘ ブライ
左 派
築 き
ード ル
E uro
ス ルー
有 田
アルバ ート
ic ial
操 業
慰 安
調 印
バ イン
左 岸
混 雑
Ar ch
ゆ っくり
ブ ラー
亜 科
C ap
P AR
事 変
本 能
産 物
金 井
コン ゴ
変 態
B Y
児 玉
黒 川
En g
宝 暦
鋳 造
河 北
オ ールド
浅 井
貼 り
白 井
飲 む
オ リー
線 形
探 知
ir st
し お
ア ング
ベー タ
煙 突
um e
待 合
要 し
解 禁
賛 同
巧 み
提 督
初 音
サンディ エゴ
国 宝
サン クト
ず ら
レ ック
冷 凍
蔵 書
立 方
イ ヴ
フ アン
一 言
信 念
家 電
テ リア
応 答
何 故
巡 査
man n
レ ジェ
L u
同 上
奨 学
フェ ロー
物 産
試み る
ッ ラ
岩 田
ワ ニ
生 ん
堤 防
バー チャル
i or
T U
中 堅
北 欧
よ ば
New s
歌 人
直 さ
奄 美
調 和
ire ct
の め
伴 奏
ペン ギン
ゴ ロ
RAD IO
義 理
o ot
ラ バ
達 也
神 秘
ミュ エル
ア ヤ
カ モ
廃 業
退 け
キャ サリン
T rans
静 止
ノー マル
スマ イル
ヒ ャ
ホ ールド
トリ プル
後 漢
In strumental
史 実
誓 い
ソー シャル
フランク リン
店 主
V i
も ろ
直 撃
大 木
無く なっ
崇 拝
解 く
プラ グ
挟 ま
定 番
BL UE
内 外
常 設
レー ティング
ell o
B el
M art
デン ブルク
ガン ダ
は く
分 かり
ク ジラ
擁 する
勤 める
アベ ニュー
剥 奪
un e
K T
大 映
洗 脳
H ol
広 州
タ ・
痕 跡
米 沢
醤 油
ur al
O f
Y e
細 い
チャ ップ
人 妻
頼 み
スロ バキア
臨 ん
en a
エ ッジ
パ ティ
幅 員
H Y
J F
町 立
舗 装
公 平
流 星
は め
厚 く
ブリ ティッシュ
生み 出さ
固 体
獲 物
優 等
木 星
儲 け
冷 戦
稼 動
イン テル
デレ ラ
マ ウンテン
成 す
ミラ クル
マ キシ
井 沢
X box
常 任
東 郷
分 断
だら け
架 け
18 48
サン プル
谷 口
こ ころ
ナ ガ
供 養
仕 立て
ヴ ル
J T
ッ コ
ジェ ーン
27 0
チュ ウ
並 木
匹 敵
打 倒
仲 良く
幕 下
置 換
28 0
エスト ニア
下 がっ
開 園
切り 離
掛 かっ
視 野
ティ ラ
is on
b a
A ut
帰 宅
育 てる
つ くり
ハー ゲン
アク セント
ア オ
下 級
端 子
編 み
ユ タ
ティ ル
罰 金
う け
生 殖
浄 化
瑞 穂
サ ミュエル
収 束
称 賛
精 力
ディ ビ
作り 上げ
6 50
仮 称
ルネ サンス
噴 射
塩 化
さん ま
有 志
ond on
即 座
D i
F NS
P al
ノ イズ
だい がく
取り 組む
荒 廃
偽 装
尋 ね
明 記
MO VIE
共 用
プロト コル
スティー ブ
腕 前
ロ ジ
火 炎
瑠 璃
可 動
死 神
点 在
シャ ッター
フ ルーツ
天 明
13 3
モント リオール
シリン ダー
パ ット
ベ ビー
摂 政
リ ミ
信 徒
失 格
江戸 川
25 00
マ ッド
優 勢
摩 擦
吐 き
風 土
格 子
発 想
ツァ ー
ナ ッシュ
キャ ピ
U FO
出 航
W IN
vol ution
サイ モン
S im
共 編
動 揺
N ATO
特 記
タ コ
社 殿
メモ リー
内 包
注 ぐ
直 列
ブリ テン
M em
ライブラ リ
押 さ
つ づ
カザ フ
名 簿
フォ ント
イ ソ
ミ ッキー
キュー ブ
除 籍
飯 塚
ol a
ギャラク シー
26 0
尽 き
Ph one
月 間
ウォル ター
所 沢
マニ ラ
問 う
地 表
配 分
ありが とう
オ ・
係 る
宗 家
平 地
水 着
減 らす
も て
手 順
新 編
名 作
サ ング
カリ ブ
物 件
御 前
強 め
新 党
ネル ソン
アルバ ニア
ン マー
下 田
発 光
退 場
シン デレラ
パナ マ
穀 物
台 東
チュー ム
す ご
素 子
バー スト
キャ ロル
p ar
クリスト ファー
ラ シ
清 掃
ピラ ミッド
若 く
前 部
及 ぼす
ドリ ル
揃 え
筑 摩
納 得
クリー ク
私 鉄
古 賀
鉄 砲
マ ヤ
右 岸
イ ース
演 歌
モーツァ ルト
松 戸
退 治
安 心
S il
ロ ラ
共 作
H en
百 済
K ING
炭 酸
AP P
間 に
恒 例
無 駄
経 っ
産 経
カジ ノ
h r
プライ ド
ボス ニア
ま ど
推 力
mm F
壊 れ
工 廠
部 落
ドン ナ
配 合
公 団
TO P
コス チューム
h am
始 末
抽 象
驚 い
スーパー マーケット
く み
揺 れ
ショ ーン
H F
九 郎
O s
払 う
紀 行
ク レーン
近 辺
ビル マ
オ ード
事 象
断 片
連 立
CT ION
16 7
ウズ ベ
あい だ
赤 穂
面 白い
サラ リーマン
耐 性
or ge
v i
ハ ッチ
メロ ディー
燃 費
m g
Ann iversary
グ ナー
台 本
陥 り
収 蔵
駐 留
ジ ーク
承 諾
バー デン
キャン セル
ケル ン
メモ リアル
漁 港
16 6
アン ディ
im a
ボイ ラー
両 端
包 ま
促 す
S UN
八 百
州 道
栗 原
画 策
麻 痺
L and
番 付
祀 る
諸 侯
トゥ ル
替 わる
宛 て
詰 める
ラン チャー
G i
び ん
子 音
18 30
13 2
ホル モン
解 け
いす ゞ
о р
採 集
重 臣
サ ージ
ヒ ール
幼 虫
ば れ
ad a
L ondon
マ スカ
中 身
IV AL
P AS
産 駒
コメン テーター
ザ ウ
下 北
商 学
S w
ブ レス
松 永
ッ スル
読 ま
隷 下
グ スタ
直 面
宮 川
戦 果
祇 園
称 え
北 見
新 報
話 者
いく ら
救 命
チュー ン
一 味
徴 兵
リット ル
経 費
給 食
ナー レ
ど き
テン ポ
ステー タス
出 自
結 核
B re
セレ クション
A X
初 心
Jour nal
わ ん
土 浦
at s
K i
久 美子
子 役
中 西
咲 く
デン ス
シ ミ
LO W
回 さ
エルサ レム
U l
セミ ナー
St r
m ph
水 分
調べ る
書き 下ろし
ベ ネ
運 ん
鍛 冶
ニ アン
過 酷
ファ ラ
シェ フ
不可 欠
らし き
変 貌
TI ME
アラス カ
ぷ よ
無 名
b ook
編 制
連 行
ジャ ム
ホ モ
ニ クス
アル マ
祖 国
引き継 ぎ
なく なり
たま に
平 塚
ノル マン
病 理
知 多
移 す
g y
決 済
O G
キ リン
レ ター
ネ ード
発 案
Pr es
不 調
秋 季
吉 村
託 し
コ リン
有 明
カル ロ
見 かけ
レ プ
多 重
接 収
東 ドイツ
筐 体
F INAL
M or
分 配
落ち 着い
ギ ブ
ティー ナ
追い かけ
プロ フェッ
馬 身
13 7
ip p
J IS
一 説
真 剣
パー ソ
遊 ぶ
V ideo
l ing
上 回っ
宇 佐
止 まり
す き
安 土
片 山
日比 谷
放 火
軽 巡
n y
丈 夫
古 今
ン シー
公 言
絞 り
自 伝
IT Y
カ ネ
胸 部
生き 残り
イ ニング
ik o
13 4
ハイ ウェイ
紅 葉
回 す
ジョ ナ
し ず
B ir
承 継
閉 塞
サンクト ペテルブルク
グ ラー
ボ ラ
発 酵
オ ワ
失 業
尻 尾
本 書
終 わら
キュ ラ
楽 しん
櫻 井
便 利
Inst it
Girl s
ヒュー マン
酷 似
公 論
対 外
関 ヶ原
巡 航
エ ーカー
特 捜
セント ルイス
喜 ん
有 り
m ar
出 陣
B ank
AN CE
まさ に
ゆ い
村 長
遡 る
ス ス
古 来
城 壁
特 筆
総 監
勧 誘
使い 手
W il
ヨハ ネ
バー タ
カン ファレンス
売 ら
学 期
少 々
ア デ
エディ ション
N R
岩 石
炎 上
スペ ック
イー グルス
機 密
スタ メン
弦 楽
ヒ ム
乱 入
動 か
ファイ ヤー
N ot
五十 嵐
屈 指
居 城
ル ドルフ
届 い
オレ ゴン
浸 水
三 国
織 物
転 入
ナ ッ
モ ロッコ
疲 労
衣 服
豊 後
赴 い
アーキテク チャ
ノ ード
リ プレイ
エイ リアン
シャ フト
Ed ition
チ コ
パブリ ック
M iss
帯 広
備 前
改 宗
バラ ード
南 下
可 変
慕 っ
普 遍
キ ッ
整 え
B u
な れる
国 軍
招 く
v a
た また
フ ライン
両 腕
全 編
神 崎
フィニ ッシュ
ファー レン
ふ う
受け 取る
ロ ベルト
味 噌
タ ニア
幕 張
有 用
牟 田
Re v
思 え
チャ イルド
is ter
直 人
d en
オ タク
12 9
フェン ス
r ich
選 帝
じ ろう
ぞ く
サタ デー
ステン レス
田 島
頼 ま
シェ ー
にく く
祈 願
訴 える
Cl ass
S ound
ers on
不 倫
きわ めて
ひ る
ベ ガス
地 主
明 和
リモ コン
写 像
後 続
破 ら
花 嫁
リング ス
キャッチ フレーズ
聞 かさ
フレ ット
ク ック
ロ ップ
貝 塚
ク ローズ
シュ テ
架 かる
動 かし
ひ き
処 罰
望 み
クリ ップ
バン コク
タ リア
入 試
村 人
マ クロ
ート ・
N IGHT
弾 頭
開 花
アン ソニー
送 電
パーソナ リティー
O ut
寄 進
敢 行
n ot
蝦 夷
エナ ジー
天 草
有 害
美 味
説 い
尾 道
親 方
菩 提
補 完
ス カル
IS T
m ix
帰 郷
重 ねる
庄 内
法 華
14 1
代 打
スク ウェア
義 経
ナー ゼ
リ ポート
結 社
コス ロ
引き継 ぐ
激 化
シュ ト
シ ノ
es ter
カレン ダー
局 所
夜 明け
長 寿
間 違っ
ロー タリー
火 事
スト ーム
分 家
フライン グ
堀 川
首 領
オー ラ
ドラム ス
義 勇
み き
旭 日
車 掌
ア ゼル
掃 海
い ら
Ser v
ラ ッキー
Sum mer
受 注
養 老
おも ちゃ
隠 す
パーソ ナル
反 抗
しか け
エンジニア リング
茶 色
迷 惑
あ け
連 ね
阿弥 陀
換 算
苦 しみ
15 1
チェ コスロ
ジェ スト
矢 部
開 閉
預 金
奮 闘
微 妙
旧 称
Soci ety
ア ソシ
フィ ット
マスター ズ
黄色 い
必 死
み なし
深 川
滑 り
競 う
問 屋
各 所
er a
騒 音
Ch amp
驚 く
ソ ス
太 后
海 運
山 麓
新 造
旗 揚げ
最 盛
準 急
OR Y
挑 発
良 かっ
香 取
at ch
まと める
N BC
M ax
オ ッ
全 権
四 川
売 っ
止 まっ
遠 山
Fac ebook
セ デス
一 夜
実 父
00 1
サイ ク
転 居
トリ ニ
ア リア
健 太
減 速
退 い
疎 開
黒 髪
20 5
ハンド ボール
あ う
Mich ael
v an
P T
ネ スコ
早 々
表 向き
シャ ドウ
な む
パイ オニア
ダ ウ
窮 地
す ば
大 平
トリ エ
ペ トロ
優 子
ティ ウス
掛 かり
トラ ップ
ri pt
ヘ ビ
we et
コンピ レーション
ダイ ア
グレ ゴ
レイ アウト
だ れ
フ ッ
六 角
サイ コ
波 動
乱 れ
カ ヤ
上 皇
イ ヤ
暴 露
莫 大
e e
市 域
那 珂
五 島
彼 氏
B ab
セ リ
一 応
盗 み
重 用
再 戦
攻 防
" ,
バ ダ
発 進
и ч
Gr oup
更 なる
テ ア
18 5
持ち 込ん
て れ
一 騎
見 込み
たば こ
々 しい
ほ っ
伯 父
刑 法
セイ バー
ロ スト
納 め
却 下
沼 田
M ix
ピ ュー
絶 賛
夜 中
ディフェン ス
i ro
テ ラス
今 治
B oy
実 子
木 場
ク リーン
カー ビィ
サスペン ス
n ight
洋 子
15 3
N TV
ま け
モ ダン
マ ッカー
終 始
対 潜
流 派
B and
マ ロ
万 里
ば す
ひ まわり
共 鳴
民 家
浪 人
放 浪
涼 子
版 画
] )
儀 礼
延 喜
模 倣
ミャ ンマー
ぶ る
En ter
可愛 い
座 っ
ベート ー
中 年
積 分
os a
属 す
神 父
フォ ア
13 1
上 がら
ひと み
RECOR DS
商 用
アフ ター
ベー シスト
Y our
Z A
v al
調 停
今 夜
届 く
待 遇
狭 く
アド バイザー
代 議
淡 水
キー パー
大 胆
繰り 広げる
延 暦
尚 書
同 郡
立 命
里 見
全 英
大 抵
m as
St re
遊 ん
D U
明 示
パン タ
たまた ま
S a
支 出
法 制
西 端
発 令
it ar
オブ ・
勅 令
リ ・
敷 き
コン ペ
ダイ ナミ
艦 名
P U
が 丘
シ ク
多 々
日 韓
ウィ ック
肺 炎
雇 わ
頭 取
じん じゃ
全 盛
規 約
y le
水 晶
覆 う
成し 遂げ
カ ント
本 戦
カル シウム
サ ミット
リ リーフ
ジャイ アント
l i
セ メント
ッ サー
貯 蔵
出 せる
急 死
振 ら
藩 領
暴 れ
近づ い
中 頃
ブ ースター
Associ ation
J ose
F NN
全 高
桑 名
渡 米
Am az
レジェ ンド
20 2
隕 石
つな ぐ
辞 書
ブ タ
マ イト
同 点
宅 地
近 縁
ディビ シオン
ア ストロ
日 報
ラー ン
コンサル タント
ザ ース
体 長
US B
い ざ
含 み
H app
サ バ
弾 道
収 監
サ ボ
衰 え
進 言
ペ ナル
ゾ ル
平 坦
従 兄弟
重 なっ
パー カー
ブルック リン
ジ ウム
公 示
去 ら
反 する
メル セデス
犬 種
キ サ
鍛 え
国分 寺
生 駒
ア ロー
ス プリント
握 り
ジュ ラ
m od
参 道
増 幅
ル イー
ひ さ
コ スタ
迅 速
マ シュー
ヒ ンド
古 巣
トラン ペット
u el
こ っ
ト ク
アッ パー
B IG
藤 岡
タ カラ
j a
撤 廃
フィール ダー
ラ ビア
アル ティ
童 話
退 却
長 谷
リン ゲン
イ マ
it z
デュ エル
修 学
SP OR
こだ わり
水 族
水 深
ジャ ス
IC K
クラ リ
屋 台
平 山
ス パーク
ロ マ
ill a
OF F
桃 太郎
ブレ ッド
シ ム
処 方
終 焉
自 爆
An gel
秋 元
18 3
宇 野
カ ビ
ペ リ
説 教
コン ボ
公 卿
レバ ノン
戸 籍
崩 御
ちゃ っ
コ マーシャル
ビ ッチ
ブ リア
襲 う
N a
帝 都
名 残
噛 み
闘 士
生 母
転 倒
く っ
寺 社
献 上
吹 田
貧 しい
制 式
k er
国 々
室 蘭
逃 れる
ヘクター ル
星 座
C BS
D el
人 名
本 庄
津 島
L ittle
ラン ブル
ang u
も た
征 伐
ol f
民 兵
15 6
カ バ
z y
特 務
秀 樹
18 58
ラー ゼ
トリ ノ
欠 け
ライブラ リー
絡 み
アン ス
ほ く
アゼル バイ
ハ メ
お や
Ty pe
祀 ら
アゼルバイ ジャン
信 任
宮 中
治 郎
E F
G er
発 砲
ハン ブルク
旧 暦
戴 冠
抗 体
t i
キング ス
р а
分 立
反 則
挟 み
う か
し める
機 雷
メ ッツ
促 し
A u
総 集
U K
メ ト
石 巻
課 長
こ み
関 税
坂 上
ic ht
l o
扮 し
田 代
W al
ケ ス
連 想
ッキ リ
新 宮
自 走
18 59
S k
セ クション
サウ ジア
発 刊
な べ
支 障
導 き
t en
塩 基
話 さ
北 海
ジア ナ
助 成
b i
水 島
er y
反 逆
吉 祥
カー ター
急 増
おこ なわ
消 火
ah oo
寺 田
ハリ ケーン
演 芸
リー ニ
官 職
Comp any
g u
例 年
翌 週
返 済
連 射
ディフェン ダー
困 っ
フリ ゲート
争 奪
高 砂
バック アップ
アレ ル
い や
セ バス
迂 回
B AS
リー ル
大 通り
素 顔
荘 園
グラ ード
連 鎖
ul ar
P HP
ゲ ッ
天 台
城 山
学 派
器 用
囲 む
d r
開 山
防 護
ツィ ヒ
スケ ッチ
体 色
岩 井
速 報
エ ックス
樋 口
逆 襲
杉 並
神 谷
ストラ クター
ak i
F ree
末 端
艦 載
迷 い
P SP
ち なむ
隆 盛
E p
風 貌
シャ ワー
撃 つ
充 分
独 身
代 々木
ロッ キー
ヘル マン
築 地
死 傷
パラ メータ
の ん
砲 台
チス ロ
合 作
テロ リスト
か おり
父 子
モノ レール
W OW
講 堂
ア ット
碑 文
v o
デ パート
ティ エ
ベル ン
クス ピア
伊 集
伊集 院
八 尾
大 連
宿 舎
乗 合
母 子
派 出
激 減
集 計
ad y
Gr and
泥 棒
13 00
ジェイ ソン
c in
恐 慌
アル フレッド
j i
ヤ シ
開 港
驚 異
サウジア ラビア
あ おい
バ ックス
カ ト
国 政
迫 ら
奥 田
津 川
スロー ガン
回 帰
N at
硫 酸
ライ プ
ビ ウス
器 官
ا ل
人 造
Y Z
土 井
パ チスロ
マ ヨ
出 そう
観 念
恵 比
M IT
15 7
東 端
麻 布
全 幅
g ar
遠 ざ
B T
勝 て
っ ぱ
ガ ミ
構 える
焼 い
App le
ふ さわ
棄 権
14 2
IC O
一 括
売 春
栄 誉
ロ ート
鳴 門
G al
声 楽
別 人
山 東
コス モ
三 遊
刺 さ
権 現
l ag
ジャン クション
アク セ
支払 わ
t s
短 歌
寸 法
タイ ル
イ ット
aw a
ダ ニー
利 便
同 曲
J u
天 空
大き かっ
の 丸
染 め
アル ベルト
嫌 悪
河 南
15 8
呼び 名
山 間
カ ラス
店 頭
エ ラー
中 略
平 定
水 谷
ステ ッカー
ワル シャ
提 言
日 誌
テ ト
初 恋
音 色
多 賀
ダ ラス
折 れ
アサ ヒ
ジェーム ス
楽 園
江 東
宿 主
迫 害
作 物
トマ ト
ion al
サ カ
校 内
忍 び
鉄 路
BE AT
シーク レット
錬 金
始 祖
教 場
ファント ム
f in
モ ザ
長 身
D is
掘 削
給 付
放 課
ル ーク
増 備
母 国
Charl es
B ra
サ ックス
ト モ
組 長
遭 難
通 販
近 親
ro ss
Un ited
半 球
なく なる
c ar
葬 ら
負 債
25 6
スロ ベニア
手 数
西 欧
遊 戯
リ サ
ール ・
パ ルト
ポ ピュ
敦 賀
美 し
み せ
ふ ん
採 っ
沢 田
イン デ
武 藤
軽 井沢
ミッド フィールダー
よ ろ
ア クト
ヘ ルス
行き 来
悪 役
担 い
リ ターン
48 0
下 水
い まだ
年 寄
低 温
ber t
聞こ え
マ ム
D u
か たち
ア テ
バ シ
奈 美
金 星
メカ ニズム
あ か
スラ ヴ
マク ドナルド
政 宗
フェル ディナ
ち び
一 派
富 岡
マイ ヤー
クリ エイト
F ire
M el
大 物
消 さ
18 54
新 城
エージェ ンシー
吉 良
知 性
レー ツ
バ オ
終 える
ダイ ジェスト
クー バー
Ge orge
フィル ハーモニー
スパル タ
日 吉
無 形
サイ ザー
8 50
か れ
en se
大 船
各 局
スタン プ
Z U
20 3
厚 木
川 端
楽 しい
フォ レスト
ユ ネスコ
容 赦
c al
狭 義
コン チ
唐 津
エ ステル
低 地
Ch ild
さ だ
ア ミューズ
K K
S el
シ ズム
裕 子
アン コール
プラ チナ
舞 う
返 る
30 1
さ さ
ホー プ
図 り
濡 れ
翌 月
F BI
カ リー
愛 宕
担 保
投 獄
マ スト
建 っ
Y ahoo
速 力
繰り 出す
U F
信 玄
愛 さ
繰り 返さ
mus ic
四 角
アニ マル
ステ ラ
ッ ケン
AT T
L im
ら ぎ
岩 国
Thom as
強 かっ
許 容
イン フル
Te am
W S
勝 敗
赴 き
熱 海
消 耗
ム ード
BM W
大 黒
ソロ ジー
D irect
手 足
混 在
接 合
法 定
シー ズ
g a
い ただ
S o
ク ッパ
カラー リング
コンサル ティング
ル ター
京 急
公 家
波 長
視 界
デ ビッド
和 夫
16 2
戸 塚
抹 殺
コ イル
・ ラ
着 き
アマ ゾン
出 かけ
マ ドンナ
3 80
旧 来
頼 ん
共 々
Coun ty
調 布
議 決
負 わ
バン クーバー
阿 久
イ オ
貞 観
ハン デ
パ ッチ
Part y
若 年
剣 士
適 正
浮 遊
そ ら
ディ ビジョン
極 度
西 岸
移 送
公 転
AM P
サブ タイトル
D a
擁 し
ect ion
下 総
大 工
LI FE
G RE
ア クター
大 火
要 領
フット サル
返 上
アル ジェリア
チェコスロ バキア
ワ ラ
自 機
リン パ
紀 州
離 党
ぼ さ
尾 根
ハ ニー
リ ヴァ
レ ポーター
進 級
新 橋
ジュー ス
ピ ル
巻 い
結 末
入 線
効 力
協 調
打 診
敬 意
ピン チ
クレ オ
い さ
ソ リューション
ホ マ
呈 し
滅 ぼし
A lex
ヶ 国
浩 二
マル タ
L ab
知 行
ピ ッ
16 8
K iss
SO D
L ight
万 博
水 色
見 習い
反 響
D an
ツ キー
デュ オ
か げ
バ バ
坂 口
ギ ガ
司 る
坂 田
長 安
フィ ッシャー
福 知
編 著
ur es
夏 目
パン ダ
荷 重
訂 正
プロト タイプ
シェイ クスピア
含 有
西 条
讃 岐
ジュ ネー
細 長い
江 南
エ リス
プ ン
栄 光
ベートー ヴェン
キ ッチン
が かり
ア ゲ
ジ ・
毒 性
貸 切
m b
C I
ケ イン
浅 間
EC T
わ た
バ ファ
若 狭
18 55
ナ イル
解 読
下 がる
ず り
D ig
L ou
お ろ
古 田
エルン スト
ゴ ラ
破 片
ジョ ブ
至 り
ネン タル
か ご
ル ース
願 っ
ウルトラ マン
不 審
ロ ペ
ディ スカ
奔 走
Off ice
辿 り
魔 人
培 養
打 数
格 差
経 理
i P
今 年
県 都
青 島
ルーズ ベルト
補 欠
元 号
行 け
一 線
е н
工 法
討 論
2 25
物 事
不 当
18 40
た かし
シ ックス
祝 福
チ ウム
ホ ス
メ ート
目 の
飾 ら
前 衛
給 油
開 会
し げ
溶 け
アク セル
下 っ
プエ ルト
極 限
ッカー ズ
長 浜
カ ・
ベ ニ
サム ライ
福知 山
部 数
噴 出
ディ スコ
イ ニ
二 宮
自 力
カルタ ゴ
ま とも
セ ネ
フラン チャ
クリー ブランド
3 40
石 碑
クロ ード
オリ オン
ジャン ボ
10 000
協 賛
大 泉
訳 さ
こ し
原 点
W est
竜 王
和 彦
モー リス
F RE
異 端
デ スト
み の
嵯 峨
教 義
関 口
F il
s k
京 子
見 受け
つ と
ツ ブルク
原 宿
ワルシャ ワ
だ ち
強 要
拠 れ
母 校
ジー ミル
N av
上 水
年 俸
従 属
ジャ ガー
レ クト
南 道
明 瞭
an ge
つく ら
台 場
如 く
怖 い
血 統
青 梅
スパイ ク
エ マ
テ ント
ト ゲ
フラン ケン
及 ぼし
GH Q
S ur
Rich ard
C IA
レ ジャー
マ ディ
若 葉
観 覧
部 署
エ ッグ
支 那
コン プ
バ ロック
桑 原
点 検
直 属
アイ オワ
タ スク
ヨ コ
総 括
闘 い
ベ ント
改 める
隔 離
FEST IVAL
苗 字
イン トロ
G old
du ction
絵 師
肥 後
堀 内
銘 柄
デイ ヴィス
フランチャ イズ
ス モ
ボ ヘ
並 列
レン ガ
クロ ック
里 子
ちゃん ねる
や ん
大 小
溶 接
察 知
校 地
紀 子
グスタ フ
v ar
ア トリエ
廉 価
航 続
豊 岡
超 過
デ ニス
望 ましい
ぬい ぐるみ
ツ バ
中 井
Su ica
コンチ ネンタル
ざ き
秘 め
不 況
飛 躍
m et
浅 い
サイ ボーグ
id a
美 里
パ ード
カ ノン
シンセ サイザー
カ オス
チ キン
瑞 宝
ベラ ルーシ
i que
隔 週
断 ら
ブー ツ
リ ンド
入 所
葉 山
ジャ マイカ
柔 術
襲 来
薬 局
臓 器
ソー プ
ゃ く
イ アン
新 庄
用 水
S G
シ エ
ナ リズム
律 令
部 会
付き 合っ
14 8
l b
ば っ
オ バマ
藤 村
四 条
同 県
根 岸
下 着
均 衡
アル テ
すす め
am il
i Phone
亀 田
システム ズ
un es
Sh ow
ワル ツ
付 着
ストライ キ
i OS
た き
タ モリ
ブ ダ
シュ ・
由紀 夫
照 射
納 税
V II
ニ ム
手 助け
近 海
撃 た
青 空
コ ・
バ ディ
希 少
短 大
証 人
クリ ミア
乃木 坂
浮 き
C AR
熱 い
生 田
富士 通
カ フ
一 転
大 作
ロビン ソン
wor ld
ian o
水 害
F ight
グリ ル
ペ リー
松 村
糖 尿
S ky
ワ フ
口 座
マル ティ
つ ね
分 化
筑 紫
聖 地
オーク ランド
実 録
リン ダ
ob ile
たっ た
教 鞭
ヨハ ネス
Hist ory
マ シーン
洗 濯
赴 く
前 頭
隙 間
んど う
完 走
モ リス
嫌 わ
ナビゲ ーター
仕 掛ける
以 西
こと ば
く さ
祭 典
ブ レン
猶 予
気 体
M al
エ ニックス
医 院
顕 彰
売 店
マ リーン
太 政
引 か
軍 曹
乗り 込ん
NE O
F AN
加 古川
洗 浄
蛍 光
複 素
マヌ エル
紫 色
ビ ラ
明 智
ノー ザン
盛り 込ま
P an
団 長
サー ン
買い 物
ガブリ エル
健 全
コン タクト
アキ ラ
リ ノ
草 原
萌 え
見 通し
d ro
ザ ム
IDOL M
カ ルト
ペ ディア
生き 延び
巻 く
T im
外 相
疲 れ
登 り
ヘ ラ
憑 依
飲 酒
J NN
つ め
ポ ット
ヒ ゲ
ヒ カル
メリー ランド
B ig
Ele ct
セ キ
bur g
側 室
響 き
AR U
A p
ミ クロ
人 道
片 手
デュ エット
ガ ロ
ガ ルト
聴 く
ファ ウ
16 3
ヤ ス
ウェ イト
磐 田
オー ロラ
ウル グアイ
レ ミ
チャ ック
開 口
ネ ガ
兵 装
横 田
終 着
賀 茂
AD E
T SU
イル カ
G ame
Y E
賃 貸
シル ク
ち か
別 途
滝 川
点 灯
金 利
クリエイ ター
大 竹
着 ぐるみ
豪 族
ビ キ
艦 橋
ラス ベガス
常 盤
乱 闘
ジョ ッキー
ハー バー
バート ン
R oy
三遊 亭
上 川
バト ラー
弱 体
最 寄
産 卵
起 業
シュ ウ
実 権
コン ポー
多 項
追 及
春日 井
ム ント
高 倉
Par is
カ エル
理 性
の ぶ
円 筒
天 理
BL ACK
当 たら
オ セ
体 当たり
埠 頭
女 装
定 か
宝 島
クリ ニック
走 者
ルイ ジアナ
トロ フィー
バラエ ティー
モニ カ
公 用
インフル エン
エ ッチ
ズ ーム
土 岐
サ バイバル
パ ケット
旧 道
見 れ
and er
後 見
入 浴
出 兵
B AN
クー パー
盗 ん
粛 清
限 っ
フェル ナンド
ヴォル フ
T re
お し
試 し
ウェ スタン
志 し
17 6
たま ご
図 柄
オ クラ
分 身
載 っ
ニュ ートン
ul a
サング ラス
廃 線
15 4
鳴 き
レン ツェ
ナ ール
欠 陥
Day s
宮 田
泣 い
照 準
ラ ウン
叔 母
直 ぐ
17 00
サン プ
スク ロール
K AD
か ま
均 一
ジュ リア
細 かく
小 浜
畠 山
都 会
亡 人
未 亡人
と し
兵 員
社 交
フラ ット
キ ョウ
後 円
B en
B att
キ ヤ
手 動
OW N
D ance
下 手
催 眠
う さぎ
ファー ソン
c le
サイ レント
さ とう
ロ ム
入 間
祭 祀
墳 丘
ジャー ズ
無 双
算 出
E nd
江 川
敗 者
R om
北 山
ス ワン
溶 岩
青 銅
公 判
基 底
教 習
杉 本
判 例
17 8
r is
松 阪
雷 撃
夕 刊
フィル ター
恵比 寿
赤 松
彦 根
Nor th
京 極
面 接
Bill board
Amaz on
ク ランク
ISS N
劣 化
月 面
海 面
貧 乏
鳴 り
ポル シェ
だ す
割 っ
Z Z
ロ ドリ
世 襲
p ol
演 目
リー ・
M U
ぎ ん
一 大
安 永
18 56
ハ ク
入 党
履 歴
計 量
ボ ディー
岡 部
アイ コン
バ ター
霧 島
ou gh
決 算
居 酒屋
霊 場
ナ チュ
視 力
トリ ガー
ウォ ルト
抜 群
奇 数
緒 方
スイ ート
アル カ
カイ ロ
ガ オ
上 る
棄 却
ジャ ワ
大 樹
生 還
AI R
線 型
IS E
ジェ ント
文 京
Se ason
と れ
美 咲
捨 てる
深 海
久 々
伝 導
貯 水
グリ ップ
O per
ば あ
ハ ノー
降 車
オス カー
アン ソロジー
ボ ビー
ビー スト
リ グ
不 信
提 起
見 積
シュ ミット
因 縁
美 しく
トランス ミッション
関 根
もっ ぱら
輝 き
基 板
捕 ら
祝 い
う み
一 因
吉 井
s el
相 性
頼 っ
養 殖
雑 貨
80 2
エ アー
準 州
ちゃ う
キャン ベル
やり 取り
Wh ite
ド ク
九 十
人 型
登 校
ブル ドン
トラ ウマ
T X
W H
ド ナ
回 送
家 人
ユニ ーク
ア ブラ
居 る
注 い
待 た
欲 望
18 57
冗 談
W AR
カス ティー
s ite
パ トロール
IT E
Sport s
J C
荒 れ
ヴァ ール
カウント ダウン
ぬ き
イ キ
製 菓
養 女
1 100
R X
ケ ベック
万 国
銃 身
クラ ッチ
外 装
ブ ッ
汚 れ
ese arch
治 水
覚 える
シュ トゥ
H um
et s
オ ウム
防 備
ドゥ ル
侍 従
光 景
野 々
o de
и й
激 戦
AN GE
L uc
劇 的
在 職
売 る
エ ネ
内 定
単 線
裏 面
粘 土
クリ ントン
バ ッジ
艦 上
18 53
望 ま
重 く
公 営
腐 敗
赤 城
天 竜
宝 永
ナ ント
刈 谷
黒 木
RE D
ま じ
汽 車
シ ティー
学 業
チュ ン
接 着
陽 性
フラン チェ
勝ち 越し
ク イン
通 す
オーク ション
く ち
野 戦
バファ ローズ
t v
東 名
稲 垣
邦 題
ネ ロ
テン ション
ウラ ジーミル
降 る
築 造
断 面
Z E
ス ナイ
農 園
ダ ブリン
幽 閉
手 間
歌 曲
エン ブレム
戦 役
麻 酔
サン パウロ
充 て
出 願
建て 替え
Stud io
ぷ い
ケ イト
細 工
ビュ ート
ur y
茨 木
知ら せ
く す
施 策
外 出
ジョ ーカー
ウス ・
インスト ゥル
従 え
光 明
芦 屋
M IN
ブレー ブス
近 似
イン フォ
バー ズ
ガ ウ
共 感
怪 談
来 場
空 挺
h p
ゲ ゲ
W C
無 断
ヴェ ント
T C
ツ ネ
帝 王
風 間
id ae
エ ヌ
パー フェクト
握 る
立 派
埋め 立て
イケ メン
クラリ ネット
清 算
若 林
川 田
20 8
P op
兵 役
ア ディ
共 生
ハ ール
サン ブル
isc he
いち ご
スリ ップ
ヒンド ゥー
か わり
消 える
句 麗
縁 起
転 職
高 句麗
カー ニバル
大 岡
驚 き
O ver
インフルエン ザ
m ic
愛 子
Ab ema
マカ オ
ジョナ サン
K a
松 前
思い 出し
岩 倉
坊 主
カー ネル
下 す
男 児
選 曲
クロー バー
D OS
le d
キロ グラム
た え
副 官
ノー フォーク
е в
徳 山
コス モス
サ トシ
ゲオル ク
V ir
う り
カ ド
歩 み
バ ドミ
両 社
劇 作
魔 族
WOW OW
う ま
14 3
共 存
気 絶
バドミ ントン
緩 やか
船 員
アン カー
ダイ レクト
破 れ
自 害
乗り 場
ウィン ブルドン
p ubl
オ メガ
ダイ ビング
W BO
警 護
ティ ・
ラ ピ
小 平
王 宮
筒 井
ッ リ
光 子
バレン シア
ル シ
執 っ
チョ ーク
ヌ ード
M ot
強 奪
14 7
ワイ ヤー
アン サンブル
吉 原
チャ ット
G OLD
美 穂
新 居
臭 い
べ し
ビ ナ
大 差
ヴュル テンベルク
患 っ
突 出
お まけ
洛 陽
しゃべ り
譲り 受け
強 硬
作り 出す
AK A
三 沢
飛 来
とど め
Je an
次 ぎ
閣 議
発 端
イー グル
カイ ザー
満た さ
コ ソ
ラ ベル
戦 績
C ry
カ ッター
el s
いわ く
採 ら
結 界
バッファ ロー
杉 田
都 督
みず ほ
セ クター
小 原
留 まる
ソ プラ
夕 張
操 り
引き 取ら
こ め
刺 客
J ul
ぶ し
日 没
源 泉
紡 績
素 早く
リエ ット
ア ッシュ
乗 船
シグ ナル
あ かり
つ ぼ
万 葉
グリ ッド
加 納
バ ロン
天 守
責 め
布 施
東 邦
R a
潜 伏
熱 狂
銃 弾
ラ ット
同 調
艦 首
ロー ゼン
デュ アル
マ ティ
ピッツ バーグ
催 さ
フォー マー
ボ ルド
良 き
レー ニン
届 ける
流 動
N WA
右 派
いた ずら
ub er
そ ん
強 行
炎 症
木 津
ペナル ティ
ケ ニア
レ フェリー
妥 協
向 ける
セク シー
本 丸
ニコ ラス
インテ リア
更 生
絶 大
16 9
レ ッツ
強 姦
府 道
神 明
17 7
ロ ワ
委 任
form ation
B ox
架 橋
アル ・
伊勢 崎
簡 素
三 陸
解 か
随 時
R AM
請 願
シン フォ
え み
丁 寧
文 脈
甲 賀
野 中
ギ ミック
タン カー
の こ
回 廊
変 速
個 展
我 慢
元 町
曹 洞
一 層
怒 ら
о л
伝 送
学 力
策 略
コ ールド
ワ ート
手伝 っ
苦 悩
レコー ダー
シャ ッ
海 中
舞 踏
風 船
筑 後
保 留
英 名
ジョ ゼフ
ら う
対 等
殲 滅
野 心
フィ レンツェ
AT S
L ist
乏 しい
手 帳
シャー マン
z o
シ コ
曲 名
法 科
ル・ マン
三 味
前 夜
阿 南
間に 合わ
Cor por
幕 僚
著 しい
ヴィ ッツ
混 成
モー ガン
介 石
ふ しぎ
上 洛
解 像
3 10
ロ メ
ウィ ス
タ リオ
受 講
いっ しょ
ST AGE
心 身
捕 縛
アドバン ス
ヒ ラ
特 産
S V
蘇 生
込 める
咲 き
目 玉
15 9
憲 兵
血 圧
鉱 石
O b
P OW
f ul
ハ プス
助 演
蜘 蛛
あ かね
工 兵
扶 桑
ンド ルフ
コ ッ
対 比
エレクト ロニ
B ur
昨 年
眠 っ
門 前
ニュー ギニア
iz ation
P H
小 坂
番 長
ゲル マン
芥 川
い こう
ド ニ
将 兵
森 山
翻 弄
鋼 鉄
ヴェル ディ
奥 羽
親 しい
ど る
和 也
ウィ ザード
持ち 込ま
フィリップ ス
M ak
揶 揄
造 語
ン ・
ハプス ブルク
s ub
強 固
慕 わ
潰 し
進 ま
健 太郎
鳩 山
パス ワード
新 星
コフ スキー
Champ ion
17 2
OK AWA
F est
p re
ひ かる
セ ナ
供 与
枠 組み
オー シャン
パイ レーツ
9 000
AP I
廃 藩
長 島
un t
カ 所
到 来
広 め
ポップ ス
乗 馬
交 友
明 言
踏 ん
途 絶え
リ ビア
アトラ ス
長 田
圧 迫
ディ ヴィ
AT P
修 羅
浮 かぶ
着 目
プロ ス
ウ シ
立 教
ポピュ ラー
暖 房
歌 声
キ ノ
四 球
レッ ズ
チ カット
耐 震
隔 て
フェ デ
イース タン
益 田
西 野
教え 子
ス カン
堂 々
KAD OKAWA
ス コープ
妨 げ
オクラ ホマ
移 築
トラ ベル
注 射
00 7
O UT
大 別
田 町
イ ッ
I BF
キム ・
コネ チカット
i h
イ ブン
ゼ ミ
スピ リッツ
イ シ
14 6
バー ク
メル ボルン
M EN
時 事
膨 張
フラ ッグ
河 岸
ヒ ッ
借 用
北 魏
脱 線
陶 器
SU MM
メド レー
I LE
私 的
組 曲
アル フォン
ニュー オー
Sp ace
整 形
最 短
右 京
本 松
充 当
後 悔
清 朝
贈 り
Br it
多 種
諮 問
アス リート
タ ツ
吹 雪
川 西
プレ ステージ
原 動
張 本
赤 道
シン クロ
レッ タ
タ ヌ
上 総
壁 画
2 11
すご い
増 発
監 獄
原 告
C arl
同 区
ま な
パ ノ
准 将
雲 南
沿 革
飲 ま
モザ イク
批 准
パー キング
乗り 出し
子 育て
吉 備
Japan ese
カリス マ
シ モン
映 し
突 進
Sc ience
I F
ゴ ッ
感 想
真 夏
転 々
ジョー ダン
ナン パ
略 し
開 ける
ロー ター
ば い
叙 任
b re
ニ セ
ソフト ボール
デ マンド
本 島
見 沢
高 瀬
キャ スティング
スク リ
M ad
入 江
アンド ロ
スワ ローズ
恋 心
雇 い
パンタ グラフ
チ ク
ガ ッ
若 しくは
陣 屋
ジ グ
ナ マ
規 範
新 線
重 巡
代 子
揚 陸
ジャ ッキー
乗り 越え
マジ カル
脊 椎
苦 しん
荒 井
跨 線
H a
LE CTION
G C
面 々
シャー ロット
Gre at
マ スタ
乗 じ
浮 気
メイ キング
インストゥル メンタル
B row
廃 墟
ダ ビ
半 田
賢 者
は つ
同 然
セン ブルク
チュー ブ
14 9
即 興
笑 う
綬 章
H ow
客 観
人 柄
後 編
ain t
ス レイ
苫 小牧
ブン デス
中 道
更 津
木 更津
精 製
16 4
wit ch
スティー ヴ
サ メ
ヴィ ラ
打ち 出し
K C
ナ イツ
機 甲
キャ ッスル
ベン ガル
P ri
S i
o ch
い とう
ウ オ
タ チ
アレル ギー
H ouse
判 別
語 彙
返り 討ち
J AM
大 当たり
Pet er
後 進
後 押し
郡 上
預 言
Par k
イ ジ
造 園
代 償
銃 器
am i
Stre et
バ ケ
石 狩
ティ ナ
パ ッド
刷 新
断 り
黎 明
グ ッ
着 せ
臨 む
C at
ブ リス
交 配
唱 える
肥 料
スキャン ダル
タック ル
カザフ スタン
柏 原
DD I
治 虫
グラ ミー
スリ ランカ
v ersion
家 業
Re al
ウィンド ウ
欠 番
漁 師
Wh at
新 装
畜 産
ソプラ ノ
上 段
蒸 留
14 00
ナイ ジェリア
放 し
業 態
ブリュ ッセル
カ サ
ボ ア
教 材
Euro pe
K Y
е р
ラ オス
旅 人
36 5
ジョル ジュ
上 っ
先 制
オー ブ
授 賞
用 地
用 法
D ER
西 園
Pro gr
推 計
極 楽
知 子
ス バル
乗り 物
サ ガ
ピック アップ
T or
バ ネ
高 尾
Al bum
切 れる
銀 色
16 1
チ レン
レ ノ
氏 名
限 度
実 弟
華 麗
元 祖
庇 護
al s
Cent er
J un
国 造
急 進
同 法
犬 山
レ グ
入 札
肝 臓
かね て
む す
キ ナ
三 上
め ちゃ
J ust
救 世
脆 弱
チャ ネル
H ome
全 勝
文 禄
ティ ティ
ドラ イン
cl ass
k t
お およそ
店 内
T op
杉 浦
at ic
マッ サージ
ミ ド
一 夫
IN T
インタ フェース
の 内
同 種
4 10
喋 る
月 光
スー ダン
マー ベル
宇和 島
な め
下 降
延 べ
絶 頂
ブンデス リーガ
ち り
大 路
50 1
トレード マーク
い で
18 2
ピ コ
ベ ロ
いち ろう
ヴェ イ
い たる
18 52
嫌 う
当 面
申 告
タ ニ
国 交
ドミニ カ
他 界
s ur
溶 解
おと な
ネ ギ
上 尾
拡 充
開 場
ag ue
流 体
また がる
22 2
手 下
20 4
プロフェッ ショナル
点 火
覆 面
AC H
ロー ブ
受け 取り
プラ ネット
主 戦
見 込ま
ひ た
ゲ ノム
重 工
ラン ニング
ス レ
亀 井
光 文
藤 子
ポート ランド
O h
w a
ハ ザード
チャ リティー
Sou th
のぞ み
お それ
ズ ラ
不 快
高 射
有 楽
聖 子
陛 下
狭 山
ガイ ドライン
E V
ざ し
バ ール
尾 翼
羽 生
有 線
ス ウィ
リ ヨン
BO OK
信 じる
宝 物
幸 子
有 能
es ch
一 躍
発 起
下 がり
シャ ス
大 道
ギャン ブル
Rem ix
F X
あ しら
ア トム
帰 化
W O
アル ド
チ ルド
佐 々
果 物
注 入
瀕 死
皇 女
冊 子
大 町
正 直
C U
仁 川
NA ID
アトラン ティック
ヘ ヴィ
遂 げる
黒 幕
せん しゅ
ほ り
ゴル ゴ
モナ コ
ó n
亜 美
D Y
サ ミ
妻 子
カク テル
備 中
オ シ
磁 場
ミハ イル
ア ガ
離 反
ディ ル
St and
op e
つな ぎ
ボル チ
手 当
ステ イ
タ フ
受 領
帰 投
爬 虫
H all
文 句
ひ げ
完 封
長 者
クリ ック
S ant
買 わ
S N
タ リング
日 和
長 良
ルー フ
祈 祷
c an
弘 文
皆 無
街 区
高 まる
ツー リング
ノン フィクション
エ リオ
震 度
B ack
戦 災
砲 身
40 6
ド ロー
ヘ レン
17 3
沈 ん
老 舗
マル ティン
オリ エン
99 9
W ay
狩 野
ケ ルト
ギャ ップ
O EM
R Y
デ コ
デ イズ
モ ビル
プリン ター
欠 席
ネ プ
満 洲
F irst
山 名
越 中
J FL
R ain
ホ ビー
山 野
補 う
養 育
ダン テ
オペ レーティング
島 内
快 適
間 際
シャ ム
コウ モリ
コンビニ エンス
病 原
門 人
カリ ウム
従 わ
渡 航
ed er
I VE
沙 汰
配 当
寺 町
捕 鯨
肥 前
新 入
余 剰
18 49
ガー ディアン
殺し 屋
怪 盗
ダー ズ
バレン タイン
ズ ボン
伝 来
拡 幅
黒 崎
マイ ズ
ね え
綴 り
EU RO
ルク センブルク
ケ ビン
働き かけ
画 質
L es
ヒ カリ
ギャ ラ
ぱ り
水 木
Off icial
ク レーター
停 戦
品 番
つ り
勝ち 点
太 宰
石 室
赤 ちゃん
院 内
ます ます
t im
C RO
憲 章
ウィン ター
分 社
恐 ろ
配 偶
小 杉
H el
き ち
熱 田
ハ ト
枚 方
社 屋
あ お
年 鑑
河 出
ジャン ヌ
両 軍
空 白
キ ティ
帰 属
クレ ヨン
con om
ディ ウス
メタ リック
Eng ine
休 館
滝 沢
血 縁
両 立
ポリ タン
ご み
漂 流
Sou l
ソ ルト
レ シー
城 内
スペン サー
色 素
場 外
18 1
y r
酒 場
富 豪
絶 命
un ic
VER S
南 町
城 南
容 認
顕 微
くる み
E ast
ヌ ル
同 心
洗 い
ンド ー
コ ブラ
名 跡
夢 中
い じ
トラ ス
行 先
遊 歩
ar m
おも に
パ ース
全 額
黒 澤
あっ さり
コ モン
着 物
all y
ウー マン
各 務
気づ か
七 尾
眠 る
マネ ージ
気づ き
ボウ リング
サン シャイン
曲 げ
NN N
周 防
沈 黙
イ デ
プ リー
礼 儀
ロー ソン
Jose ph
W ith
ハー ツ
干 し
C AT
D iv
L M
ボヘ ミア
野 沢
SPOR TS
軍 需
ベン ジャ
ゼ ーション
健 二
裏 側
日 数
登 頂
20 6
ブック レット
C re
童 子
20 7
フィ ード
br idge
オ アシ
公 子
地 雷
an i
ST Y
部 活
az ine
学 研
布 教
榎 本
細 部
連 帯
音 波
Fran k
C ast
W r
ク ティブ
クラ イン
Happ y
p le
信 条
勝 目
柏 木
トー タル
石 山
重 なり
エン ヌ
ict ion
ストック ホルム
4 30
甲 州
ツェ ン
T ur
定 格
ボルチ モア
A U
歯 車
ウェ ザー
の 中
ハ ツ
ボ ナ
指 針
ニューオー リンズ
K EN
18 51
引き 起こさ
オリー ブ
B a
ス イー
円 谷
千 住
振 っ
憎 悪
硬 化
通 達
ヴィ エ
De NA
用 心
マ テ
互 角
菅 野
D T
w are
ゆ ず
サ ターン
信 夫
身 近
19 2
さら さ
パン フレット
幼 年
ch en
S weet
t re
写 し
千 鳥
宮 沢
森 本
スチ ール
X P
ブ ライト
手 首
筆 記
am b
停 滞
ヴェスト ファーレン
ブ イ
房 総
景 勝
和 音
王 冠
4 40
ズ ス
繋 ぐ
ティー ノ
セ プ
夢 見
戦 中
トランス フォーマー
O l
冷 たい
触 手
気 球
元 首
自 生
] 、
停 泊
沙 織
音 頭
人 力
軌 跡
成 瀬
自 我
on es
フ レンズ
菊 地
テク ニカル
建 武
村 域
ゼ ウス
増 資
彼 方
ベンジャ ミン
ゴ ート
日 時
両 面
感 銘
持 参
17 1
us e
vel op
M H
谷 村
ath er
Corpor ation
本 宮
自 律
シ リアル
ニ ッツ
同 書
武 帝
ノ ルト
鳥 栖
龍 馬
ナ ース
フェ ラ
S Q
も み
ミ ラン
っぽ ん
少な から
d ie
柳 生
神 官
ド ジャース
マ ダ
下 層
苦 しめ
退 去
ian a
共 学
校 章
築 く
木 戸
水 槽
ディー ラー
AM I
イ モ
万 能
享 年
兼 ねる
竹 中
iT unes
ケ ミ
絵 柄
耕 作
ラン ズ
国 定
ラ シア
国 文
海 防
お ろし
地 味
坂 東
女 児
広 範
そ く
公 害
貰 っ
ディア ス
逃げ 出し
TO W
D er
ペ ダル
出 所
垂 れ
本 性
き 出し
レン ツ
リバ ウンド
キャ ッツ
モ フ
有 る
製 法
3 70
も る
鉄 鋼
尾 上
い な
サ ザ
官 吏
本 流
D em
ダ グ
ト ルー
ウ チ
冷 酷
試 練
太 い
妥 当
星 雲
ファ ニー
A f
練 り
古 事
でき れ
果た せ
セレ クト
ファル コン
カ ース
北 道
音 節
サン ゴ
ピク チャーズ
レディ ース
ガル シア
蒲 田
E ar
寄 席
サ ニー
ハ ビ
商 法
度 重なる
残 党
ライプ ツィヒ
L ine
ウズベ キスタン
半 減
いち 早く
ヨル ダン
税 務
見 立て
om en
MA G
高 台
Gen eral
・ ク
囚 われ
武 官
F er
銚 子
ロー テーション
ネク スト
飛 翔
パー ソン
Le g
ふさわ しい
啓 蒙
懇 願
配 し
目の 当たり
H ERO
ス ナック
ひ みつ
ド リンク
客 船
ov a
つ ぐ
しゅ ん
北 原
わざ と
ベ ツ
ter s
休 戦
ボ ロー
刈 り
法 典
アン ジェ
オン タリオ
ナチュ ラル
つく っ
Mus e
災 い
ガ ッツ
倒 壊
キュ リー
水 原
ファイ アー
建 つ
慈 善
足 ら
勃 起
水 銀
リン ピック
下 表
誌 上
ライ カ
数 える
に し
召 し
因 む
宣 戦
話し 合い
優 し
av en
誠 実
it er
l ight
灌 漑
フェ スタ
ハイ ド
セル ゲイ
80 1
し げる
ニ チ
没 落
サ タン
レンジャー ズ
Gre en
優 駿
国 歌
赤 く
in ess
レイ プ
AN B
卸 売
背 負っ
虚 偽
金 持ち
" 、
好 奇
植 木
左 京
毛 皮
網 走
ワーク ショップ
在 庫
ハン セン
赤 羽
クラ テス
BO YS
S ide
十 和田
カー ボン
地 価
揖 斐
健 在
選 任
風 刺
18 46
さ る
株 価
アイ ド
B us
B ay
E conom
了 承
かぶ っ
ステア リング
G G
ミ ント
譲 る
繰り 上げ
梗 塞
混 血
ジョ シュ
前 編
渡 部
王 政
土 日
慣 例
振り 返っ
太 一
ツィ オ
エ ボ
分 担
挙 兵
譲 受
風 味
U RE
安 達
矯 正
ライ ザー
つい で
Colle ge
G ar
リ リ
類 型
あす か
POW ER
仮 設
id s
同 族
命 じる
増 す
ジェ ファーソン
ウェル ズ
バレ ル
M ov
博 文
教 職員
世 俗
役 立つ
王 権
イ ヴァン
鋼 製
ラン チ
j e
執 着
水 質
D ec
H R
ST R
マ ウ
匿 名
合 間
園 内
聴 覚
ピ ストル
列 挙
貸 出
はじ まり
ニャ ー
発 効
ヘル ツェ
ロ キ
森 下
スター リング
リ リー
一 座
後 醍醐
桜 花
決 心
コック ピット
v in
ワ ッ
キャピ タル
アッ シリア
ネイ ティブ
Ke y
R esearch
ガ チャ
同 好
年 限
ひ ばり
戦 勝
バス ケ
R KB
ア ウェー
ス ライダー
ニ ・
豆 腐
ジェ ー
Con t
行 え
桃 子
福 原
秋 月
相 方
立 山
げ き
幼 なじみ
新 道
農 産
つ ん
シ ズ
殺 到
プライ ス
こ ち
初 年
嫡 子
or ies
c ess
撃 っ
O x
ライ ヒ
V T
コ マン
未 定
サラ ブレッド
AY A
Instit ute
茶 の
end o
V is
格 付け
見 出さ
電 荷
取り 込ま
アテ ナイ
プエルト リコ
L U
キ ール
けれ ど
ツィ オーネ
K r
シ シ
導 か
探 る
葛 西
蒲 生
誓 っ
IS U
レジ スタンス
小 谷
ボ エ
アラ バマ
ルン ベルク
特 訓
リ ッド
大 倉
g re
ア ドル
ウェ ポン
P D
冷 蔵
同 化
早 世
裁 定
マ ーン
生 計
スマ ッシュ
A re
ァ ー
洗 練
ト カゲ
安 保
慰 霊
戦 列
被 爆
費 やし
v is
本 科
跳 び
鶴 田
マグ マ
中 居
榊 原
高 騰
セー フ
ん 坊
マ ナー
神 輿
ガリ シア
R u
林 業
キング ダム
オアシ ス
こ もり
エ フェクト
奥 義
監 察
Is land
辞 し
モン キー
ム ック
ロ ーム
マグ ネ
おこ なう
ギ ネス
ダ ナ
ダ コタ
正 則
てれ び
ウ インド
ud io
君 臨
音 速
B on
中 流
暗 躍
ボ ンド
千 種
直 行
相 場
] (
18 20
And re
誤 差
難 い
桜 木
纏 っ
ラル フ
バ ング
専 業
Champion ship
出 仕
熱 中
賭 博
Gu itar
し な
賢 治
降 っ
レプ リカ
SUMM ER
ら わ
蒲 原
l ove
ハ ント
凶 暴
平 戸
ビー ズ
まど か
t rans
シ ンド
聴 き
ルー カス
GIR LS
コ ルト
タ ブル
ビ ザン
水 沢
登 る
J ack
綺 麗
プロ ン
ツェ ル
地 層
小 数
サ シ
三 和
外 す
17 9
ワイ ヤ
H al
や つ
競 り
CH I
T ak
が す
ド バイ
残 骸
電 器
ブレイ ド
ナ カ
不 祥
匂 い
モ ・
Re ference
D ou
奉 公
黒 部
ば やし
20 9
EX ILE
驚 か
劉 備
荒 野
フラン コ
St ore
酔 っ
と び
永 正
祭 壇
ひろ み
世 の中
字 体
服 用
カン ヌ
グレ ッ
貫 く
トン プソン
ッ ケ
商 社
必 然
消 極
デー モン
十 勝
神 山
豊 中
美 作
角 田
郷 里
バー ツ
び れ
ク シ
極 秘
様 相
ミ ト
33 3
ぶ き
ダ ント
内 面
モノ クロ
ぼ れ
セ イン
別 当
捕 え
しょ く
UT C
コーディ ネ
尽く す
チュー ド
大 麻
on der
et te
パス ポート
デ フォルト
ダイナミ ック
キン ソン
催 し
前 向き
祭 礼
とき めき
ナン デス
明日 香
すみ れ
S KE
ソ マリア
例 え
油 圧
終 日
軟 式
車 軸
ラン ディ
東 岸
17 4
捕 まえ
島 村
撮 っ
ステ ート
ニュ ルンベルク
C AP
翌 朝
細 く
ッツ ォ
抱 か
殺 そう
いわ ば
彫 り
義 父
om o
発 熱
転 出
久 喜
百 姓
田 畑
取り 上げる
下 町
採 り
ベン ツ
勝 山
未 熟
リヴァ プール
物 品
産 ん
阿 武
ギル バート
カスティー リャ
リ サイクル
ジェ ス
アニメ ーター
安 曇
藩 政
取り 扱っ
アル カリ
受け 止め
ロック ン
フュー チャー
小 国
明 王
ガ ルド
異 議
窃 盗
とう きょう
グレゴ リオ
サ プライズ
激 闘
リベ ラル
W R
む つ
名 字
怪 力
アタ ッチ
伐 採
委 ね
滅 ぼさ
c er
ス イング
マ ト
河 村
無 力
石 見
クリ フ
西園 寺
エ タ
バ ント
栄 町
コント ローラ
目 前
随 筆
バ トン
縦 断
ファ スト
チュー ナー
ボリ ビア
ド ックス
頓 挫
クー ペ
ミッド ナイト
支 庁
行 程
添 付
赤 ん坊
コロ コロ
ヴァン パイア
エス パー
吉祥 寺
а р
ob e
平 城
蒸 発
ば く
書き 込み
A H
よ かっ
濃 厚
肉 食
AT SU
ミ ゲル
仏 像
見 送ら
同 義
肥 満
レ ガ
タ ップ
正 徳
ブラ ス
グリ ム
つば さ
入 省
投 影
AR E
シル エット
0 80
尋 問
小 豆
山 県
ニ ヤ
帝 政
R ail
ぱ ん
割 譲
漁 船
one y
下ろ す
18 4
ティ カル
コン シン
スクー プ
P i
プ タ
口 腔
野 郎
18 15
18 47
之 内
秒 間
面 識
内 村
千 穂
引き 出し
生き 物
宮 島
ミラー ジュ
インテ リ
団 結
文 春
大 家
志 野
手 持ち
釜 石
に っぽん
下 る
海 南
ウィ ズ
上 告
大 仏
St ory
カロ リー
浴び る
ウ イス
ograph y
ブダ ペスト
華 族
ID S
上り 線
子 宮
相 関
濃 く
酒 田
松 坂
榴 弾
AR I
久 慈
八 雲
ツ ン
レ ノン
京 橋
掛 川
L o
V C
m en
壱 岐
躍 進
伸 ばす
エ リカ
収 縮
来 訪
正 午
狭 間
開 票
ヶ 岳
表 せる
黒 く
スク ランブル
叶 わ
盗 ま
ブラン デンブルク
ア レス
直 下
都 城
ジョ ヴァン
Pr of
T AL
W AY
終 末
クト ゥ
リミ テッド
b ps
回 生
18 43
フィ ッツ
懸 命
高 値
タ ブレット
半 期
綾 瀬
タイ ト
G PS
省 庁
言い 渡さ
NC ID
r el
公 主
恵 那
走 ら
S he
岸 田
馬 主
名 曲
アーム ストロング
ウエ スタン
カエ サル
アタッチ メント
オ タ
仙 人
チャ ール
に い
放 題
江 口
人 衆
気 質
受け 付け
M AS
テ ツ
富 裕
新 車
毎 時
ゆう き
拾 っ
死 因
財 界
il ity
イ ワ
苦 しむ
ウィス コンシン
オ ニ
二 階
狂 気
アイ デン
ビ クトリア
洋 楽
スピー チ
4 90
b ar
主 君
内 地
叙 せ
ü n
滅 び
農 耕
クラ ウス
) "
接 種
-』 (
平 壌
真 ん
躊 躇
バル ディア
検 知
覆 い
取り 込ん
デュー ク
英 米
岸 和田
桟 橋
育 児
請 負
長 江
CH O
中 尾
独 断
ユー モア
近 傍
エド ガー
い とこ
ア リスト
エ ヴァ
簡 略
30 3
デスク トップ
寒 冷
ビル ド
スティ ール
ル ソン
邪 悪
サン ズ
かわ い
下り 線
せ っ
18 45
取り 壊さ
Q ue
伝 播
亡く なり
静 脈
エレクト ロ
こ む
C amp
或 いは
柳 田
ティ コ
順 子
握 手
老 中
騎 馬
H and
キ ウス
ク サ
卓 越
平 衡
配 線
ra ft
キャン ディ
バラ バラ
中 途
地 頭
特 製
連 打
飽 和
ボー カリスト
ag ram
em ber
小 名
スタン フォード
頭 蓋
メトロ ポリタン
託 さ
長 井
キャ リー
R un
ほ し
み か
デ シュ
ピ ョ
レジ スタ
ネ ント
人 魚
さ ほど
グ モ
ロー ナ
G et
が かっ
令 嬢
気 付か
溢 れ
軍 部
18 44
アイ ディア
ou d
かわ いい
え び
ク ラー
孫 子
と に
市 町村
甚 大
鴨 川
ロ イス
恐 らく
恩 恵
戦 わ
oun t
神 事
St age
S B
破 滅
整 っ
ティ カ
F un
エ ドゥ
氾 濫
目 さ
真ん 中
L ong
主 軸
w ell
救 難
柳 川
しの ぶ
m it
体 勢
ジェネ レーション
J an
傷 害
傷 つけ
応 永
ロー リー
治 癒
自 発
ジュ エル
埴 輪
時 速
スペ クト
レ パート
サイ コロ
ピー チ
G ro
可 視
捧 げる
温 厚
ヘル シン
分 署
成 虫
E SP
創 価
哲 哉
貴 子
抜け 出し
制 動
大 雨
枢 機
本 間
脱 獄
苦 しい
持ち かけ
ズ ィ
体 積
須 藤
黒 沢
コ ップ
水 没
リー ディング
ジェラ ルド
angu age
W in
づ ける
創 元
参 詣
名 神
回 顧
産 む
カル ボ
占 有
少 量
ハー プ
ムー ブ
キ ョ
バ ラン
ポ テン
下 士
壁 面
過 度
23 5
テ トラ
単 装
機 首
泳 ぎ
言 論
高 井
エ コー
規 律
風 習
WW F
コ バ
勘 定
寄 宿
日 田
マン ダ
ダイ エット
S at
s ide
亜 鉛
持ち 込み
別 所
ハン プ
ヘルツェ ゴ
パ ネ
正 人
山 王
m ag
家 出
とに かく
2 12
故 人
面 影
リン チ
ホイ ット
ゲ キ
ヒ ド
今 村
IC S
ア スキー
根 室
滑 らか
至 近
コ ルド
18 32
アン プ
メン ス
ネ バダ
値 段
存 命
尊 氏
旧 約
裏 腹
シン シナ
7 37
・ アル
村 井
立 像
アーノ ルド
k Hz
方 位
議 院
29 0
エレクトロニ クス
安 い
魔 獣
フィー チャー
高 官
乗り 入れる
そ ちら
事 柄
感 度
旦 那
緯 度
農 協
偽 造
レ ギ
パラ リンピック
企 て
官 庁
欠 い
猪 木
M ill
呼 応
執 拗
心 地
治 め
防 具
マキ ノ
ゴ ヤ
タイ タン
フラ ツィオーネ
おも しろ
払 わ
残 酷
カスタ マイズ
ist a
A ug
ス プリ
辰 巳
20 22
キャ ブ
30 2
R ay
直 訳
転 任
id ent
s a
城 郭
居 留
謀 反
軍 令
ist r
凶 悪
勤 労
ネ フ
囃 子
安 城
ヌ イ
トレー ラー
レコー ズ
En gl
積 雪
打ち 切ら
ミステ リ
ヨ ット
六 甲
溶 液
余 地
D oc
三 枝
気 仙
ケ ラ
オオ カミ
レパート リー
廊 下
絶 縁
き た
モ チ
sp ort
州 間
板 垣
ウ ミ
Ver lag
T u
ゲ ラ
独 り
病 床
葛 城
ナ リー
コレ クター
ウィキ ペディア
K AN
エ ニ
ロ ニア
ob al
沢 村
遊 牧
de d
フ レンチ
反 復
悪 夢
所 定
ロドリ ゲス
ソ ム
残 虐
付 さ
揃 い
浜 崎
ウ ソ
松 崎
繊 細
見 なし
送り 出し
H or
n m
い のち
だ る
マ インド
女 房
野 原
18 41
Ro ad
テイル ズ
ri b
イ スタン
粉 砕
18 37
マディ ソン
枢 密
グラフィ ックス
el le
T B
南 緯
平 氏
拓 也
誤 認
18 42
分 隊
志 郎
ター ナー
リアー ズ
g g
飯 島
よ ん
伝 授
水 車
悩 む
置 県
ET C
ヒ デ
二 男
悪 人
掴 み
ヒ スパ
ou ch
ハー ブ
K DDI
グ アム
改 番
歌 集
退 位
カ チ
届 出
給 水
マッカー サー
白 く
L aw
ハ シ
ット ガルト
BO Y
180 6
c ap
島 々
手 形
25 3
持ち 合わせ
id er
セ ージ
下 宿
un der
グレ ッグ
読み 切り
三 輪
難 航
ア ステ
リ ソース
因 果
所 収
飢 饉
uk i
党 内
茶 道
カル テ
g an
提 訴
過 失
ベ オ
デザ ート
ひ っ
ふ そう
ストライ カー
ゴ マ
サンプ リング
は ま
真 一
銅 像
ヤン キー
Batt le
ヒ ョン
帯 域
晦 日
拝 殿
画 期
離 島
マク ラー
Ze pp
D M
き れい
ル ル
東 国
Ex press
瀬 川
故 意
こう じ
ナ シ
三 越
伝 染
国 名
寄 港
取り 出し
メソ ッド
大 牟田
退 院
a ft
勇 敢
宿 場
挙 句
白 馬
祝 う
身 柄
アー バン
林 家
江 原
著 述
カ タール
堀 田
やっ と
Pr inc
V ocal
あ べ
魔 道
披露 目
参 列
山 上
Net work
ユー ズ
リ ョウ
or o
快 楽
法 規
術 師
バーン ズ
ハノー ファー
パー プル
40 1
A cc
法 師
G RO
ひ ょ
キ プロス
ic le
プラット ホーム
リ ョ
敏 感
ペ イント
以 東
市 外
延 岡
掴 ん
EC E
成り 立つ
L ast
ク ルス
・ パ
内 山
変 革
念 願
チャイ ナ
C AL
и н
ユ ル
減 り
三 鷹
安 部
東 横
津 子
n ess
ポー タル
M aster
キ レ
om b
まち づくり
ツイ ッター
海 浜
群 島
Ar c
x y
B ell
車 輛
カタ カナ
s ec
ユー ラシア
hy dro
ノ 島
代 金
延 宝
復 員
スト レ
きっ ぷ
ゆ か
通 例
ブ カ
苦 痛
ib le
ハー レム
ホー フ
ホ ステル
um p
ニ ェ
斬 る
消 去
30 6
iv es
Ch ar
ラバ ウル
ナ ダ
同 線
サー ベル
N DL
追い 込ん
見つ から
W F
戸 惑
親 密
あ ま
ラファ エル
履 行
数 量
破 裂
許 す
Child ren
ニ クル
之 島
実 物
ター ニュ
ディ スト
Mi G
丸 い
局 面
敗 走
サン リオ
L Y
R el
・ バ
争 わ
湖 南
加 担
実 効
打 球
海 抜
紫 外
魚 沼
め っ
J UN
ソ ーン
税 金
試 行
同 定
宴 会
給 料
金 賞
震 源
出 征
吹 く
西 原
香 織
騙 さ
ST UD
鮮 やか
カー ナ
ア ロン
刻 印
哲 郎
拳 法
羽 目
じゃ ん
レ ベ
募 金
御 堂
橋 上
環 礁
ディ ッシュ
宗 派
コン ティ
ユニバー ス
m ol
ミ ミ
贈 っ
at us
いち ばん
スチュ ワート
B RE
K h
反 感
生 後
シャ ク
経 典
仲 裁
性 交
立ち 向かう
Th is
金田 一
IS A
低 速
新 製
製 鋼
メディ カル
あず さ
嗜 好
快 く
成 形
街 路
追い 詰める
Le ague
リ ニア
多 野
大 槻
登 用
遠 野
密 集
精 鋭
リー タ
フォン ・
クロス オーバー
Bab y
テ ッ
18 36
統 率
ニュー ズ
á n
ご ざい
スタ ック
CO MP
イエ ズス
て き
メ ラン
ノ ワ
限 る
チュー ニング
アクセ サリー
C AS
F ly
包 み
気 付き
コンポー ネント
は た
野 手
そ び
独 奏
cy cl
シ スター
ス ミ
幸 運
末 尾
18 39
チェル シー
F in
バ リング
病 棟
良 子
リ ハー
即 ち
物 価
チャー チル
ペ プチ
森 川
美 貌
計 上
カー テン
H DD
組み 合わせる
く ぼ
失 望
願 う
アル ス
サン ライズ
ケン カ
同 位
民 生
ik i
聞こ える
エ ミー
大 祭
材 質
射 出
張 ら
速 やか
H APP
m ac
ネ ジ
視 線
謙 信
モロ コシ
i ent
圧 勝
花 子
持ち 上げ
あさ ひ
コ ペン
パ ・リーグ
孵 化
ジャ ル
支払 っ
シュトゥ ットガルト
B P
al a
eb all
目 次
ペル シャ
D own
送 付
麻 美
んど ん
フリー ランス
シュトラ ウス
コン コース
K ar
L V
れ れ
ス コー
検 閲
矢 島
褒 め
重 度
セー ヌ
リ ガ
カッ コ
I l
S ING
グラ ブ
同 郷
クラ ラ
ノ ワール
修 繕
死 な
由 利
ロー タス
ポ イ
竜 巻
バー バラ
エディ ン
コソ ボ
藤 枝
長 屋
ag o
間 柄
Abema TV
F K
S oc
岩 本
St ate
掛け 声
パル マ
し つ
台 中
植 田
う め
び ょう
パ プ
交 替
東 野
ズ レ
自 粛
頭 角
ソ フ
団 員
森 永
ー ラ
丹 羽
町 民
竹 下
逓 信
H ello
上 人
間 近
コン ソール
ブエ ノス
名 阪
陽 気
よ ら
光 秀
尼 子
アイ レス
三 宮
弁 天
日 置
シュ ガー
マラ ヤ
t ime
贈 呈
n i
梶 原
ア ントン
全 仏
隠 蔽
丸 の内
叩 く
志 す
頼 む
アイ ゼン
le g
カート リッジ
u de
レ トロ
下 さい
欲 求
切り 裂
ロ ース
工 具
誘 う
18 14
19 1
補 修
委 嘱
当 り
異 星
有楽 町
モ ットー
守 山
年 数
マグ ニ
Serv ice
リハー サル
Mo on
u z
風 力
はじ める
ペ ガ
レ スター
大 柄
g et
ミッ チェル
マリーン ズ
き く
原 町
サウス カロライナ
マネージ メント
ク ア
ニ ヒ
加 害
眺 め
純 一
強 襲
メ グ
17 89
GIR L
G ames
官 邸
捕 まっ
UF J
G AR
ジ ングル
春 風
サイ ユ
磁 器
鍵 盤
p a
ージ ョ
形 質
画 素
使 役
傾 倒
止 まる
芝 生
48 6
エ レン
出 入口
in es
J ac
ソ ノ
川 辺
溜 め
ナン シャル
ウイ グル
ヘルシン キ
J B
サ プリ
ラ ズ
吸 気
親 しみ
クォ ーター
ハ ニ
頻 発
ダイ バー
名 取
大 英
純 子
US E
二階 堂
増 援
脊 髄
鉄 人
B LE
組み 込ん
PR IDE
彩 色
本 陣
コ リンズ
入 港
スト ゥ
ヴィ ング
トリ ビュート
V e
f ield
おお さか
大 隅
祀 っ
黄 門
戦 功
新 鮮
は だ
イスタン ブール
S Y
i ra
ハ レ
四 谷
諸 葛
取り 付ける
ブラ ル
スピ リット
) ;
横 手
阿 賀
保 ち
先 手
商 科
従 者
止 まら
P ost
ノ サウルス
北 島
多 忙
ハロ ルド
ア ツ
NDL JP
補 習
誘 っ
プリ ズム
ヘ キサ
マ ギ
大 帝
皐 月
粉 末
t or
機 長
ほ の
ス レッド
取 扱い
浦 安
下北 沢
収 支
巻 末
機 内
退 き
30 5
内 訳
致 死
ゴリ ラ
パ ウンド
騙 し
18 35
フランチェ スコ
G ard
ガ ング
蕎 麦
DD T
Engl ish
ゲ ール
リ ケ
死 闘
刀 剣
27 5
シン ク
ペ レ
Amer ica
M en
切 符
キャ バ
ウイス キー
式 内
シャー シ
申し 入れ
サ ヴォ
ベイ ビー
ス ギ
ノ イド
二 条
大 腸
宗 像
幻 覚
死 別
童 謡
軍 政
at ing
7 47
ぶ つけ
秘 宝
ベル グ
ユー リ
リ チウム
先 立っ
文 科
東 大阪
申し 立て
同 情
とも さ
ニッ ケル
M edia
ナ ルト
土 方
CO UN
De ut
原 油
栗 田
恐ろ しい
シンシナ ティ
G od
18 12
チャ ーター
抑 圧
日 出
4 20
オ ヤ
ハ ジ
水 溶
足 跡
須 磨
負け 越し
ウォー レン
オリ ニスト
ヘルツェゴ ビナ
き し
と なり
内 心
螺 旋
st ein
G Y
前 任
土 産
変 電
渋 川
フラ グ
c ent
ル リ
千 尋
塩 田
AR Y
放 り
ニア ム
ST V
び と
ザ メ
日 の
23 1
ペ イン
なか よし
é r
変 奏
熟 練
ペ ーター
予 科
亜 目
側 線
スタ ッド
結び つい
ナック ル
ヤ ギ
国 教
城 東
幻 影
良 し
if t
M K
か め
受 理
気 流
覆 っ
ツ ジ
F ut
л а
戊 辰
生 む
トラ スト
フロ ート
浴び せ
劣 勢
敷 か
沢 東
片 道
矢 作
レイ ズ
恵 美
談 話
プリ メー
罷 免
FI A
Colle ction
怪 奇
ドレス デン
ゲ ッター
ル ック
便 所
ハ ピ
パ ーム
一 向
" 」
林 道
辛 い
な だ
原 典
書 誌
着 色
アバ ター
素 性
落ち 込ん
9 50
光 る
D ata
常 用
明 子
ハ ング
オペ レーション
FO X
インデ ックス
清 原
聖 徳
透 過
ラッ パー
R F
旧 名
襲 いか
越 す
プラ イン
Ber lin
ア ベン
ネ ッツ
重 心
ir d
ダイナ マイト
M ach
v ir
忠 臣
ア クロ
リ ビング
引き 渡さ
マク シミ
モ ク
政 友
奪 回
が たい
k en
井 原
隆 起
書き 換え
PG A
SK Y
マ チ
モ ニア
コペン ハーゲン
長 髪
館 山
切 腹
ンド ル
ベン ダー
C ore
リ マスター
式 部
正 宗
褒 章
説 く
カブ ト
ロ ッカー
野 川
隠 岐
st ru
引き 連れ
被 弾
アジ ト
軍 務
私 有
マクラー レン
デ ット
ト リス
完 備
取り 消し
引き 取っ
球 体
謹 慎
シ エラ
本 艦
誘 発
マー レ
逢 い
プロ ポーズ
クロ ロ
ポ タ
架 線
ゲーム ズ
とど まり
つ かさ
ね ずみ
ぽ う
拒 ん
新 版
フェ ミニ
カ ライズ
太 朗
藤 堂
T a
総 武
年 内
廃 し
悟 り
手 腕
改 易
美 和
88 00
180 1
テ リ
若 宮
踊 っ
違 和
he mat
化 身
思 惑
キロ ワット
az z
Roy al
合 祀
足 場
切り 替える
馴染 み
加 減
機 嫌
23 3
置き 換える
R ac
一 杯
グラ ハム
三 笠
俊 彦
困 惑
老 い
ちん と
脅 し
おい しい
返 答
ラッ ピング
ツ ボ
四 肢
旧 式
線 維
被 り
遷 移
遺 し
シャ ア
当て は
M id
顔 立ち
シェ ーン
Z IP
山 西
チン ギス
u ter
山 林
進 駐
Publ ic
び わ
ル ミ
身 延
わ う
オ キシ
塩 素
聖 歌
ジ スト
啓 発
th or
St ates
クリ エーション
スル タン
E very
J K
や ろう
打 線
綾 子
サン ケイ
ラト ビア
ボ リス
川 沿い
ぶ れ
安 堵
ホル ダー
tr ol
M ID
無 敗
カリ キュ
R B
ニ トロ
先 立ち
福 建
取り 締
ヒドロ キシ
グ ライダー
ペ ロ
叫 ん
急 逝
本 誌
着 想
中津 川
井 川
施 す
癒 し
イブ ニング
V ict
勝 田
総 局
コミ カル
スラ フ
セ オ
意 地
モン ゴ
qu es
オナ ニー
ブエノス アイレス
セ ッ
レイ ド
スク リュー
F oot
シ ダ
座 敷
愛 車
白 書
ルー シー
180 3
S on
一 朗
上 智
前 川
まさ か
分 室
花 序
一人 娘
メカ ニック
み なす
傀 儡
諸 語
Q B
煉 瓦
高 円
不 定
悪 霊
H MS
t w
ひ だ
随 所
do i
加 増
風 邪
シン ジ
アミューズ メント
携 行
構 図
由 良
クロ ニクル
バン パー
かい どう
A ust
お れ
登 っ
追 贈
n ing
在 り
外 壁
訳 語
レオ ナルド
全 焼
国 税
結 集
ひど く
充 填
小 僧
鉄 拳
浙 江
プロ パ
PM ID
メ タン
ロ ザ
e y
東 欧
貫 い
各 部
推 挙
現 す
稼 ぐ
エディン バラ
宮 原
ジャ ッジ
ア トレ
ケ プラー
弾 い
現 世
黒 海
ファイ バー
sp ec
R os
ビル ディング
マル セイ
書 体
関 白
ディ ストリ
ちゃん と
ブレイ ブ
ノウ ハウ
B all
ブル ターニュ
Muse um
グ ロス
ロ フト
侵 食
ジュ リアン
ザン ヌ
再 演
産 生
筑 前
長 大
リカ ン
IS H
グ リン
リ セット
ニュ ート
わが まま
PI ECE
ワー グナー
公 方
雇 っ
スト ーカー
チャ ク
会津 若松
L ov
捉 える
放 た
水 軍
ラ ミ
学 説
札 所
き ちんと
着 地
終 身
ノー マン
飛び 降り
大 晦日
テ ・
返 却
ティ ヴ
ジョ ーク
キ ョー
感 知
連 なる
パラ レル
文 人
朝 刊
STY LE
ボ ギー
倉 田
六 十
正 史
直 子
精 通
谷 山
18 31
ベイ カー
ヒュー ズ
エスカ レーター
L C
戦 況
Enter tain
取 水
平 民
脇 役
迫 撃
重 症
7 57
ヒ コ
一 途
井 口
持 て
g in
リ ド
ヴァ レ
S witch
y u
ピ ザ
ヘ アー
ト ト
リ バース
丸 亀
内 乱
L v
か おる
パ ウル
新 選
続 出
習 志野
ヴァン ス
our ce
アレクサンド リア
Cam bridge
低 かっ
武 雄
脚 部
ジン ガー
ガン マ
Hen ry
安 く
沈 着
生 える
貸 与
25 2
レス キュー
ラグ ナ
が える
散 乱
クワ ガタ
症 例
知 覚
血 球
高 津
多 量
av ex
円 錐
従 前
es h
24 6
チェ ー
テン プル
クルー ザー
スネ ーク
ド ーン
ハ ス
偏 見
前 座
フー ズ
ash i
Bas eball
S OL
参 院
床 下
浩 一
com e
系 外
バー ナード
分 譲
参 与
減 る
ぽ ん
ネ ・
悪 事
トラ ム
すず き
部 局
ac he
um b
エ イド
ou l
カート ニー
ま くり
バ ブ
如 何
富 ん
理 恵
禁 煙
ア ストラ
誓 う
テン ダー
IN K
とん ねる
擬 似
本 庁
縦 貫
取り 込み
りん ご
転 覆
カプ コン
バー クレー
k in
再 起
アル デ
ガン バ
ゴル ファー
ダイヤ ル
かす み
ファル ツ
づ か
ア ニー
合 致
曾 孫
県 境
里 奈
18 33
テル ン
アラ ゴン
チョ フ
22 3
s en
コ ジ
光 年
雅 子
フェ アリー
R h
ブ リスト
助 力
取り やめ
有 吉
白 黒
禁 断
膨 ら
製 剤
プロ ット
さら ば
ニング ラード
操 車
賞 品
リー ク
ま ゆ
動 輪
課 金
ヴォ ン
ゲイ リー
港 町
ブル ーム
フォー カス
態 勢
齋 藤
el y
侮 辱
和 尚
本 営
真 澄
ゴー ニュ
か ぜ
下 山
臨 済
キュ ウ
HI RO
入 城
直 系
持ち 出し
鳴き 声
P y
カ ナル
ス ライ
俊 介
別 称
利 害
ボスニア ・
HAPP Y
あ がっ
ポ ッ
習 っ
G AME
前 輪
静 香
べ つ
なん ば
7 20
ダイ ム
キル ヒ
ゴ ア
実 兄
閉 山
ボスニア・ ヘルツェゴビナ
モ ネ
ウ ルス
安 房
探 求
. ;
心 中
ダ リ
18 18
18 38
タ ジ
化 成
晒 さ
UN IX
新 進
見つ かり
目論 む
カリキュ ラム
ラ ッド
山 岡
松 任
父 方
18 10
酔 い
船 内
ス プレー
楽 しく
ドー ピング
弾き 語り
ハ ネ
恭 子
MO OD
レズ ビアン
カー ジナル
井 田
欠 かせ
欲 し
チャー チ
エア バス
オペ レーター
停 電
孫 娘
ウィ ルス
サル バ
敵 機
パー ズ
クト ン
ラ プ
偶 数
燃 える
理 子
18 21
巡 業
民 政
茂 木
и к
お しゃ
ブ ロッ
c us
き よし
ド ム
メ ビウス
Or ig
A ST
カ イン
俳 人
応 急
日 月
B ad
但 馬
本 曲
サラ ダ
エリオ ット
デ モン
大 軍
っ たり
バ シー
シン ポジ
マイ スター
イ サ
気 配
ファ ステ
ブラ ジ
D H
ノ ベ
バ プ
ポ プラ
リ ベン
南 洋
図 形
空 い
読み 上げ
ブレー メン
Ser ies
Fri end
b ack
v ers
両 用
居 候
散 布
ア ーン
踏 む
フォ ロー
ガ ト
s o
嘱 託
書 状
痴 漢
ik a
トウ モロコシ
KE Y
ひた すら
ジョヴァン ニ
h ist
ド ナウ
商 務
園 田
明 星
引き 渡し
MS X
u f
チュ ニ
特 科
um ber
南 岸
悪 性
ing ton
C ur
S AT
パー カ
ブル ゴーニュ
タ ブ
吉 宗
ロペ ス
岡 野
旺 盛
島 民
村 落
長 き
大和 田
I d
リモ ート
疫 病
振る わ
こん にち
Entertain ment
ふ と
役 柄
アー ロン
2 13
s ol
OR I
た こ
執 る
春 樹
沈 め
ICO CA
の ど
ー ナ
厳 重
実 母
ジョ イント
ビス マルク
キック ボクシング
ヴィー ナス
25 1
op le
クイ ック
D om
シ クロ
一 日
宗 谷
操 ら
埋 める
恩 師
Man ag
F ound
やり とり
R et
雨 宮
ハン ナ
ア セン
専 売
確 執
落 城
とんねる ず
M as
重 慶
カージナル ス
シンポジ ウム
ファステ スト
篠 山
紛 れ
ドラ キュラ
マル ス
チョ ー
クリ ム
ap e
巻き 込ん
オカ ルト
P ay
ガ マ
海 部
トロ イ
コンビ ネーション
2 15
ソ ユーズ
全 裸
呉 服
ルー レット
re c
トラン ジ
Re volution
ア ミン
シ テ
タ オル
沖 田
金 城
開 学
25 5
コント ローラー
が ね
ピ レ
困 窮
市 政
衆 院
美 樹
D rag
づ く
集 成
ギリ ギリ
フェルディナ ント
本 所
花 粉
序 列
溝 口
苦 情
雄 一
面 する
G DP
ダ ッ
ポ ポ
す く
み かん
備 後
ガイ モ
神 代
離 さ
アイド リング
ギ ム
遠 江
まか せ
と らえ
ジ ナ
懲 戒
被 疑
魅 了
25 4
会 戦
叩 い
実 名
ア ノ
シャ ール
マッ カートニー
w ood
北 岸
湯 沢
ライ ガー
ふ さ
動 植物
待 避
枯 れ
残 念
汚 職
牽 制
4 60
イ ッチ
ダ イン
宮 下
岩 槻
生 家
プラ モデル
振り 回さ
儒 学
勝 浦
士 気
流 路
真 人
軍 医
Ed ward
予 知
客 演
着 る
ランド ル
ジェ ニー
ソー ラー
ぶ ち
牛 肉
柔らか い
埋 立
惨 敗
名 手
病 弱
電 極
骨 髄
R AC
年 中
戦 没
斡 旋
テレ ス
済 ま
疾 病
神 名
純 情
長 嶋
願 望
呼び 出さ
社 民
コ ツ
湯 浅
腐 食
マイ オス
ur ing
スイー ツ
ゴール キーパー
コン ディ
おこ し
・ ザ・
対 艦
規 程
速 水
矢 田
とど まる
ダ マ
ステ ファン
切り 札
SE ED
J AS
M ur
づ らい
山 門
忠 告
ジェン ダー
シリ コン
マ フ
那 賀
シ チュ
七 瀬
かた わら
シ デント
タ ッ
白 金
ロー ザ
アダム ズ
つ ぎ
パ ント
18 28
ご はん
チ ックス
プレー ン
し あわせ
レ コ
予 め
動 け
悪 かっ
財 源
リ ズ
紙 面
ラウン ジ
3 90
プ ファルツ
保 た
浅 川
縛 り
イ デオ
江 津
福 亭
笑 福亭
サイク リング
射 精
新 約
細 分
サイ パン
結び つき
L TD
st ar
た なか
ヌ ール
転 勤
モン テネ
夜 叉
オース ティン
B AR
返 事
ライ ジング
SP E
マリア ナ
Lim ited
が たり
ウ タ
吾 郎
ac ter
ER ATION
h er
ワ ナ
カ オ
カ イル
戦 乱
投 降
相 生
作 ろう
優 れる
否 決
巨 体
希 子
技 量
脚 色
家 光
白 浜
イベ リア
An im
トレイ ル
バ ロ
島 嶼
H ill
県 営
要 衝
や け
Sm ith
井 伊
正 明
紅 茶
U nd
供 述
名 護
服 従
注 ぎ
鍋 島
高 浜
70 1
ハード ル
ネー デル
グレッ シブ
2 21
レ ミー
中 級
安 井
潰 さ
的 確
駐 日
De f
is ode
AN T
氷 川
ハ ウンド
フェン ダー
コンペ ティ
あ した
客 席
忍 法
関 門
もと より
服 役
Dig ital
モンテネ グロ
失 速
相 良
石 塚
カン タ
AT H
ふた たび
ペプチ ド
B ut
あ し
励 まし
軽 便
SO UND
不 変
大 館
診 察
靖 国
IG H
ク リン
恒 久
煙 草
. "
模 擬
ち ば
実 数
諫 早
ひど い
Fest ival
ゴ ウ
越 谷
ミ ート
弾 く
開 基
テレ サ
ステ ルス
it ch
大 まか
怒 る
d y
w in
ナ イス
師 管
ルイ ージ
ベ ネディ
叫 ぶ
日 替わり
裏 切っ
ネク タイ
ナ ショ
一 変
失 調
深 谷
th at
ホー リー
For ce
フ ロッ
終 止
高 杉
18 34
サン ・
気仙 沼
な でし
上 面
超 越
なでし こ
ヘ イズ
伊 吹
国 史
塚 本
館 長
ミ ノ
向 井
水 位
花 巻
藤 崎
オリ バー
プレ ッシャー
定 額
手 榴
S BS
W alk
洋 一
西 国
ラテン アメリカ
s m
リオ ス
ヒロ シ
昇 叙
遭 う
風 速
モン ロー
御殿 場
か しい
両 足
ポ ラ
稼 い
細 野
羽 毛
陸 戦
フリ ッツ
セ ・リーグ
桜 田
硬 い
酢 酸
ピ ロ
我 部
早 苗
父 母
異 形
細 か
芳 香
M TV
の く
仕 切り
民 進
磯 部
花 弁
思い 込ん
モ ニュ
懐 疑
チュー リッヒ
草 案
i ed
大 林
空 想
シュ タイ
ニュー イングランド
各務 原
M BC
主 観
共 立
台 枠
因 み
大 學
微 笑
クラ スター
ロッ キ
ポテン シャル
2 17
の け
美 学
N int
v iew
・ オ
不 通
検 挙
MOOD YZ
ど んどん
大 空
曳 航
小 早川
蔵 人
殴 ら
熟 女
表 れ
マ トリ
cin ema
コ ニー
拾 わ
農 薬
18 25
17 90
ギブ ソン
デ ック
右 足
コンプ リート
寛 容
湯 川
玲 子
サー ズ
フェ ー
ak u
j o
プ トレ
喋 り
ジョ アン
チャップ リン
の 毛
原 文
正 平
視 認
創 出
変 則
柳 沢
22 6
不二 雄
マクシミ リアン
欠 く
亀 裂
西 岡
ワー キング
HT ML
三 郷
要 職
ダル マ
スティ ス
ル ージュ
ン ス
Y OS
や み
念 仏
ジョ ウ
先 天
暗 闇
売り 場
いただ き
マルセイ ユ
ナ ット
数 理
隣 国
タイ ラー
振り 付け
サント ス
Nint endo
葛 藤
TH ER
77 7
り く
円 滑
就 き
能 代
転 戦
アフ ロ
貼 ら
アルフォン ソ
エ イベ
臆 病
首 謀
フレ ア
ott en
ミカ エル
履 い
ティ ックス
IN A
エク ストラ
カ イト
前 世
落 札
グラ フィー
Lou is
頭 痛
sc he
l or
不 意
坂 下
描 画
説 話
25 7
A k
S ub
す じ
す っ
ちゃ い
セク ハラ
NE S
ス ライム
から くり
ディ ラン
デラ ウェア
レ ボ
コント ラ
なお かつ
マグ ナム
PL AY
d oc
新 発
泊 地
管 領
メン ズ
スラ ッシュ
ザ キ
片 桐
プラ トン
DIS C
王 太子
石 神
on a
ヴィ オラ
V V
・ サ
大 理
キ ク
発 布
目 立た
マン ズ
K n
エ メラ
ブ ラント
南 陽
容 積
深 度
もの がたり
180 4
投 合
無 機
スマ ホ
春日 部
ば な
壬 生
岩 瀬
総 社
遺 骨
電 線
ファ ス
ブル グ
きっ と
台 南
光 沢
天 界
寄 る
常 駐
満 期
胎 児
設 楽
ダー ウィン
ニー ダー
aw ai
イノ ベーション
ホフ マン
B OR
名 高い
媒 介
ヴィ レッジ
ec k
ot s
л ь
ウ ニ
肩 書き
ジャ コ
de x
フュー ジョン
平 ら
教 訓
ブラ ザース
Sp ring
も め
ハ プ
蓄 え
見 捨て
ケ ッ
訃 報
カ ーク
カ ブス
文 武
済 む
ピュ ア
ド レ
星 団
華 やか
す っかり
烏 丸
続 投
英 訳
エー テル
f ect
座 り
アンド ロイド
ブリスト ル
清 国
無 実
足 し
ライ ツ
ステ ッド
5 40
イ イ
随 一
ティ マ
る る
女 将
嫌 気
頭 上
エイベ ックス
優 遇
ブル ズ
st e
こう えん
Ser ver
A O
冥 王
受 給
是 非
ジェ ニ
マー キュリー
v ille
公 然
士 族
綴 っ
キャ ス
o ther
甲 冑
サイ ヤ
ゲーム ス
ser v
パーカ ッション
安 楽
年 々
立ち 上げる
義 兄
COL LECTION
ジ ミ
抜 粋
購 買
Pl an
浅 田
17 93
パイ プライン
フォー レ
ブレ ヒト
C ir
不 服
欠 如
こと ごとく
ガー ナ
f ür
七 郎
大 滝
弓 道
船 首
観 賞
ドル フィン
セレ モニー
同 値
アン デル
アレクサンド ロス
ノルマン ディー
s um
倒 れる
屋 号
腎 臓
軍 備
阻 ま
コク ピット
ノ ヴ
新 年
30 4
re g
ジュネー ヴ
STUD IO
シチュ エーション
即 時
洋 上
駆 除
エレ キ
バング ラ
す ごく
ピ エロ
ネイ ション
上 官
境 遇
松 川
柏 崎
通 年
36 6
絵 巻
デン バー
号 し
ウォー キー
Publ ish
ダイ アナ
ファウ スト
フィ リーズ
Fran c
ア ヴェ
衝 動
説 き
スト リングス
ハイ チ
天 照
自 決
et er
IT S
ファミ 通
E G
低 床
油 田
火 葬
造 っ
オ チ
・ シュ
微 小
結 党
AD A
モニュ メント
B or
セレ ブ
アサ ルト
大 月
属 州
直 立
ま とっ
ニ ワ
渡 来
無 用
ウ ァ
会 堂
配 電
ミー ティング
お んな
人 的
譲 ら
B al
一 ノ
上 村
傲 慢
電 脳
イン フィニ
Aug ust
レ ヴィ
真 弓
穏 健
長 久
清 和
レイ テ
23 8
トリニ ティ
w ar
懸 賞
外 れる
江 蘇
ph a
ケ ニー
ボ ールド
佐 川
審 理
明 白
白 紙
賛 否
合わ さ
コメディ アン
ピョ ートル
フ ール
ロ ギー
溶 媒
潜 り
眠 れ
笠 間
乗り 込み
コンペティ ション
金 貨
レー ナ
カ ノ
多 角
沢 山
送 迎
スー ザン
Mart in
降 臨
フェリ ペ
放 水
湖 沼
痴 女
見 舞い
ヴァ レン
N V
ス プラ
漱 石
入れ 替わる
専 ら
菊 花
A W
削 り
離 散
ミル ウォーキー
E v
アロ マ
採 算
遠 州
d om
常 備
触 発
やさ しい
アイン シュタイン
分 水
心 筋
or ia
pl ay
コ サック
ボ ッ
何 事
変 種
赤 塚
ピ タ
大 日
ペン タ
送り 込ん
18 29
村 松
聴 衆
内 政
寺 島
暗 示
要 人
かか わる
2 14
備 わっ
ハイ ランド
応 える
改 心
ストリー ミング
T em
「 -
気 力
見 合い
G all
ク セ
敬 愛
武 芸
約 数
薨 去
中 嶋
屈 折
生 死
De velop
PART Y
み お
年 月
挫 折
髪 の毛
17 92
スズ メ
S ir
宇 多
滅 多
略 記
見 守る
W HO
取 組
小 金井
干 拓
パ シー
振 替
m ed
決 行
防 い
執り 行わ
口 論
旅 立ち
正 門
童 貞
およ ぶ
使い 分け
全 廃
前 漢
文 教
浄 水
瞬 時
g ra
じ けん
下 段
エ ーター
埋 蔵
ah n
新発 田
ど ろ
欠 損
18 24
Book s
A Z
包 ん
新 鋭
磨 き
贈 る
身 の
ア スタ
ブ ナ
売 場
太 く
楽 屋
Fri ed
ラ バー
課 さ
講 道
野 上
at ab
C as
キ ツネ
履 修
景 色
鹵 獲
ラー ジ
エ ティ
人 情
後 頭
秀 雄
豊 前
て っ
ゴ ロド
朝 夕
クロ ノ
Intern et
鳴 らし
ワー スト
マ チック
心 情
チェ イス
ツイン ズ
ワト ソン
受 諾
爆 風
吐 く
Fr om
メ ク
人 為
之 江
B ass
刺 す
さ み
オ ークス
モ ット
久 子
曲 がっ
飼 料
du ct
漢 方
ブラン チ
気づ く
ケロ ロ
の すけ
世 子
帝 位
戦 史
エメラ ルド
渥 美
創 世
対 人
欠 ける
鳴 海
ジェ ノ
トライ アングル
偽 り
プレイ ス
ナン シー
の っ
動 的
焼 く
サー ガ
アナ ザー
アイデン ティティ
あ み
国 司
幻 冬
球 技
行 軍
呼び 寄せ
Techn ology
エ ター
リベン ジ
イデオ ロギー
お の
や める
ア レイ
徳 永
l og
ソ クラテス
俗 称
レイ ラ
ヴァイ オリニスト
ment s
V EN
ギ ラ
国 債
連 日
入れ 替わり
トレー ディング
R D
ギ ョ
同 胞
留 める
なん か
パワ フル
ag es
WE ST
小 鳥
白 血
C Y
ん ぼ
イ ネ
千 島
リ タ
関 脇
陶 芸
鹿 屋
海老 名
あ あ
ac y
MO ON
マ ラー
帝 京
効 か
館 内
起こ ら
エグゼ クティブ
下 落
平 年
兵 隊
翔 太
ジャ ガイモ
ベル タ
オリエン タル
プ シー
ボ レー
高 城
ミニ チュア
引き 受ける
TR I
ソ ーム
変 光
嫁 い
製 鐵
チュニ ジア
鋭 く
ST ATION
とど まら
in ce
シュ ヴァル
B et
明 かす
m al
ロ レン
永 野
移 入
篠 田
要 約
課 せ
N i
可 汗
拾 い
自 重
舞 っ
蔓 延
錯 誤
L G
プ シ
一 同
満 塁
as y
ノ エル
リ キ
接 点
正 気
気 管
タン ゴ
ベネディ クト
手 作り
開 墾
シャ ドー
i ous
奮 戦
心 霊
発 火
頑 丈
ドキ ドキ
G a
ス ランプ
ヶ 島
偽 名
快 挙
足 柄
かえ って
セグ メント
敬 語
空 輸
マー カー
F ar
せ り
つ ら
外 傷
宮 津
旅 立つ
牡 丹
チャ ド
35 00
ate g
全 通
分 光
ウェ ート
23 2
ant e
ロックン ロール
神 仏
ガス カル
板 倉
祝 賀
Tr ack
S om
V P
オ キ
創 り
N PC
こ な
デル ・
トゥ ン
めざ まし
え ろ
姉 弟
マダ ガスカル
マ メ
両 替
プトレ マイオス
二 子
強 風
皇 太后
ジェ シー
E Z
ブ リーダー
庶 子
正 一
混 じっ
治 める
キ ヨ
Inst agram
併 記
再 録
技 研
漁 獲
18 16
伴 わ
市 議
絡 ん
解 い
シュー ズ
ビジ ター
ゲ ルス
S aint
ふ れる
装 束
青 龍
スト レーション
Mat hemat
ぶ さ
中 庭
自 軍
De ar
Sing le
L y
弘 化
高 位
こ り
サ トウ
ア プ
糾 弾
目論 ん
アー ネスト
SH O
N SC
レ ラ
親 指
ip s
iz e
z h
ロ ト
黒 字
ジェイ アール
ベオ グラード
マ ・
流 山
26 5
中継 ぎ
エミ リー
元 ネタ
刑 罰
レイ モンド
ギ フト
秀 忠
氷 室
蛋 白
雌 雄
蒸 し
記 入
オ ホー
棋 院
結 衣
た れ
み そ
セ シル
八 丈
半 蔵
南 宋
老 婆
試 料
龍 一
ヴァ イス
AT ER
t t
生 やし
装 っ
パイ ラ
立ち 入り
八 千代
列 強
包 丁
憎 しみ
文 言
ルイー ズ
グ ノー
ナ ート
溺 愛
ツイ ート
Pre m
未 完
橿 原
ショ ナー
Q UE
R uss
U r
g irl
コ ネク
位 階
混 沌
熟 成
除 名
多 治
Be aut
Des ign
一 式
封 建
カウン ティ
ピ ス
長 兄
ヴェ ール
ブレー ン
キラ キラ
D ANCE
L F
ヘ ム
完 売
居 合わせ
美 智子
id es
L og
合 図
プロ ード
殉 職
競 泳
ひ い
ネ ッカー
増 補
準 ずる
負 ける
高 裁
180 7
ハ ングル
雄 二
ニュー メキシコ
J ECT
宮 司
左 足
箕 面
op hy
Mar y
ο ς
コ キ
読 め
リス ボン
アン ズ
AN G
リヒ ャ
レ ディー
山 寺
it o
Pro t
公 約
まさ し
ヒ ョウ
下 賜
呈 する
花 見
邪 神
リッチ モンド
c ell
シ タン
個 室
渡 河
遠 方
小野 田
チ タン
案 件
マッ スル
180 8
エ スタ
ロ バーツ
教 職
模 範
un a
テ ックス
下 方
掃 討
跳 躍
HO T
オホー ツク
4 70
P ier
R V
ケ ガ
ル フィ
三 谷
倣 っ
原 住
木 田
神 保
スカイ ライン
ジェネ ラル
n on
操 っ
租 税
エク アドル
シ ウ
ド ッキング
栗 山
30 8
Sec ret
三 成
伽 藍
焼 酎
開 示
次 作
フォル クス
堪 能
5 20
i os
テ ッサ
元 就
ペガ サス
疾 風
精 子
高 見
18 13
c el
福 澤
調 味
足 首
酷 評
すぐ さま
アン ゴラ
ブル ボン
エア コン
やる 気
コンパ イル
é e
ヘ ラク
拓 郎
リハビリ テーション
W el
は ぎ
われ われ
明石 家
和 睦
武 漢
花 月
誠 一
クラ ゲ
ce pt
TE AM
ハンデ キャップ
ぶ た
ハ フ
M ir
シ タ
作 法
精 算
軍 管
ステ ロイド
プライ バシー
ボ トム
離 し
MA STER
KE I
スクラ ップ
サ ド
右 肩
放 電
キャ ロ
ブル ン
DAY S
Ox ford
S IG
小 夜
平 川
逸 脱
スク リット
問い 合わせ
new s
御 影
葉 月
メン フィス
い づ
勧 請
ヴァ リ
f un
狂 言
ty pe
バングラ デシュ
パ チ
擬 人
稚 内
isch en
チルド レン
パ ブ
曲 目
皇 位
繁 華
覇 権
サン スクリット
コース ター
c or
く さい
コ ノ
住 まい
Wor k
BAS IC
信 奉
鳳 凰
S AS
ロ ースター
慌 て
ネーデル ラント
イ ム
エ デン
大 根
没 頭
込 もう
26 3
激 励
航 法
クリス ティ
アッ プロード
о н
フ ク
フ ランドル
リ サイ
三 千
殺 戮
22 7
マスタ リング
ニ ース
小 宮
スタ ミナ
引き 下げ
u a
内 臓
桃 園
生 贄
スー パ
F ore
お び
リ ザー
件 数
40 9
ノー プル
まと まっ
見つ め
ガイド ブック
やむ なく
バ ズ
呆 れ
早 乙女
ジェ フリー
サン バ
Mag azine
坐 像
沈 み
空 冷
節 約
全 豪
メッ キ
ib a
キヤ ノン
深 める
ディ オン
ショ ッカー
シー ケン
ナ ゴヤ
中 里
参 り
挙 動
長 子
シグ マ
sy stem
ific ation
ド ジ
he d
ハイ デル
B ER
ハ ガキ
布 袋
温 室
ic es
シェ リー
押し 付け
V ita
わ き
サ ハラ
ロ ジャース
密 輸
速 球
P ON
X ML
ほ ろ
わ れる
大 金
護 国
隣 人
アー カン
BS D
ワー ゲン
ドロ シー
き ゃ
合 気
敢 え
見 本
z er
同 棲
名 鑑
左 近
ジュ ウ
トゥ ルー
N ov
優 良
崩 落
武 人
th ing
R ING
休 場
甲 殻
障 壁
スクリ プト
い り
南 山
新 婚
空 調
ファン ク
こっ そり
P ass
手 話
ウィ リー
Gl obal
包 装
和 風
燃 やし
財 宝
闘 う
if f
H am
南 国
宅 配
オー ボエ
び ら
コ モンズ
パ トリ
心 得
暗 く
3 11
み ん
ト バ
備 考
素 敵
レイ チェル
の 川
パ イン
相 鉄
西 線
オマ ージュ
ビ ト
刻 み
手 の
整 合
突 い
ア グリ
・ ダ
各 話
墨 田
大 邱
蒲 郡
チャ レンジャー
トン ボ
ジェイ ク
衣 料
コン パイラ
ブレ ンド
パラ グアイ
大 喜
座 長
材 木
う まい
リア リティ
ダン カン
み ょう
亜 紀
構 わ
産 み
露 天
パ タ
倉 吉
同 駅
呪 術
東 晋
行 幸
ク ズ
ゼ ラ
・ イン
上 山
ジー ナ
地 検
家 計
戻 ら
曲 面
有 望
N MB
ビュー ティ
B ALL
企 図
慕 う
詫 び
ch i
am in
ot a
っぽ く
エミ ール
フェ スト
Ad v
フェリ ックス
P ap
l ess
モ リー
噴 水
奥 村
美 浜
48 5
L B
W GP
サ ファ
瞑 想
15 90
48 9
当 人
構 文
シェ ヴィ
ガ バ
栄 一
音 質
ヘ レ
併 結
17 76
TY PE
四 股
地 底
漢 文
スター ダスト
IN O
RO OM
AG UE
アスレ チックス
J AL
リ ボ
大 系
硝 酸
17 91
ブルー ノ
京 畿
銀 貨
シャイ ニング
佳 子
笑 わ
ミン スター
久 世
K arl
元 亀
敦 子
果 樹
々 しく
挑 み
林 檎
無 口
直 美
防 火
AI L
め し
先 鋒
鋼 板
セン チュ
まっ すぐ
ア ネ
低 音
山 荘
比 奈
駅 員
ブリ ック
フィー バー
2 16
鎌 田
Os aka
D et
セ グン
ロ ナルド
拓 殖
5 30
叙 事
挙 がっ
生 時
サー ブ
引き 出す
バ リュ
会 期
暴 風
渤 海
龍 太郎
かわ し
M u
サ ティ
悲 惨
アーム ズ
Ge org
ご 飯
一 掃
遷 都
ハー バート
ハンプ シャー
ケ 谷
ド ロン
ソ ナー
孫 権
異 色
ショ パン
om a
左 目
サン ガ
エンタ テイメント
シ モ
伊 織
峡 谷
軍 服
買い 取り
F ort
背 部
トレ ント
ハリ ソン
アーカン ソー
ひ なた
命 題
奈 緒
復 古
it ies
どう ぶつ
s ing
セ ム
明 朝
耐 える
RA IN
S EN
たか はし
に ん
パ ニ
変 調
神 器
プリン ストン
ド ネ
フ スキー
京 セラ
刻 ん
西 北
ト ッド
国 技
西 軍
in f
佳 奈
溢 れる
絡 む
花 崗
パラ オ
ロ サ
大 口
異 変
衰 弱
長 所
れん 坊
体 裁
囲 ん
小 出
付け 加え
5 10
潮 流
要 所
PRO JECT
ロッキ ード
元 治
T AYA
l ife
歌 川
目 立ち
臼 杵
エル ・
タン パ
リヒャ ルト
ヤ ・
空 海
Sc ript
f ri
シ ウス
供 さ
海 王
電 位
60 1
手 元
採 点
ナン バリング
all cinema
断 定
暴 れん坊
網 羅
ch o
LE AGUE
セバス チャン
w er
シュ ール
スーパー マン
ap on
イング リッシュ
パブリ ッシング
贈り 物
esch icht
晋 三
St ad
ぷよ ぷよ
共 済
前 原
流 布
マイ ヤ
Int el
同 党
温 帯
降り る
スチュ アート
倍 率
大 通
帰 ら
映 っ
26 2
180 5
yn am
保 養
防 犯
ニン ジャ
きら ら
レ クリエーション
クレイ ジー
3 12
p os
僅 差
ロン バルディア
打ち 明け
AK U
Mar ia
兼ね 備え
C ITY
具 現
正 樹
貯 蓄
バン ナ
就 業
ス ケープ
中 谷
丸 子
麒 麟
18 23
シェ パード
IO C
Ag ain
5 12
エ バー
左 遷
目 安
見 物
K it
N F
オ ット
図 案
浩 司
エピ ローグ
S AM
c r
w as
元 服
降 雪
知り 合う
C AN
ガ ネ
生 け
む り
悪 意
タナ ベ
Ac ade
み のり
刃 物
阿 佐
Be at
ネー ミング
オ ールズ
両 院
糸 魚
コ ロッ
18 22
ant s
AG ON
TSU TAYA
兄 貴
山 根
捏 造
追 尾
R U
プ ッシュ
内 紛
ミ ネル
砂 浜
見 い
讃 え
フ ッド
-」 (
エキ ストラ
ソリ ッド
ね ぇ
ナッシュ ビル
メ ニ
土 居
成 就
Ph ys
B ON
C le
シ バ
ス ナ
不 便
俊 一
月 額
美 奈子
鉄 骨
タ ケル
哲 夫
定 例
献 身
般 若
び り
チ ・
修 飾
右 目
西 成
那 智
ハイ ライト
いろ は
G AL
且 つ
局 員
翔 子
ユ ージ
相 川
種 々
迷 彩
S n
ノ ヴォ
ブ ・
操 舵
標 榜
没 する
泣 く
素 質
カー ネ
Mod el
お に
布 団
賜 っ
音 符
音 階
イン フレ
C ra
V an
マ ース
K l
た に
告 訴
比 叡
G Hz
史 記
敷 い
空 爆
米 原
マリ オン
みち のく
取 手
絵 図
アイ ザック
ロッ ジ
セ イド
ハ ッシュ
モ イ
コー ダ
グリ コ
C ER
ヒ ース
移 譲
ーム ス
均 等
山 車
ム リ
五 所
慎 太郎
迎え 入れ
3 15
RA W
o on
主 計
除 か
チ キ
マ ード
目 当て
ショ ル
ティア ゴ
F el
ティ クス
克 也
既 婚
イン ストラクター
48 8
モノ マネ
擲 弾
観 世
鳴 る
ムー ズ
入 道
計 器
ロメ オ
6 80
マ ダム
増 減
子 守
横 川
高 座
追い 出さ
マグニ チュード
立ち 寄っ
糸魚 川
レ アン
畿 内
起 草
がん ばれ
い しゃ
ジ ス
両 名
バビ ロン
F all
U HF
ニ クソン
娘 婿
業 種
湿 度
ミ シュ
ミ イラ
就 学
生 野
イン バータ
UR A
お かし
ガ チ
ノ ズル
滅 ぼす
頭 頂
18 26
キー プ
ノン ストップ
コネ クション
Pol it
H BC
あ がり
天 龍
懸 け
手 袋
磁 石
ロー ゼ
GEN ERATION
五 男
食 肉
18 19
ジャ ニ
浮か べ
プー チン
六 郎
基 質
縄 張り
飽 き
持ち 帰っ
対 地
相 姦
真 壁
覚 書
17 83
建 てる
条 文
殺 意
石 岡
街 中
ラー マ
CH A
き よ
成 都
散 り
総 帥
ジュ ピ
ak er
下 回る
動 態
断 続
素 手
陽 一
180 2
利 子
紳 助
述 懐
たい かい
バラ ク
序 文
斬 新
混 入
走 れ
鐘 楼
ガ ダル
ニ ホン
酵 母
共 謀
別 館
大 隈
兼 用
学 歴
独 学
阪 和
高 低
取り 決め
組み 込み
思い 込み
De v
おろ か
パ ブロ
モ ウ
乱 暴
出 水
加 筆
比 定
鉄 工
OS S
O ld
ガ ルー
資 質
つと める
清 盛
olog ical
イ シュ
In formation
向か わ
く ず
タ レ
ッ ヒ
彷 彿
FI GHT
プリメー ラ
ジ ブラル
実 演
羽 柴
Le e
SO UL
ア バン
同 町
同 館
税 関
LI GHT
リュー ム
Pl us
三 村
壮 大
海 里
獣 医
西 町
om an
L ar
N ow
活 字
加 勢
カル デラ
ジョン ズ
ur us
B ern
E st
陪 審
鮮 明
180 9
K BC
失 策
脂 質
黙 示
引き ずり
パラ シュート
ナ シオ
戦 犯
um ent
SR CL
- 「
H u
インタ ラク
見つ かる
R iver
豪 快
ジャ スティス
IE EE
K in
N ak
一 心
区 長
古 参
大 杉
猛 烈
ただ ちに
テー ヌ
トレ ンド
スナイ パー
ら せ
宮 前
平 岡
生 い
マグ ロ
R IS
連 作
イェ ール
F ate
レイ ト
役 名
18 17
18 27
ハロ ウィン
ハプ ニング
あ んな
新 種
沖 合
麗 子
18 11
h i
キ ビ
叱 責
砂 丘
花 王
DO HC
P ac
み く
24 9
飼い 主
チ ビ
口 蓋
柳 原
ディ ナー
An ton
ツィ ン
C ard
ヤ リ
レ ニングラード
晶 子
適 性
22 8
クリス ティアン
こ もっ
も れ
不 時
星 空
17 95
今 泉
伸 縮
在 外
文 治
インド シナ
言い 伝え
C up
l ic
危 う
承 和
楠 木
競 い
義 昭
フィ スト
ot e
オセ アニア
C all
f ace
咲 い
従 兄
愛 想
拘 置
直 近
草 野
講 じ
ミ ロ
下 地
中 宮
閃 光
電 通
カリ フ
b on
於 け
om y
ヘリ ウム
GN U
一 節
七 十
初 旬
台 座
26 4
アップ グレード
ガイ ウス
atab ase
ガダル カナル
5 60
N OR
タ テ
仙 石
喰 い
梁 山
酸 性
ジェ シカ
6 30
d on
é s
エ ズ
博 之
密 教
クラス メート
ヒ ナ
藝 術
Tom ato
ぴ あ
久 し
小 栗
火 口
電 球
天 童
疲 弊
IT ION
COM IC
トランジ スタ
リサイ タル
B LO
y our
古 城
呼ば わり
ut t
ファイ ナリスト
ミ ケ
別 個
日 食
邦 楽
GL AY
シ ィ
小 森
頒 布
スペ シャ
ов ич
極 める
歯 学
議 定
22 9
エレ ナ
問 答
嘆 き
等 々
E K
ク ウェート
國 學
興 し
閉 じる
高 梁
Olymp ics
B ACK
C RE
中 絶
白 雪
除 隊
ほん の
F u
ガ レージ
伯 領
的 中
青 柳
23 4
ay a
6 40
S IM
か から
真 琴
総 当たり
茂 雄
ホ ノル
因 幡
現 生
開 削
レン タ
クル ート
R oll
名 勝
小 人
廃 刊
未 婚
ブラ シ
体 温
連 接
27 8
ブラ スト
100 1
けん じ
マルチ メディア
SON G
ワ イズ
排 泄
蒙 古
這 い
み え
ス フィア
入 閣
対 向
海 人
アリスト テレス
利 家
遺 品
エク セ
L T
M obile
ェ ル
残 せ
amil y
3 25
禅 寺
ソル ジャー
S qu
ア ホ
ク ッキー
多 年
由 美子
美 紀
クリ ケット
c u
ゲ イル
土 台
思 春
白 水
芭 蕉
見 知り
アル ペン
ブリ ュー
こだ ま
ニ ョン
先 導
p H
二 見
吉 永
ミン ゴ
W P
W onder
は ね
破 門
答 申
配 送
聞き 入れ
移り 住ん
プロパ ガンダ
討 つ
アルデ ヒド
C LI
け っ
岩 見沢
セン サ
л е
ふ わ
ラ ディ
台 所
美 香
リカ ルド
cycl op
嘆 願
携 わり
絞 め
ファ シズム
チュー リップ
あ ふれる
ア ワ
副 長
慶 尚
23 9
おっ ぱい
ソ ク
手 本
汲 む
サー フィン
ロシア ム
ミュ ラー
如 月
改 元
旧 領
Sh in
ヴィン セント
デ イト
容 れ
景 品
版 権
邪 気
フロ ム
" .
ア スカ
連 星
飯 山
er ing
コミュニ ティー
三 つ
学 内
良 野
An t
年 号
流 量
驚 愕
17 94
シ ロウ
塩 原
旬 報
キュ ン
なか むら
容 貌
鳥 海
守 谷
K AI
l ib
コ ロシアム
パ ド
五 百
崇 敬
int osh
ヤ コブ
叙 爵
ミン ガム
スパ イス
大喜 利
パ ピ
無 期
AR S
ad o
Y ES
30 7
ウィ ット
ね ぎ
セ ナル
千 石
薦 め
裏 付け
黄 昏
ell ow
ハード ディスク
併せ 持つ
W RC
増 税
長 政
防 波
風 雲
高 千穂
オー ソ
Olymp edia
Mon t
Ber ry
ア テナ
東 証
17 80
On line
制 止
寺 内
獣 人
街 頭
エ バ
コ ラー
企 む
嗣 子
羽 島
埋め 込ま
H un
T F
土 着
皮 質
シア ード
小 諸
鉛 筆
推し 進め
ペ レス
インタラク ティブ
座 る
ステ ス
ch ar
回 航
懇 談
擬 態
放 流
バビ ロニア
ベ ガ
技 巧
歪 み
純 正
at ure
H IGH
R otten
シ リウス
ポ ツ
両 津
度 合い
絞 っ
防 水
富 良野
28 6
3 16
サ ツ
本 隊
隅 田
風 車
Con c
V III
f a
ば る
大 々
殺 傷
浜 名
群 像
詰 まっ
とも ども
24 7
ト レス
常 滑
繋 ぎ
レイ カーズ
C ross
三 洋
修 得
忠 義
東 都
等 しく
O O
ヒ マラヤ
ミ アン
大 丈夫
抵 当
水 利
リー ヌ
T own
é n
ケ ネス
土 手
宮 地
我 孫子
正 治
取り 巻く
イチ ゴ
K ISS
あ め
あ やめ
な ご
ヤ キ
住 ま
土 星
守 ろう
番 頭
空 洞
30 9
38 6
JF N
コ バルト
加 治
弘 仁
コン バット
ボルド ー
ホノル ル
ユ ーク
暫 く
真 木
アル タ
コミ カライズ
ランカ スター
ダ リング
東 上
熱 烈
爆 雷
D ark
居 士
時 報
まみ れ
採 決
昇 段
由 香
長 瀬
K IN
干 支
バー ミンガム
Fl ash
K H
b or
激 昂
盲 目
ジュ リエット
テム ル
・ ビ
発 声
24 5
サン ティアゴ
ユニ コーン
パートナー シップ
し る
大 宝
弁 論
新 館
衣 笠
離 着陸
コン ベン
ie f
見せ かけ
裏 切ら
ロー ランド
中 興
平 時
群 衆
預 かり
ター レ
スケ ベ
スカー レット
M W
p op
パ ター
親 和
Dr um
ハイデル ベルク
X I
年 貢
由 緒
イン ペ
ヤー ズ
グラス ゴー
ザル ツブルク
Tw o
パ レ
ベ ラス
ム ッソ
ri an
シェヴィ キ
つ ま
見 守っ
ッ ガー
鹿 野
D ON
ト ッ
テレ コム
Joh ann
わ だ
ミ ノル
散 々
旅 順
欠 乏
江 藤
随 行
24 2
たい てい
um i
スタン リー
浮か び
M AC
支 柱
ロー ラン
Sec ond
ジャ スト
フレ ディ
Foot ball
詠 ん
к а
フ リーズ
ホ ラ
乳 首
図 面
平 松
愛 犬
フィ ナンシャル
act ion
無理 やり
ベ ク
妖 魔
家 柄
広 西
拼 音
換 気
引き 金
ホイ ッグ
サ ワ
バル ド
3 13
ク ルト
玄 武
ジャ スティン
アン ヌ
テュ ルク
初 級
メイ ソン
キリ シタン
System s
なつ み
F inal
り か
一 様
公 道
積 む
エド ワーズ
ま じい
寵 愛
焼 却
ベル ガー
チャイ コフスキー
Z ONE
r or
ケ ヴィン
巨 額
78 0
ピア ス
ピカ チュウ
い しか
原 生
大 浦
痩 せ
いき ん
M ult
国 人
行 ける
重 役
電 停
17 75
取り 入れる
ホーム レス
中 町
摘 発
退 屈
As ia
配 さ
チャー ジャー
り え
ク レス
副 題
広 まり
IC T
サンド ラ
善 光
湧 水
観 衆
バチ カン
ラ ザ
矢 理
ジュ ラス
無理 矢理
ジブラル タル
R am
湖 北
英 二
銭 形
US H
Mac intosh
さ つき
コン ボイ
ワー フ
ッグ ス
さい とう
K en
ベ ネット
・ リ
増 進
大 沼
盟 友
遅 れる
駆け 付け
con t
Z Y
h ard
君 津
扮 する
植 生
ラン ダー
乗り 込む
ヘ イト
ポ ワ
佳 作
報 知
政 変
日 日
異 様
Sy n
O TO
対 日
注 力
迫 り
雅 之
17 96
37 1
リュ ート
蔵 王
ひろ しま
ブー スト
L R
せ かい
大 豆
朱 雀
アク シデント
アレ キ
直 方
旧 知
オード リー
平 穏
CRO SS
B an
須 田
オリ エント
GO OD
敢え て
G ov
サ プライ
後 輪
降 雨
のぼ り
乏 しく
受け 継ぐ
オー レ
紛 失
ur ch
Sp e
バ サ
大 乗
通 説
コン シュー
ドン キー
デ ロ
ヴィ クトル
デイ ヴ
B W
パ ニョ
儒 教
演 義
アニ ソン
ホル ツ
締め く
うつ 病
本 業
能 勢
プロ ップ
モー リ
祝 祭
一人 暮らし
S IDE
酷 い
入れ 替わっ
ノー ツ
一 命
教 導
格 上げ
竹 本
県 会
館 林
ホリ プロ
S ony
スマ トラ
宮古 島
散 見
陸 海軍
Und er
h o
━ ━
み よう
同 乗
冬 期
将 官
小 町
成 城
手 記
良 心
魚 津
キャ ビン
つく し
ノ ラ
喫 する
草 薙
29 1
しん のすけ
昇 級
甲 状
盛り 込ん
7 70
団 子
白 銀
脳 内
つ ない
づ い
リ クルート
品 目
小 字
損 壊
由 実
経 口
葉 子
軍 縮
ジョ ゼ
取り 立て
IV ERS
Met ro
m ore
コ コロ
バ フ
リ コー
十 津川
日 大
開 講
メソ ポタ
28 5
ヒー ローズ
小野 寺
レナ ード
ク ツ
ポ テト
分 遣
クライ スラー
I Q
下 巻
囲 い
大 洲
達 郎
邦 彦
スト レージ
k n
短 波
端 部
Ye ar
ゼ ス
一 関
八 坂
皇 居
I r
c ast
Brit ish
F D
マ フラー
北 宋
芳 賀
芸 者
食 性
ST S
課 し
都 度
あ ち
千 鶴
極 力
スカ ラ
op s
p i
唐 代
宝 亀
淳 一
野 間
17 99
22 4
シリア ス
延び る
Ear th
口 頭
攘 夷
立 石
鉄 鉱
ポー タブル
ノー ズ
マリ ナーズ
メソポタ ミア
N B
五 条
硫 化
選 書
シー ア
ゴ キ
及 川
桃 井
繋 い
カー ディ
お だ
ふ ら
Se a
ico de
P OR
イ ワン
簡 体
st al
ハー グ
夏 期
デ ウス
ビ レッジ
レ ザー
FU JI
ドミニ ク
ひ たち
健 闘
営 団
堕 落
幸 雄
AS HI
授 かっ
鉄 製
隠 密
アイ ズ
か あ
ヘ ブン
乗 換
曲 がり
ダー ツ
He y
ファイン ダー
ワ タナベ
長 沼
龍 之介
ter n
クレイ グ
g i
さ かい
レ ロ
野 獣
プロ バイ
Tomato es
キ ーン
バ スト
悪 戯
慶 喜
iss ion
和 光
弾 劾
排 他
旅 立っ
琴 平
造 詣
IC HI
ド ローン
乗 艦
嵐 山
復 刊
悪 党
篠 崎
キャラ バン
トラン ジット
成り 立っ
ち くま
Wh o
SPE ED
8 80
F ant
出 塁
抗 原
濃 縮
publ ic
ギ ロ
久 野
城 西
西 脇
15 82
アイ リッシュ
スー プレックス
ai re
ひ で
刀 身
千 本
満 月
フェ ルド
ハイ マー
送り 込ま
b in
担 ぎ
推 論
コンド ル
日の 出
N AD
七 夕
修 め
新 駅
取り 残さ
ゆう びん
さか のぼる
サッ ポロ
タ ミル
被 験
アニメ イト
ス モール
ライン ハルト
わた なべ
か ぐ
く し
カ ヌー
シ ヴァ
ネ ブラ
動 乱
特 大
パル チ
美 保
謳 わ
m ark
ミ コ
自 白
討 た
配 管
中山 道
ヒスパ ニック
M J
ミ スト
リ フレ
レ フト
与 謝
共 催
Ex pl
m or
ば いきん
ト ワイ
城 跡
炭 化
監 訳
被 る
ガ エル
可 児
キャ メロン
中 公
佐 原
本 稿
真 意
ジュピ ター
爆 薬
田 野
秀 一
自 著
逃 す
繰り 出し
かし ら
ドー ラ
ボロー ニャ
D eb
け つ
ご っこ
ロ ゼ
大 吉
天 武
部 類
さ おり
ひ ゃく
テ マラ
リ ザ
佳 祐
恥 ずか
阿 倍
ジャ スコ
リザー ブ
S ar
o om
投げ つけ
ond a
坂 道
江 ノ島
組 員
シル ヴァ
N ING
ク ソ
上 町
大 蛇
ヘッド ライト
V IP
・ イ
上 巻
写 っ
軽 快
遵 守
オー ン
- 、
安 東
携 え
略 さ
野 崎
フィン ガー
突き 止め
あち こち
ゼ イ
ロ ベール
司 書
旧 型
醸 し
17 98
mb H
K o
岩 城
潜 航
頭 骨
ハン プトン
ヒ ョ
正 三
パノ ラマ
読 本
レー ガン
ギ ング
伺 える
城 塞
遼 寧
麻 里
Un icode
の せ
Sm all
だる ま
8 70
こ け
ア ビス
励 ん
子 分
頑 固
マー カス
ル キウス
場 内
良 質
アル ブレヒト
マン モス
フィア ット
申し 込み
m el
あ ふれ
分 館
大 雪
宣 誓
気 付く
目 線
読 切
You ng
利 か
土 塁
ジュ リー
anc ed
s g
か ろう
る い
ク ルド
ロ ワール
粘 着
カー ペット
ウェ ルス
サ ルト
千 春
屏 風
時 効
ディ ール
ミネ ーション
み さき
ハ ゲ
鬼 怒
ユニバー シアード
ムッソ リーニ
ゾ ール
加 水
大 里
こ じ
入 館
塩 谷
足 元
ジェニ ファー
B AND
J BC
f m
機 転
能 楽
L AND
ギ ュー
山 々
盗 難
Mag ic
マテ リアル
一 端
持ち 味
フォルクス ワーゲン
太 っ
溺 れ
頼 る
ヴァ ッ
40 2
ロ ワイ
綱 領
カナ リア
イエ メン
ヘ ンド
落 葉
越 冬
サイ ダー
40 4
IR A
クレ ーム
払い 下げ
R y
ア ケ
古 谷
土 田
Dan iel
巡 視
普 請
続 々
トラン ク
護 送
D un
E OS
f ly
中 傷
駒 澤
es is
24 1
ドー ナツ
サザ エ
カ マ
上 回り
別 れる
奉 天
宿 敵
幸 い
籠 城
アダム ス
塗 料
序 曲
曲 輪
疑 似
ディ エゴ
コン ダ
ブラ スター
ed ited
インス リン
直 進
クレ タ
百合 子
振り 返る
ぶ どう
タ タール
三 方
異 教
疑 う
о д
あ たか
当 寺
悟 っ
あたか も
び っくり
修 験
叶 え
官 能
CO ME
t ri
ま しく
エ スペ
従 弟
日 進
朝 食
結 束
たち まち
プレ イング
切り離 し
f il
匈 奴
多 度
敵 意
民 話
湿 原
馬 術
イチ ロー
DR AGON
奔 放
玉 置
プロ レ
ファンタ ジア
Hum an
F UN
タ ロー
応 力
17 97
ダイ ハツ
リュ ック
あ ざ
オ モ
証 書
ウン ズ
オ デ
ム チ
中 曽根
コーポ レート
M AT
代 え
水 陸
取り 調べ
ran ge
ピッ コロ
ひ そ
エ ヴ
兵 科
東 條
ウォ ード
仕事 人
シャッ フル
G IG
伊 奈
参 政
大 宰
ライト ニング
大い なる
多治 見
c ul
取 ろう
後 遺
粘 り
西 城
警 務
オリン ピア
手が かり
フリ ップ
コンスタンティ ノープル
h ar
l as
デ ッカー
マ ギー
新 旧
献 金
ッチ ー
付き 合う
W inter
奥 山
界 隈
黒 星
バー ニー
インター フェース
さ ゆり
似 る
慎 吾
汲 み
洋 平
衣 類
In v
ヴァル ター
バ ニー
ホ プ
微 細
真 正
やっ ぱり
スノー ボード
A th
あ ゆ
兵 団
奏 法
持ち 込む
江 西
法 名
ロー マン
こ え
ロ ケーション
京 葉
直 感
不 知
咲 か
荒 らし
VE L
貸し 出し
よみ うり
h igh
{ \
エ ・
ネ イル
好 投
白 地
菌 類
トロン ボーン
m il
r ary
デ フ
独 創
ドリ フ
3 21
ウ ナギ
人 吉
入 籍
リ バイバル
英 明
フォ スター
it or
ま ぐれ
手 札
he ad
グラン デ
アパ レル
アベン ジャーズ
名 寄
荻 野
部 材
Drag on
ゲ リオン
タ ブー
植 村
やま ぐち
ヴ ス
格 下げ
臣 下
見 返り
見 抜い
バル バ
デュ ラン
AG A
PAS MO
応 じる
文 官
アー セナル
ht ml
ニコ ル
z z
一 挙
其 の
山 科
村 民
al th
26 00
フレイ ム
ク フ
取 調
ラ ナ
リ ボル
乗 せる
比 重
八重 山
S OS
ウ ッズ
年 越し
ブル ジョ
にゃ ん
小 山田
沙 門
AK E
コ ックス
地 殻
垂 水
片 腕
飯 野
if ul
グア テマラ
a ff
島 崎
捕 捉
ph en
Gard en
み すず
マ ゼ
侍 女
廻 り
YouT uber
さと み
グラフィ ティ
あ こ
子 息
減 便
竹 島
58 3
スピ リ
Af ter
フ ュ
屈 辱
浄 瑠璃
相応 しい
Fut ure
P TA
p age
é t
人 身
名 家
射 影
江 田
C ult
罵 倒
連 戦
ヴァージ ン
エ キシ
急 い
本 件
筑 豊
身 元
駅 長
Vo ice
感 性
成 体
クリ ル
傾 い
太 極
橋 脚
24 4
立ち 直
G ET
n am
レ ツ
水 辺
er ry
ブ チ
山 号
砲 架
雨 天
フィード バック
B AL
b ow
ク オリ
リ ッター
小 澤
文 様
陝 西
か とう
伊 佐
24 00
ドラ グ
突き 出し
ブラン コ
B IR
V en
ム エ
大 中
性 欲
曲 折
枢 軸
R od
だ め
塗 ら
強 靭
日 成
殉 教
持ち 前
アウ ディ
や れ
漏 洩
リーダー シップ
当たり 前
インディアン ス
2 18
G mbH
堕 ち
扱 える
東 宮
税 制
B y
ド ッ
バ レット
旋 風
浪 速
17 81
ザ ビ
着 実
K on
ざ り
ヒ ッチ
冠 する
区 切り
向 島
念 頭
桜 島
着 信
プロ トン
23 6
ホーム タウン
se ason
久 井
国 学
夕 食
廃 寺
累 積
er ation
サハ リン
H ans
は ぐれ
松 野
狂 っ
秀 で
至 上
p end
光 緒
イン ディー
IN C
ッツ ィ
In f
WOR K
一 雄
三 日月
石 鹸
ペル ソナ
マ オ
個 数
本 位
ジャン ク
ファイ ナンス
c il
主 水
千 夏
最 良
馳 せ
カッ スル
一 元
狭 隘
迷 路
Th at
おさ め
エタ ノール
ふ つう
列 し
水 量
絶 版
Col l
H ard
み こ
支 隊
セグン ダ・
O E
ア ックス
ゾ フ
ビ ニール
龍 神
24 3
ソー ダ
6 60
野 島
ing er
アレ ッ
Rec ord
残 忍
み さ
ゆ ら
幼 名
村 名
町 営
留 萌
青 海
サル デー
R R
あ いつ
ヶ 浦
潤 滑
配 役
オス ロ
ド リック
千 早
害 虫
座 礁
行 ない
シー ナ
u le
オ クタ
ズ リー
後 身
毒 殺
水 冷
車 道
ヴィ リ
バン クス
v es
カ ローラ
ハ ロン
川 柳
平 尾
私 設
フェ ーズ
ウ ール
指 南
接 頭
法 皇
総 計
an th
受 精
郡 名
馬 券
フォル ム
ポツ ダム
ウ イン
カ キ
パ イル
新 撰
球 状
聖 霊
17 70
3 35
手 書き
知 見
義 母
集 客
うち ょ
ス ムーズ
ワ ーム
王 都
風 潮
ステ ュ
おしゃ れ
K ir
ん じる
局 長
教 頭
毎 秒
スト ラス
our s
き る
既 知
Br and
セネ ガル
7 67
ジ カル
悲 しい
新 日
決 死
署 長
薬 用
領 内
al y
Europe an
が え
グ ス
冤 罪
急 襲
憤 慨
モン タナ
呼び 出す
ケミ カル
ノヴ ゴロド
城 北
棋 戦
アル フレ
スペ クター
・ フォン・
小 百合
武 闘
亀 岡
了 解
バー ゼル
ジー タ
たか お
つ づけ
ナ ク
バ ヤ
大 場
患 い
搬 入
理 系
クロ ース
J FA
T ran
ラ モン
昇 降
焼 か
贅 沢
om i
ッパー ズ
柳 家
順 天
17 88
取り 外し
マ シュ
御 嶽
カン ピ
AS S
はじ まる
Found ation
賢 一
mm ×
6 10
G UN
イ フ
宿 禰
ホー エン
ヴァイ ク
手伝 う
等 価
羽 衣
菖 蒲
争 議
生 業
発 せ
アレク セイ
pl us
ち ひろ
ぶ ろう
ガ モ
ベ リウス
本 心
ファ ックス
不 老
本 因
比 し
熱 意
着 うた
艦 内
許 諾
パ レット
時 差
見 下し
輪 島
ふく しま
LA ST
あきら め
キ スト
シ ーム
可 逆
DL C
ぐ ん
ガ ント
マ レ
属 さ
間 宮
パス カル
ハヤ テ
L ady
お ち
チャ ム
ナビゲ ーション
や まだ
臨 港
ガル フ
追い 込む
ど っち
ゆ うちょ
大 声
方 角
飯 能
ig a
ブ ズ
宮 澤
小 節
貞 治
スロー プ
ストリ ップ
M AD
だ さ
両 目
今 週
弘 法
退 避
高 畑
Pres ents
谷 町
カー ティス
TAK U
インフォ メーション
ハ イツ
中 書
兵 部
喚 起
庄 司
断 崖
真 偽
霊 園
二 本松
す う
開 祖
ご ま
星 系
An th
ミュン スター
k h
ヘ ロ
新 疆
移 封
ク チ
二 つ
英 樹
ーン ・
ac a
ur s
アビ リティ
8 10
ッ テン
推 さ
文 子
b as
や なぎ
ヒ ア
丸 く
前 々
歪 ん
ティン ゲン
松任 谷
ね り
オ ビ
ワ ルド
悦 子
大井 川
バ ウンド
敬 遠
昼 食
血 中
なぞ らえ
時 雨
病 変
罰 則
芝 浦
茅 ヶ崎
酒 類
17 78
ダー ソン
AR C
待ち 伏せ
Stand ard
コンベン ション
ト コ
ビ ロ
事 案
格 段
レン ブルク
book s
こんにち は
d uc
ピ ウス
ボ リューム
植 樹
逗 子
マン ガン
ニー ナ
まだ まだ
サ ノ
ハイ キング
料 亭
果た して
T EC
バ ド
仮 装
佐 田
冥 界
校 庭
烏 山
ar ia
スーパ ースター
ソ ート
ヨ ガ
罹 患
肩 書
取り 込む
勝ち 馬
フライ デー
ハヤ カワ
A BS
ロ コ
2 19
カ ミング
レ キシ
入 幕
慈 悲
ダン プ
The ory
カナ ディアン
ann a
Award s
サルデー ニャ
2 200
G ATE
エ カテ
抑 止
非 情
カー リング
シャ ーク
37 5
シャー ロック
言い 渡し
R en
つ み
ベ ティ
喜 ぶ
洋 服
シャ ロン
St ri
Ch ina
切っ 掛け
娼 婦
根 源
選 べる
飛 地
En cyclop
飲み 物
が な
チ ラ
交 尾
全 駅
pp ort
Brow n
Soc ial
夏 祭り
Po int
中 西部
敵 軍
病 没
秀 夫
職 種
蓮 華
be at
もろ とも
値 上げ
妙 高
ミレ ニアム
C N
F G
R ub
キ ョン
体 感
前 記
工 区
横 領
白 髪
17 50
ジュ ゼ
本因 坊
公 理
幼 生
クビ ライ
ネブラ スカ
パルチ ザン
小 郡
憲 政
曲 集
真 岡
スター ン
ボン ネット
カ ザン
下 敷き
店 名
英 治
酪 農
ロッ シ
JO Y
付 し
玲 奈
疑 念
県 外
ミッド ウェー
ペイ ジ
s et
は なし
・ ナ
出 川
突 か
OR IG
マグネ シウム
ネ ラ
白 亜
雅 彦
ター ジュ
Bir th
ö r
そ ごう
専 制
シュ ナイ
いしか わ
oo p
ボイ コット
UC I
O Z
T ake
恥 ず
文 体
春 香
遊 泳
野 鳥
シュー マン
ヴェル サイユ
マイン ツ
Port able
コ ナー
バ ップ
平 気
怪 しい
手 裏
集 電
oo th
S EC
呼 べる
シャ トー
al es
Un ion
VO CAL
O VER
永 山
綾 部
電 装
取り 除く
os ph
反 り
右 舷
浮 い
球 形
纏 め
オ ハ
マ ング
引 数
服 飾
磁 性
17 87
ワー ヌ
立ち はだ
フィル タ
FO MA
紀 勢
金 銀
ロー ダー
エキス パート
つん く
M ess
乳 房
典 子
ノル ディック
s l
事 由
r ight
s i
ご めん
中 越
失 恋
オー ランド
縫 い
ァ ン
モ ブ
各 自
小 柳
平 屋
欠 片
購 読
ジャ ージ
ブー メラン
オヤ ジ
ミ ドリ
受 動
域 内
現 道
ed ition
アンド レイ
オル タナ
Soft Bank
サ ミー
中 之島
帰 順
転 封
野 良
ビー ・
カム イ
抱き しめ
リ マ
交 わす
工 費
東 雲
アン モニア
祖父 母
不 備
凄 まじい
神 武
ノック アウト
ユ リア
凌 駕
同 州
失 効
康 夫
産 まれ
血 清
轄 区
ra in
フ タ
上 皮
並 べる
人 狼
再 任
名 城
ジュー ク
モ ロー
特 派
笠 岡
28 9
係 員
結 構
Or gan
真理 子
全 羅
無 印
砂 川
茅 野
振る う
W ik
努 める
合 奏
木 の
ブル ックス
40 3
モー ビル
Christ ian
ビ ーク
三 位
退 化
送 還
ic us
イト ー
サム スン
ズー カ
ギム ナ
一 樹
両 岸
異 国
速 射
50 5
エヴァン ゲリオン
セ ツ
国 章
起 伏
マリー ナ
i as
気 性
舞 子
シュ ヴァ
ay s
みや こ
ワ リ
日 暮
省 令
部 外
グリーン ランド
シュー マッハ
矢 先
船 尾
とも だち
プロレ タリア
す ま
休 校
全 校
案 じ
リエ ール
安 西
敵 視
緑 化
芹 沢
配 色
カン ター
OR S
レベ ッカ
カ セ
ダ ライ
刺 青
地 所
変 容
市 村
he im
ou st
ブレ スト
JU MP
ディスカ バリー
撤 収
断 ち
AN O
EN O
rit ic
パ ンドラ
メ テ
古 市
白 泉
ライアン ス
” ,
し おり
む し
出 国
反 戦
大 奥
シン プソン
c at
リ スタ
全 書
協 和
御 門
杉 原
首 里
J am
ハ エ
バ ツ
別 居
断 る
淡 い
24 8
ナイト メア
押し 出し
Con trol
9 11
N ik
S FC
竹 原
替え 歌
ドリ フト
タイ マー
フレーム ワーク
ホリ デー
かっ こ
プロ ヴァンス
パー マ
OR A
乳 母
細 長く
取り 下げ
フロ イド
もて なし
実 情
栗 東
答 弁
al og
23 7
カッ セル
D en
イ ダ
子 弟
th ers
AM D
占い 師
eschicht e
岸 壁
プロ グレッシブ
ブロン ズ
セグンダ・ ディビシオン
н ы
ジェ ノヴァ
阿武 隈
テ クス
ピ リ
ペ イト
後 妻
根 元
薄 れ
ER A
入り 込ん
エ ゾ
伸 長
榛 名
鉄 板
フェ ロ
見せ つけ
フッ 化
ピ ノ
モ ルト
後 発
コン バート
ボー ダー
ur t
アッ バース
立た さ
ブ ート
中 沢
母 語
額 田
同 業
日 南
更 迭
ダン ディ
K R
教 わっ
期 日
町 人
相 沢
シュ ア
ヴィ ジュアル
te xt
組 立
資 生
頑 張っ
ブレ ラ
ウィーク リー
: -
b en
帆 船
庇 っ
病 状
ヴァイ マル
リアー ノ
ダイア モンド
デ ム
光 度
味 付け
後 手
承 知
サプリ メント
n ov
ウ ガンダ
レ ゲ
京 城
漂 着
照 灯
絶 た
縁 組
GP U
マ クレ
漏 らし
臨 界
音 域
26 1
マ ウンド
木 原
DE EP
T AS
ぼ り
カ ミー
ム サシ
人 脈
伯 耆
洒 落
稲 妻
計 らい
都 留
防 府
28 8
イェ ー
ねじ 込み
壮 絶
斯 波
枯 渇
高 森
48 7
45 6
au x
キル ギス
ヴォルフ ガング
ケ イド
伝 わり
届 き
放 牧
アイ ダ
コー ティング
引き 揚げ
ベン ゾ
ル ワンダ
廃 れ
推 察
チャ ンド
コーディネ ーター
は さん
客 数
惨 殺
砲 術
プロ ローグ
カル チョ
わざ わざ
S AN
ガ レ
下 村
廃 合
シュ ナ
ジェイ ミー
作 れる
耕 地
ファ シスト
ig er
ドライバー ズ
柔らか く
W ild
縦 横
補 足
見 直さ
違 憲
28 3
済 州
熱 く
重 信
バイ アス
貼り 付け
a us
ゴ イ
主 幹
仁 美
収 拾
le te
ゲ ナーゼ
ヨ ッシー
八 田
別 物
掘 っ
考 証
道 内
金 魚
かっ ぱ
河原 町
STAR S
J E
み ね
ブ ランク
舎 人
音 羽
乗り 継ぎ
座 談
瓜 二つ
ット ・
ライ ル
アン ジェラ
ブラ ッ
アク ティ
デュ ッセル
ド ッキリ
渡 邊
44 4
D og
ノ ートル
即 日
右 上
実 話
家 元
香 椎
ライ デン
ON G
少 子
色 気
マー サ
sch aft
Prof ess
スペシャ リスト
ミ ライ
日 頃
親 父
語 派
ロッ ソ
タム ボン
T i
倒 せ
陰 性
ヘイ ム
min i
ピエ トロ
ムエ タイ
ら ぶ
尖 っ
弾 性
バー ナー
29 6
バプ テスト
S and
エ セックス
オ スト
斬 ら
浪 士
うか がえる
B ul
べ ん
固 める
ッ ラー
今 田
孔 子
無 色
ポーツ マス
オーガ スタ
カーネ ギー
b u
傾 き
慶 安
朝 比奈
武 具
減 衰
特 任
謀 略
食 器
レギュ レーション
クリム ゾン
ヘラク レス
故 事
栗 林
ジャ カルタ
すべ り
ネガ ティブ
ギムナ ジウム
モ ルド
三 崎
丸 太
有 理
演 者
笠 松
カメ ルーン
d is
e very
n es
武 庫
背 負い
スト ーンズ
チュ ール
カラ フル
アセ チル
S now
朝 臣
蘇 我
西 海
超 常
グレ ネード
振る っ
コンド リア
オズ ボーン
M AP
キ リー
求 婚
物 部
17 84
レイ ヤー
He in
ys is
D EC
G un
み っ
単 于
叙 勲
県 域
道 真
アンド レア
グロー リー
う れ
さ っぽ
三 ツ
園 長
夭 折
留 まら
インディアナ ポリス
さっぽ ろ
印 旛
消 毒
ルト ゥ
使い 魔
Que en
ト フ
ハイ ジャック
eth od
挟 む
死 球
決 別
焼 肉
禁 忌
ur ity
オ ラン
ラ オ
抗 生
コネク タ
ガ ガ
レオ ポルト
ア ゴ
サ ディ
殺 菌
発 送
総 勢
遺 書
フェル ナンデス
結び つけ
L TE
и я
電 工
ハー スト
LE T
ぐ う
レ ネ
チ エ
好 感
スター ク
27 6
45 8
ホー テ
F P
X A
全 会
平 賀
戦 局
羽 黒
開 城
ジェ イズ
そろ っ
五所 川原
r at
威 嚇
小 姓
リン ス
ミト コンドリア
う っ
エ ポ
ヌ ン
バ ズーカ
残 ら
見 送っ
賄 賂
銘 打っ
T P
マ ッシュ
檜 山
洞 察
統 廃合
L ike
チ タ
バ ルーン
ル ビ
ヴ ャ
厳 島
天 海
敏 夫
波 多野
露 見
ニュー カッスル
デル ス
バ スターズ
・ コ
下 回っ
公 称
シュ ラ
マジ シャン
R ap
い そ
っ 人
ビ ザ
ペ ッ
前 髪
斬 首
桜 川
ジャ パ
クト リ
LE S
タッチ ダウン
後 白河
新 見
歳 月
荊 州
青 函
ベー シック
B ud
反 共
反 田
女 中
尋 ねる
見 なす
打ち 合わせ
けい さつ
ラ ティ
寒 い
ポー ラ
I UC
れ よう
メ レ
本 荘
線 内
英 和
間 奏
アナ トリア
プラ ネタ
Tra in
おや じ
新居 浜
m em
マ ジンガー
筋 力
8 60
I MP
り ぼん
乱 歩
吸 着
咎 め
藩 校
パン サー
フレ ックス
49 8800
z en
皆 殺し
オリ オールズ
Bus iness
ハ タ
八 角
彫 像
曼 荼
畳 み
リカ ル
チェ イ
ハル ク
デュッセル ドルフ
B UR
チ バ
マ ハー
河 童
破 局
羽 織
ライ ク
一 成
宿 し
艤 装
音 量
高 所
17 77
エイ ミー
利根 川
丹 生
強 打
矢 印
石 材
範 疇
Soft ware
ロ マー
大 河内
広 田
フェ ニル
27 4
大手 町
I g
加 重
直 交
紆 余
鶴 瓶
フォ ールズ
ドライ バ
塗り 替え
空 力
16 15
シャ シー
完 投
水 口
ライ ラ
ファ ウル
コン ストラクター
ジュ ディ
行き 先
曼荼 羅
е т
三 川
今 津
仰 角
工 務
農 作
90 1
書き 上げ
スウィ ート
働 か
加 護
即 死
疑 っ
艦 尾
アド リア
Sm ile
2 100
国 士
庄 屋
CD MA
HO ME
5 80
タ ネ
ボ ツ
リ ックス
密 室
寝 る
譜 例
貞 享
ブラ ザー
Air port
あ ぶ
裂 け
ウェ イズ
インター フェイス
SH IN
ま ゆみ
処 遇
分 枝
所 見
アン パン
もも いろ
ナショ ナリズム
U H
一 段
黒 石
黙 っ
パー マー
クリスト フ
A v
キ ホーテ
ス パン
城 址
17 82
カー ポ
た むら
実 技
木 綿
清 張
直 角
He ad
ペ ール
危 害
朱 印
艦 砲
辛 く
デ ーション
ヌ ・
交 わる
拓 跋
舷 側
菊 川
黄 海
iv ing
ザ ニア
ビ エ
モ ハ
光 一
小 切手
影 山
指 宿
長 沢
高 揚
00 2
ect or
3 23
が さ
ケ ツ
杏 子
50 2
ann el
D MM
b an
b is
ス ポル
ベ ジータ
占 星
縛 ら
週 替わり
ラー ジャ
B ob
シ メ
城 代
扇 動
桜 子
矮 星
饅 頭
ail s
アグ ネス
抗 戦
是 正
祐 介
藤 川
裁 縫
高 熱
マッ ケン
チャール ストン
. -
グ ・
サ ・
ト レン
ラ ブラ
リ ッキー
原 著
妙 子
家 譜
殺 陣
炭 水
Q R
o is
一 平
吹 い
慣 性
訪 日
サン プトン
コー カ
ich i
サン ダース
38 7
切り離 さ
東 軍
秘 匿
飢 餓
失 神
彷 徨
付き 添
Bl ood
ジェイ コブ
Comm unic
トワイ ライト
い の
す え
乳 業
厚 み
酋 長
デン ・
ジャー マン
呼び かける
ス ニー
乞 い
予 期
水 樹
決 裂
ブリ ッツ
ヘン ダーソン
あん た
ノベ ライズ
寝 屋
山 道
弾 倉
洋 介
犯 さ
身 代
29 9
打ち 込み
寝屋 川
F our
タ ロウ
壊 す
日 生
法 曹
総 体
軍 師
野 辺
リー ガー
読み 書き
b ut
先 立つ
同 和
闘 技
餃 子
ニュー ロン
ミュー タント
os p
アルカ ディア
" 』
ア ナル
セ リング
愛 読
球 面
チュ ート
uc le
N U
テ ノール
幼 く
早 押し
横 穴
現 像
読 める
ock et
久 里
塗 っ
渡 邉
アリ ソン
P OS
バ ハ
下 川
丸 み
オン ライン
el a
il a
HE ART
一 律
休 息
吸 引
嘔 吐
圭 介
塩 尻
官 制
真 希
追 随
7 60
M ind
米 英
B ASE
W omen
マ シ
一 髪
堀 越
サクラ メント
ソ ト
劇 画
完 治
戦 え
渋 沢
過 大
電 解
ストラ ップ
盛り 上がり
ガール フレンド
目覚 める
Met ac
d ition
サ スケ
宇 文
情 緒
簡 潔
Ch ap
D FA
ら せる
ゴ メス
ド ワーフ
恩 赦
書 面
正 広
アー ティ
エイ ブラ
レボ リューション
f ish
ア ライアンス
心 境
捜 し
石 造
l ong
吐 い
抑 留
接 待
見 聞
親 切
プレ ジ
コスタ リカ
Au thor
IUC N
カ ストロ
デ デ
原 色
季 刊
手 先
正 雄
ホル スト
クリー チャー
が め
こ ぼれ
ロ バ
目 指
銃 殺
隣 り
なる べく
ジェ ール
ハイ テク
SQ L
抗 日
族 長
缶 詰
謁 見
下ろ さ
つぼ み
ラ ビット
26 6
St yle
4 33
I ME
シ ボレー
ス ケー
明 徳
東 広島
緩 衝
26 7
エレ メント
ミリ メートル
W all
只 見
歓 喜
腹 心
詩 織
電 光
駆 り
プロ モーター
17 85
プレゼン ター
は やし
飢 え
しか ける
al ity
25 9
フェ イズ
Mic ro
ゼ リー
ベ レ
点 滅
闘 病
引き 上げる
エス パニョ
冷 え
話 せる
途 端
38 9
マ リアン
同 姓
大 丸
木 野
総 じて
NE X
ファラ オ
M ISS
P ack
い と
り さ
フ レス
出 没
北 町
散 策
海 事
題 する
28 7
d in
ジ ロー
幸 田
遊 具
D atabase
と ろ
ク エン
ス キャ
ズ ナ
刺 殺
口 語
孫 文
招 致
水 兵
キュ ール
ッ チェ
量 販
頼 ら
スト イ
ヴォ イ
4 15
ど い
ヤ ナ
与 那
則 っ
文 帝
根 性
虹 色
題 さ
ゼル ダ
B it
N ag
つ らい
ガ ・
梨 子
花 束
鳥 山
チャ リング
RE AL
ゲー テ
リバ ティ
Stud ies
た がっ
ゆ たか
ネ オン
仁 王
小 石川
撮 る
鳴 らす
27 3
イデ アル
BRE AK
Rac ing
awai i
b el
温 水
照 らし
降 着
食 欲
スル ターン
CL C
Rev iew
Fried rich
仁 義
出 奔
応 仁
秀 行
Art s
ソ フィー
多 元
ラン ティス
サイ クロン
バイ オリン
J ET
ガ ロン
下 面
水 滸
飼 わ
ic y
プラン テーション
昏 睡
本 貫
秀 明
靭 帯
定 量
岸 本
拍 手
日 用
肥 大
黒 猫
day s
P ent
ア ウェイ
顔 料
ビル バオ
ミニ マム
Ed uc
おっ とり
Ger man
ザ クラ
バ ロー
江 崎
イン スタント
id o
おか しい
B ATT
尖 閣
オル レアン
か もめ
ト ビ
南 風
大 伴
育 英
ター ゼ
リム ジン
光 速
小松 島
ゼ ッケン
中 条
作 れ
作 製
無 縁
随 伴
繰り 下げ
IDE O
オ クター
北 畠
末 っ子
花 田
論 説
17 63
ヘル プ
NR N
レキシ ントン
お ど
ブ ロス
地 平
強 まっ
律 子
捕 物
渡 船
砂 利
草 加
ユ ア
武 内
も じっ
フ リン
郡 長
シュ ン
テン プレート
キャン バス
パル プ
ロイヤル ズ
な ぁ
教 学
移 駐
迷 っ
Ind ust
P HS
ウ ド
徴 用
残 高
貸 付
連れ 去ら
ガリ レオ
バ ム
円 柱
強 敵
排 斥
火 の
谷 中
Develop ment
ニ ナ
手 引き
鮎 川
H AL
ざ っ
ぞ ら
or m
ニア ス
ルス キー
ユー ティ
いい ち
エア ポート
ブリュ ック
E ss
ユ ート
舐 め
菜 々
D iction
中 森
交 信
千 手
在 校
変 性
昼 夜
桃 色
洗 剤
st and
ベン ゼン
く つ
可 換
済 ん
絶 叫
鞍 上
25 8
ポン ペイ
Ch u
命 ぜ
武 徳
浦 上
無 傷
インディ ペン
I ll
サ ファイア
凝 固
花 山
遅 刻
重 んじ
フィ ナーレ
アイ リス
b et
に ぎ
油 彩
ST ORY
ナイ ア
ハ マー
呑 み
安 中
家 紋
パイ ク
P ur
弓 矢
情 景
矢 口
黒 竜
17 86
ディー ノ
ワン セグ
控え め
エ メ
ペ ニ
亡 霊
物 議
in strumental
ac id
ad er
立て 直し
確か め
失 明
旧 友
異 界
肛 門
リア ・
トス カーナ
A sh
別 姓
津 村
見 張り
食 わ
ol i
ON D
ク ム
之 丞
美 馬
通 運
適 時
食 卓
B at
タ ング
下 顎
26 9
29 4
Vol ume
ゆう こ
K enn
キ タ
ク ッキング
ピ ラー
久 遠
カル マ
Wr est
前 哨
確 変
ダー ン
ファイ ティング
Metac ritic
獄 中
シー ニ
ch an
でん しゃ
ホイット ニー
7 10
L anguage
P le
き ゅ
一 蹴
不 運
厄 介
天 安
レー ク
セン サス
ジェル マン
キッ ス
H ug
ベ アーズ
打 開
落 書き
防 弾
ブレ ア
ip edia
アブ ドゥ
Alex ander
z u
バ クー
町 並み
素 朴
ウェスト ミンスター
ほっ かいどう
センチュ リー
C el
N ic
エ トル
口 実
重 合
音 韻
あ たし
ぱ く
偽 物
寂 し
山 岸
早 大
イン ダスト
サンド ロ
セ リン
中 和
優 雅
助 っ人
末 広
眼 球
花 形
コミ ッ
やす み
ポリ シー
7 30
は がき
ガ ート
反 旗
啓 介
大 食い
左 舷
茉 莉
テイ スト
スイ カ
Wor ks
イザ ベル
N ER
ひ びき
み れ
ニ カラ
倍 増
向 く
執 念
De ad
レル モ
ダ マン
ド メ
官 人
氷 上
社 外
ゴー グル
な え
水 俣
級 数
隆 一
W ood
b j
恋 仲
甘 味
真 由美
モデ リング
H it
湾 曲
福 本
ピク セル
3 17
受 刑
家 賃
感 受
赤 井
類 別
バッ ティング
MC A
スプリング ス
ゴ ・
サ バンナ
入 局
兵 站
寒 河
悪 用
発 券
St an
シャン プー
Or ch
マニュ エル
エ クリ
夏 子
深 圳
豚 肉
ミネ ラル
l im
ワ イル
利 権
斑 紋
納 付
華 北
藤 森
ウェ ディング
ソン ・
ウォ レス
IT Z
OK A
F ield
べ え
劣 っ
南 雲
貝 殻
赤 旗
進 捗
黄 緑
セル ティックス
D OL
」 ("
ト ワ
偏 諱
寝 室
建 ち
西 遊
重 油
ジェ レミー
取り 消さ
St ra
惹 き
脱 却
蓄 電
コ ズ
丸 め
切 除
割 当
泳 ぐ
血 筋
麹 町
ド ナー
忌 避
Mov ie
と れる
来 店
谷 間
メソ ジスト
主 眼
全 軍
河 東
門 弟
かぐ や
4 17
ニ ッシュ
ロ ズ
勧 める
少 林
裕 之
貴 方
メ ネス
ティ モ
とも なう
積み 重ね
バタ フライ
初 夏
垣 間
採 る
水 流
フラン キー
ノ 内
喜 ば
本 意
アム トラック
r ie
冷 徹
圭 子
曲 調
穂 積
立 証
誓 約
キャ ベツ
ボリ シェヴィキ
上 条
既 刊
段 丘
自 筆
高 根
サイ レン
ピー プル
キ ネ
三 昧
主 神
勝 る
属 名
矢 沢
美 月
ジュゼ ッペ
J im
い ぬ
わ せ
バ リュー
光 寺
叶 える
和 気
英 夫
ion e
35 6
あと がき
悪 徳
田 部
興 産
解 離
ファ クト
J on
O t
動 かさ
異 能
稲 沢
美 沙
パートナー ズ
Ste am
ボナ パルト
ニカラ グア
ボ ニー
ミ ナミ
気 弱
17 72
tv k
о с
緑 川
通 ら
ヨー ガ
OS AKA
パラ ドックス
EA ST
] 。
ゾ フィー
懲 罰
鞍 馬
ウィリアム ス
C RA
G am
キ リル
下 向
海 津
雅 人
ジョン ストン
アトラン ティス
エ イズ
巨 漢
神 姫
裕 美
輝 元
霊 的
in st
シェ リ
アブ ドゥル
as ure
ヴェ ラ
Song s
サ ト
・ シ
和 声
天 城
遠 心
養 蚕
16 50
4 78
T K
く い
車 名
スト ロー
40 5
ゲー マー
バイオ ハザード
捕ら える
忍 術
敬 虔
球 磨
画 廊
近 現代
重 光
クリス ティー
カメ オ
Ul tim
T od
r om
中 腹
光 源
単 数
空 位
ニュース キャスター
ジャイ ロ
。 "
た がる
後 裔
港 北
満 載
譜 面
賛 美
35 4
M ass
ハ ック
両 生
平 沢
正 保
サン チェス
モン ティ
一人 息子
グル コース
乳 児
正 和
たち ばな
も く
ゼ ノ
便 り
太 古
学 舎
送 金
is a
て ら
ア ブル
空 知
よう こ
ミュ ウ
スポン ジ
E VER
F B
I ATA
レ ト
巣 鴨
製 糖
YOS HI
平 泉
軽 傷
魔 剣
ST A
Ar th
真っ 先
Aust ral
N on
不 評
17 74
さら わ
35 5
グレ ブ
無く なり
We ek
ヘー ゲル
ゲゲ ゲ
G X
中 南米
廃 絶
石 像
綱 吉
追 分
近づ き
ほの か
ポ セイド
出 頭
攻 める
散 ら
東 城
浪 曲
発 芽
ケン ジ
G h
H ALL
K ids
ガ ット
偽 っ
守 口
察 し
鴻 巣
NC AA
hel l
4 25
ダ ク
ビ スタ
一 手
乱 用
短 篇
ディ アナ
ファ ク
凌 ぐ
漢 詩
結 託
つか み
検 地
セン ジャー
ヴィ オ
願い 出
ガ ウス
白 根
神 風
細 身
iv a
I ES
i et
洲 本
白 木
編 隊
義 弘
補 任
プリ マ
Vis ual
カ ポ
相 殺
祈 る
素 早い
索 引
早 速
鍛 錬
20 23
29 3
45 7
IT A
エンタ メ
大 勝
Manag ement
F air
ム ガル
ヤ ツ
半 生
墓 場
応 戦
日 帰り
金 丸
雪 崩
オー ウェン
33 6
プラン ニング
B ody
バ ニア
八 丁
求 人
ンド ン
トロ リー
クル マ
4 28
ピ ッチャー
手 軽
良 一
モー メント
YO UR
SHI BU
Y am
例 祭
聖 域
防 ぎ
サク セス
おに ぎり
m es
仁 田
便 器
実 感
山 神
希 薄
往 生
短 絡
ロー バー
アンドロ メダ
事 物
吉 見
片 倉
ジャー ナリズム
パウ エル
たどり 着い
BATT LE
ゾ ロ
下 ネタ
九 龍
朝 貢
竜 也
経 つ
逃 がし
長 渕
キン ズ
Con n
ネー ズ
ス ィ
余 計
南 郷
営 み
学 費
新 地
来 生
牟 婁
翻 し
開 成
AR M
ロケ ッツ
処 さ
Pro duction
D ist
エ プロン
型 番
淳 子
諭 吉
タイ トー
Er n
紀伊 国
W ater
ビ リティ
伝 言
信 義
有 償
直 木
短 気
遊 覧
金 光
ビュー ティー
b oy
ド クロ
プ ルト
元 日
真 下
内 裏
就 労
忠 清
マリ ノス
アルビ レックス
ぴ ん
セ ブ
香 料
ウェ リントン
てん とう
アンパン マン
め で
ポ ッター
ie ve
モル ガン
4 12
オ ルド
ブ キ
下 痢
宗 主
末 日
マー ティ
ソー セージ
シェル ター
ティラ ノサウルス
シュナイ ダー
マ コ
表 皮
軽 視
サン アントニオ
乗り 出す
34 2
フォー メーション
47 9
ドゥ ス
か ち
ま こ
得 よう
追 走
都 賀
際 立っ
チャ オ
取り 仕
アド リブ
De ath
y er
グ レス
内 緒
高 柳
ファー レ
ボ タ
時 限
沿 う
筆 名
臼 井
GO D
て ぃ
三 四郎
作 為
文 系
着 替え
脱 し
40 8
36 1
Lin k
プ ティ
三 船
控 除
波 及
辞 める
ラン サー
AR K
HO USE
合 資
隔 月
in y
80 6
ノートル ダム
霊 力
17 60
キャ ッチャー
イタ ズラ
TR UE
コル ネ
HE AV
R M
み せる
ゴ ブリン
テ クト
ブ ーン
同 席
和 文
断 熱
浜 町
白 鵬
ニュー ハンプシャー
29 5
グレ ゴリー
Be e
Bre ak
ヨコ ハマ
C u
k N
朋 子
17 58
アメ ー
Fil m
つ ち
京 大
固 く
堂 島
帯 同
治 承
無 茶
眷 属
高 村
プレ デター
hy th
グ レース
ト ガ
天 上
武 夫
身 代わり
銭 湯
顧 み
Comp uter
O CLC
ド ルト
・ オブ・
助 役
安 徽
木 島
権 益
稲 作
J IN
N ARU
さ さき
ザ レ
一 意
呪 わ
走 塁
フェ ニ
ビキ ニ
う ず
心 斎
チャ リティ
ガン プラ
Phil os
吊 る
在 留
遺 作
重 き
メン ツ
プログラ マ
パト カー
ユーク リッド
N OW
お ぼ
水 門
神 格
00 3
ンド ゥ
AK O
無く し
I EC
T ar
ダ フ
有 野
箱 館
粘 膜
ライ リー
フォ ロ
乗っ 取ら
Orig inal
H IV
N GO
火 傷
納 豆
コン ラート
立て 続け
ブ シ
好 戦
宿 命
柳 井
沿 道
痙 攣
ダイ ブ
ホー フェン
あしら っ
チ ラシ
田 上
チャ ペル
エン リケ
スプ ーン
チ カラ
ラ サ
上 奏
全 然
小 太郎
巨 摩
発 泡
瞬 く
私 服
スタ ニス
oc ol
巻き 起こし
請け 負っ
パ ワード
九 鬼
キー ズ
ミュ ール
hel m
のん びり
t ube
ヘ ッジ
本 音
海 辺
潰 す
止め よう
プラネタ リウム
3 31
ジ ブリ
ド イル
パ トラ
・ ル
仙 北
極 上
自 室
衣 裳
トレ ジャー
クライ ム
だん だん
サ ヤ
ニ ット
ポ ルド
由 布
重 鎮
アンティ オ
スス メ
R og
n ational
セ ウス
六 郷
教 派
殿 下
銃 士
アル キ
タイム ス
ブラッド リー
敏 郎
転 じる
道 教
com m
Bar on
D est
T G
同 母
旧 作
清 涼
マー フィー
レゲ エ
ジ ボ
一 義
味 わい
延 命
投 擲
芦 田
アル ベール
フォー チュン
ニン ゲン
はや ぶさ
おと ぎ
ツ カ
短 命
ハン ニバル
55 5
LI ON
iP ad
国 別
留 意
直 哉
つば め
D ynam
ギ ヨ
上 梓
川 本
成 美
研 二
クロ イツ
アント ワーヌ
周 南
巨 匠
狂 い
薬 草
グリ ット
ok e
MON STER
ск ий
ッペ リン
しず く
Ep isode
エ フェ
ダ ラー
ニ エル
ヤ ム
郵 船
重 装
SU V
ミナ ール
カ ワイ
ヶ 瀬
千 田
在 京
見 込ん
遊 女
高 坂
ちゃ お
立ち 上がっ
ネ ア
外 周
レイ ス
取り 出す
27 2
35 7
ギュ ン
飛び 込ん
ア ブー
撲 滅
沿 海
門 院
SP ACE
マッチ ング
茶の 水
寒河 江
A h
ぐ っ
ロ シュ
偉 人
形 見
打 上げ
接 地
新 津
明 代
また がっ
40 7
V IDEO
ガ メラ
ロ リータ
砲 火
45 5
アパ ッチ
E arl
イ ージ
亮 太
格 安
引き 返し
言葉 遣い
思い やり
ピエ モンテ
イナ ズマ
C our
ス ール
ム カ
板 野
緩 行
ウェ ス
At t
Christ mas
ラ テ
掴 む
洞 爺
越 智
Al f
おか しく
v ocal
』 -
重 宝
難 色
ント ス
un k
プラ ク
デイ ビッド
ディヴィ ジョン
VERS ION
びょう いん
n ia
刑 部
屋 久
武 勇
特 選
義 弟
生き 残る
3 14
オ ノ
覇 王
ou ld
ā n
多 面
局 舎
拠 出
等 身
スニー カー
フ ローラ
ミ エ
徳 田
所 謂
チェ ット
エミ リア
M it
き むら
パ ドレス
謎 解き
ストラ ト
ult s
恥ず かし
S av
映 る
智 之
甘 く
趣 向
ブリーダー ズ
コミッ ショナー
J ud
・ トゥ
先 着
広 める
悲 願
歩 む
発 給
簿 記
融 通
途 切れ
関 羽
00 9
チェン コ
信濃 川
ゴキ ブリ
J azz
こ ばやし
人 望
it ect
ハン ク
sel f
ひ さし
召 還
定 式
戻 そう
石 野
芳 しく
親 分
ビー バー
ハン ザ
無く なる
PRE SS
ば け
定 評
少 輔
石 化
訴 追
チャイ ム
マント ル
コ ケ
持 分
イン ナー
ベル ナール
27 9
エディ タ
R P
c os
バ エ
MI L
語り 手
間違 わ
本 選
特 進
眺 望
al ysis
バル ディ
DD R
き げん
ロ ビ
散 弾
断 裂
紀 要
陣 内
アウト バーン
W a
b at
光 太郎
抵 触
トレ ット
FA X
カ スター
デ ク
被 覆
託 す
Par ad
C orn
H on
ベ タ
本 舗
肝 炎
退 く
33 9
エク ステ
コロン ボ
り す
イ ージー
天 和
本 紀
芳 文
ハン ガー
ハン バーガー
for e
ビ ビ
捻 出
西 安
譜 代
K om
ゲ レン
ラ ース
任 せる
劉 邦
塩 分
宍 戸
甲 南
こう いち
たっ ぷり
セッ ティング
5 70
ポジ ティブ
カウン セリング
E s
同 い
常 総
15 70
27 7
ッツ ァ
オブ ジェ
3 19
3 22
B J
丞 相
何 れ
創 部
史 郎
菌 糸
Ne xt
トルー マン
ワイヤ レス
SHIBU YA
A fr
m ond
カ ピ
変 質
画 報
駒 場
ウェ ット
ブラ ームス
th on
ウォ リアーズ
マラ リア
すば る
ぐ み
ベ クター
一 団
九 条
代 わら
双 発
河 本
測 度
神 通
絶 える
退 陣
フリー ド
H onda
ほ っと
モ ース
交 わさ
仕 入れ
何 処
各 位
百 鬼
禁 酒
ヴァ ント
ch er
しゃ く
eth er
A ra
異 種
金 太郎
風 紀
リー プ
盛り 上げ
C op
D ar
r é
三 蔵
富 永
フィ ジー
シュ リ
フリー ダム
LL A
C and
r um
代 走
吉 林
否 認
本 村
次 点
神 職
とら われ
ヴィチ ・
Hun ter
ハ ッカー
伊 万里
国 策
ゲー リング
ウ ラル
聖 杯
興 福
引き 続い
アナ スタ
阿賀 野
S AK
ハ ノイ
思 える
正 夫
陶 磁器
Le on
想い 出
ノ ーム
健 司
産 休
クロ ノス
スキ ップ
H G
ざ け
節 子
製 糸
造 る
35 1
ポ ーン
レ ッグ
入 校
別 表
嫌 がら
改 姓
高 貴
マル セル
出来 上がっ
ワン ズ
今日 子
なき ゃ
Ultim ate
嫌がら せ
R CC
u ct
ル ディ
京 阪神
傾 け
前 奏
往 年
滑 空
高 梨
取り 壊し
Pier re
B AD
T EN
波 形
減 額
アフ マド
デ イル
ミ ランダ
戦 意
比 売
泉 北
預 かっ
ST E
スカ ヤ
Pe ople
J PL
シ オス
小 五郎
松 代
皆 川
過 疎
高 須
チャ ラ
ist s
スパイ ラル
ガード ナー
さす が
イニ シャル
3 26
ア ヌ
堂 本
大 判
大 間
永 住
バー レーン
サイ バ
ヴァ ーン
ヘ レナ
四 半
陸 路
領 民
78 7
au gh
アストロ ズ
S WE
光 州
外 貨
天 馬
度 数
河 田
プログラ マー
о м
シ ット
愉 快
浮 かん
脱 水
ミネ ア
Sc ott
ポニー テール
ギ ニー
ネ クロ
大 脳
in us
パー シー
33 4
ケー ニヒ
借り る
Div ision
改 選
本 屋
浅 倉
詳 述
豊 平
イン スピ
el d
ジン バ
NARU TO
p ut
ラ ール
ワ ザ
体 毛
俊 夫
村 岡
HE AD
Lib rary
レシー ブ
リボル バー
同 所
悪 質
無 邪気
BA BY
N ACK
R FC
史 書
玉 名
話 しかけ
28 1
ビザン ツ
H ay
N L
ノ ックス
狭 軌
違 え
レイ ル
Mar ie
朝 方
石 黒
エン ゼルス
オン エア
ab eth
オ クト
新 島
決 起
行 田
貴 志
マク ド
ff ect
精 錬
ジェネ シス
太 閤
横 丁
絡 め
美 空
製 粉
al t
トラ クター
col le
つ かい
フ ーン
募 ら
押 収
献 呈
真 島
貼 っ
道 化
い たっ
エ ベ
・ ハ
梅 雨
湧 き
花 咲
道 府
ペン ダント
めざ し
みの る
Z X
い ふ
久 我
天 山
集 権
RO AD
おさ む
信 雄
射 手
想 起
IN D
シュー ター
ファンタ スティック
カ ギ
ゴ ンドラ
吹 っ
惜 敗
文 永
斑 点
血 糖
16 60
pr ise
ハッ キング
コマン ダー
7 65
u i
つ こ
ワ タ
劣 ら
砲 艦
秦 野
金 森
エジ ソン
イェ ン
1 1000
お まえ
キ バ
塗 色
山 鹿
メル ン
SE A
ヴェー ザー
ギ アス
油 断
減 量
異 論
ディ ミ
レン ダー
de m
Sp ir
う じて
ベ ド
一 室
帰 路
湿 潤
矢 吹
辛 うじて
集 い
半 額
歌 姫
肝 心
討 死
開 国
ニュー ポート
ツェ ッペリン
ネー ゼ
ヴォル ガ
orn ing
H old
L GB
か ど
無 声
開 院
飛び 込み
pr int
Progr am
石神 井
ワ リオ
国 力
国 庫
女 官
武 史
測 る
紋 別
色 合い
開 封
カー ゴ
シア ム
レス リー
33 8
ast ic
グルー ヴ
ディストリ ビュー
р е
か ぎ
わ く
タ マネ
レ クイ
子 安
電 視
音 程
アル プ
クリス ティーナ
面白 く
H K
W AL
尾 部
背 鰭
財 布
17 79
おかし な
r ick
う わ
す ん
サ ナ
ボ コ
万 歳
再 三
澤 田
自 他
ライ アス
同い 年
ガ ザ
ヌ ム
・ ド
上 毛
分 科
国 見
清 代
アフ タヌ
トム ソン
サク ソ
タマネ ギ
サ モア
名 張
感 激
覇 者
70 7
P AN
アー チャー
マー ラー
おん せん
アフタヌ ーン
y es
大 腿
愛 美
有 毒
見 かける
LO CK
おか み
T alk
力 強い
密 閉
毒 舌
ロール ス
アーカイ ブス
バニ ラ
ムーブ メント
ベ レー
ロ ニー
坪 井
易 い
美 山
街 並み
部 室
たか じん
教 化
明 応
毘 沙門
船 越
やま と
ストライ プ
WOR KS
レクイ エム
M ENT
す まし
ゴ エ
妙 見
封 じる
シー ザー
送り 込む
ヴァイ キング
タ ロット
吸 入
フォ ス
ドラ ゴ
DE L
届け 出
くわ く
え え
に ゅう
銃 剣
受け 継ぎ
ブル トン
ナイン ティ
F ile
T W
線 区
花 輪
霊 感
AS KA
Publish ing
ダ ッチ
台 帳
坂 出
栄 子
連 名
クー ラー
わ くわく
五 月
勅 許
新 垣
遺 棄
高 名
ヴァ ース
and a
th y
Ne ver
ケ ラト
ジャ ブ
ジェ ム
く えん
こ ぎ
は ずれ
よ き
合 せ
路 地
カン ナ
モーター ズ
T ro
う じ
京 介
墓 石
搾 取
生 身
詰 まり
ゴー レム
カッ パ
9 80
M oto
w ill
オ ニール
ビ クトリー
リ イ
若 菜
クライ スト
ノル ズ
一 筋
今 季
冨 田
画 風
話 せ
17 20
28 2
心斎 橋
b ach
デ キ
パ スタ
ロ マネ
昇 任
眼 科
自 費
荒 尾
萎 縮
見 送り
ボン ボン
Pl at
W olf
よ そ
戦 火
散 らし
文 雄
権 勢
駐 輪
シュ ヴァイク
im ent
38 1
ファイ エット
モニ タリング
gr ess
アンドレ アス
3 18
l ich
拿 捕
正 成
珊 瑚
ピー ナッツ
リッチ ー
ア ギ
キ ィ
束 ね
石 坂
神 体
経 る
緻 密
高 専
ヴィ クター
タン ザニア
追い 出し
乗っ 取り
iP od
I WGP
す た
ダ ミー
久 美
奏 し
ed s
カ リン
ザ リ
デ ナ
予 感
吉 沢
外 資
山 線
志 田
探 究
正 之
芙 蓉
関 所
スト ール
ポー カー
978 48
タマ ゴ
バンダイ ナムコ
前 例
朝 霞
校 訓
永 続
セイ コー
Ad am
ソルト レイク
パプ ア
コ プ
ル ルー
不 仲
典 礼
同 伴
座 右
異 説
降 ろし
at ory
こだ わっ
6 20
J S
ゲ リ
斜 字
西 本
遊 佐
イン パルス
ランド マーク
ol o
バン カー
AS A
38 5
ポリ マー
インスピ レーション
0 50
P as
フ クロウ
中 澤
憂 鬱
ベル デ
ヴィ ク
il i
勝ち 取っ
s ong
ひ び
訳 し
集 大成
st ream
M ore
ア ヴァ
ピ アン
宝 箱
白 星
組 閣
自 給
訛 り
遺 さ
騒 が
リン クス
ハー モニカ
スタン レー
PL US
Bir d
二 百
来 航
良 平
そこ そこ
ノー ブル
エヴァン ス
アソシ エーション
R is
R ose
殴 っ
レオ ポルド
おお た
ナシオ ナル
4 16
c ur
ち よ
も や
力 量
晩 餐
根 絶
樹 齢
琥 珀
荷 役
見 逃し
車 載
トリ ップ
Arth ur
L ow
妨 げる
廃 位
恥 じ
昼 行
木 工
重 篤
風 見
j or
テ コ
杭 州
立 正
米 倉
老 齢
チン ピラ
49 8
est ra
ラッ パ
C AD
H U
s ky
三 平
不 破
岩 村
起 爆
龍 谷
ri k
さわ やか
さつ ま
じゃん けん
は み
会 誌
魚 介
ファ ルト
取り 憑
28 4
V IS
は たら
医 大
奈 央
宝 珠
流 刑
窪 田
追い かける
T RE
ほ たる
ニ コン
効 能
半 端
収 まっ
名 実
宦 官
終 端
at i
カウン セラー
薩摩 川内
C er
徹 し
成 っ
画 集
コー ネ
He aven
Fran ce
レシ プロ
フィット ネス
ま くる
ズ ール
ビ ークル
人 前
全 話
書 写
河 西
法 要
西 大寺
KO F
叩き つける
浅 く
陳 情
宇佐 美
8 40
ぷ ら
ま ろ
ダ ヴィ
ミ カン
メ ック
モ ドキ
干 潟
レディ オ
みず き
Che m
高円 寺
ateg ory
ホ ック
宇 多田
末 子
海 流
疎 通
鐵 道
fl ix
Mod ern
コ ナ
嫌 疑
帰 依
AN IM
カルテ ット
パター ソン
ス ム
労 務
単 勝
小 春
文 筆
毀 損
繁 体
銀 山
オー ズ
M GM
ぺ ん
末 寺
赤 毛
ホル シュタイン
クイーンズ ランド
^ {
選 別
あら すじ
ロマン ティック
Tim es
3 45
そ っ
天 子
頭 髪
シュ コ
アウ トレット
ヴァー ズ
なぎ さ
床 面
比 喩
マッ ピング
レ ウス
乃 花
交 ぜ
営 ま
空 戦
罪 人
誇 張
ブル ネイ
KO H
GA Z
N AM
ル ピー
募 っ
辛 子
AT C
ヨー コ
だい すけ
剛 性
岩 屋
海 苔
漆 黒
甲 種
空 席
陸 前
トー レ
クレ ール
エク ストリーム
9 60
フ グ
東 条
藤 波
見 届け
16 48
GU I
Ca fe
Leg end
タ ロ
新 光
複 葉
黒 潮
ON LINE
チョ ップ
LE G
Pac ific
大 海
樹 皮
深 田
湖 畔
軽 蔑
ro ad
かわ さ
バウ アー
サボ テン
Diction ary
F act
キ ナーゼ
ツ チ
厭 わ
欠 き
浜 口
田 尻
27 1
hy l
い ける
評 定
軽 度
IS P
フラ ップ
ウ ラジオ
同 大
遺 児
ハー マン
思い 出す
助け よう
ハ コ
両 脇
密 告
拍 車
接 客
渡 瀬
生 真面目
神 野
長 打
サン ク
ハイ ドン
オル ガ
TD OWN
い ばら
加 瀬
反 日
極 道
リン ガー
カンピ オナ
u es
窺 える
身 内
ag en
バッ タ
テオ ドール
l ive
ぐ さ
シ ト
備 蓄
初 動
専 科
布 陣
恐 れる
美 波
ランド スケープ
TR Y
ベー コン
ハロ ゲン
ブカ レスト
忘 れる
格 式
ab e
Net flix
COUN TDOWN
R CA
エ ミュ
ネ リ
仁 科
帝 大
戸 川
見 分け
カー ラ
34 4
トゥ ーン
まく っ
PRE MI
ゴ ケ
亘 っ
救 護
次 代
ch t
Cent ury
S ER
不 尽
内 径
堅 実
清 浄
痛 い
罪 悪
義 明
アン デス
ティム ール
凶 器
右 下
東 照
高 次
サン クス
マー メイド
P u
さ なか
ハ ダ
ピ スト
ボ ック
ラン タン
I K
デ メリット
参 軍
浦 賀
造 寺
部 内
難 関
ag a
チー ノ
ク ニ
サ ケ
主 管
包 含
26 8
ミネア ポリス
K an
R ight
о г
レ ゴ
出 かける
春 子
木 本
狩 人
綾 乃
裁 量
ヒ ストリー
拘 ら
検 車
義 雄
藤 山
プレス リー
DO C
大船 渡
三 津
後 宮
教 祖
毒 素
白 夜
蜂 須賀
スター ター
ペイ ロード
ヘッ ダー
B ase
T PP
c raft
ト ミ
両 肩
快 感
氷 見
捕ら われ
恥ずか しい
V M
カ トリー
幸 村
水 無
福 永
落 胆
辿 っ
ファ ゴット
ヘル ツ
いろ んな
DC G
ぼ っち
マ エ
俊 足
内 燃
母 屋
ガト リング
0 10
K ill
ゴ ラス
仕 込み
山 縣
チュ アル
Re port
OP EN
PRO DU
O k
P ET
s yn
ウ メ
対 価
形 勢
星 矢
硝 子
領 し
Ad obe
D OWN
E B
g al
値 下げ
石 勒
シュ レー
アム ロ
スリ ラー
R on
二 千
出 向い
拮 抗
王 将
ヴァ イン
Co de
D AN
右 折
摘 出
16 88
ヨー カ
アンド ・
言い 残し
おか ず
セバス ティアン
A QU
K im
な ま
内 通
家 中
幸 一
果 汁
モンスター ズ
ちょ こ
ブラウン シュヴァイク
F a
弁 慶
ig e
ウォー キング
シンフォ ニー
アロン ソ
ロワイ ヤル
3 24
j un
ポ リエ
北 朝
権 守
球 界
砂 岩
貰 える
トロ イア
アレ グロ
W AN
極 真
転 機
st yle
申し 出る
ギヨ ーム
ね っ
徐 州
東 村山
痛 快
金 堂
領 国
ケン シロウ
ung en
ск а
五 條
仕 込ん
吹 上
幸 町
閉 会
チェ フ
飛び 地
D as
ボ ボ
前 野
収 まる
増 便
復 権
球 審
観 る
スト ク
プロ ジェ
ur i
コロン ブス
Play er
mac OS
LGB T
S NK
V ista
う し
ノ ストラ
仏 典
会 頭
巻 頭
習 性
脅 かす
ティー ニ
富士 宮
折り 合い
ウ キ
周 知
塹 壕
康 熙
水 生
花 組
クラ ッシャー
Cl ip
ふ な
レ ド
大 政
戦 友
戸 数
邦 訳
雄 大
Com mon
Pe ace
í a
の 間
ノ ッ
乳 酸
奈 落
次 数
牢 獄
確 固
繁 盛
諭 さ
進 攻
長久 手
IVERS ARY
ア ライ
摂 食
貫 き
軌 条
鞭 毛
TOW N
S ay
] ,
シ スターズ
ミ ード
載 せる
17 15
90 5
お ぎ
エ チル
公 領
沈 む
錦 絵
雷 電
美味 しい
P iano
シュ ヴァー
29 8
やり 直し
なに わ
Deut sch
コンディ ション
u h
寺 尾
ステ ロール
吹き 飛ばさ
不知 火
V ID
か う
八 神
公 孫
励 む
向 日
看 守
引き 取り
T s
Y AMA
ろ い
兵 舎
圭 一
弱 者
必 勝
高 輪
ラー ダ
オ ド
ヒ ーター
ホ ステス
主 事
大 体
官 公
早 め
深 沢
リオ ・
ネイ チャー
ライフ スタイル
張り 出し
襲い 掛かる
ANN IVERSARY
各 州
有 栖
配 位
餓 狼
エター ナル
ハ ズ
元 文
兵 法
前 倒し
寡 黙
17 10
Ch a
グレ アム
Ph ot
Cent ral
の 島
喘 息
宿 っ
省 吾
ian s
Coun t
名 産
慶 子
竜 馬
裕 二
フォル メ
チャイ ニーズ
ゲ イツ
ゼ ニ
卵 形
RE MIX
モリ ソン
Cl oud
TOK IO
イ スト
ミ ヒャ
九 重
信 管
初 号
座 間
田 沢
荏 原
チャ ーム
ラス ・
ステー キ
種子 島
競り 合い
ガ ク
算 術
39 9
ア ラム
天 敵
有 事
真 央
高 潮
アン ネ
H KT
ジ カ
乗 機
勿 論
段 位
猛 攻
美 しき
過 ち
フィ オ
FL ASH
Andre w
и т
ベ ージ
宗 我部
強 気
橙 色
長 宗我部
カル メン
ピーター ズ
ヤ ッ
原 語
堅 い
自 前
若 草
メイ ヤー
各 町
固 い
塚 田
網 膜
論 議
グラ ナダ
55 6
t our
エ ヴォ
ト オル
ヘ ス
勝 頼
往 路
由 佳
額 面
34 3
MO T
DE AD
鍛冶 屋
マ ージ
勇 士
苗 代
ショ ア
29 2
Wil helm
映し 出さ
宝 字
栗 橋
石 高
藩 邸
ライ エン
ブリ タニア
フー ガ
4 35
ま め
る り
原 村
承 久
電 王
アル ク
17 68
de pend
アキ バ
oun tain
P W
R UN
S X
イ ースター
宮 野
帰 れ
慣 用
戒 名
日 東
機 運
総 省
かけ 離れ
ま える
上 島
ミル ズ
BL ITZ
インフィニ ティ
ア コ
ソ ケット
弘 治
海 野
都 道府
al bum
フォ ーン
シア ス
ビル ダー
のぼ っ
Rail way
人 びと
桜 庭
気 まぐれ
無 垢
雑 種
タウン シップ
エド ウィン
イノ シシ
g es
マ ルト
口 上
同 会
落 雷
29 7
スラ ブ
ディレ クトリ
プラン クトン
F amily
な せ
ホ タル
事 後
五 日市
士 郎
康 成
愚 か
複 座
ar is
ヴェ ルト
ノー ラ
トー キー
ホッ パー
パ シャ
今 野
低 木
揃 う
連 座
院 本
アカデ ミア
ボウ イ
隠れ 家
フロッ ピー
カ ステ
ギ ザ
マ ウリ
・ ラー
和 紙
雅 美
or us
キュー レ
取り締 まり
P sy
S QU
タ トゥー
乗 ら
南 条
模 写
退 所
骨 董
ラン ゲン
すぐ れ
Re f
F ab
パ レルモ
初 段
小 幡
巨 星
帯 刀
廃 盤
明 暦
猟 兵
褒 美
貧 弱
コン デン
トー キョー
FI RE
ロウ ズ
ヴェー ダ
O A
さ ば
ち と
カ ボ
官 報
復 路
校 訂
河 辺
短 剣
エリー ザ
みなと みらい
K ind
ッ ロ
パ トロン
嘆 い
愛 着
重 厚
モン タ
インター セプト
OR E
アウト ドア
ah r
ストレ ッチ
ま わし
低 圧
切 替
ガー ランド
SO HC
pro ject
ハイン ツ
春風 亭
テ ラー
原 形
定 価
瀋 陽
苦 難
藻 類
黙 認
it an
組み 込む
組合 せ
b and
ウ ガ
勝 彦
姶 良
成 型
ビー イング
ジャー ニー
プレ スト
60 3
S em
ゴ ク
仲 良し
捕 まり
股 間
貸 借
とも なっ
エイ チ
DO G
フェラー ゼ
ソ チ
タ ックス
書 評
追 討
SP D
ا ن
信 一
梅 津
買 取
落ち 着き
マッ キン
Ar m
サンド イッチ
t ic
ご ん
ち っ
コ リア
ユ メ
丸 善
和 人
宇 津
10 80
ロー ガン
JR N
IP v
夏 場
小 津
散 っ
バー ベ
タイ ツ
入れ よう
ed a
FI R
ビリ オン
Tr ue
? -
g eb
く も
ピ チ
ポ チ
妊 婦
深 層
肥 沃
自 負
街 角
降 ら
買い 取っ
org an
H UN
」 -
ト ロッコ
天 長
昌 平
遺 志
ワンダー ランド
ド レッド
充 てる
八 景
如 意
月 夜
ホン ジュラス
リッ パー
Aut om
L ord
ゼ ミナール
会 費
土 橋
ダー ゼ
ac le
ダ ネ
マ ミ
仕 業
労 組
大 湊
所 轄
敵 国
歳 時
浪 漫
特 区
申 込
目 付
葉 柄
コン ソー
ST EP
天平 宝字
Adv anced
B RA
ぬ ま
天 秤
末 吉
歩 ん
浅 見
ター リ
om et
ox id
じ き
ザ レス
信 子
削 っ
有 意
汚 い
温 和
オト ナ
L ud
g ht
か の
励 起
有 益
爆 乳
裕 一
遺 骸
シネマ ズ
Int ro
架け 替え
ア ユ
扁 平
日 照
聡 明
香 水
オス カル
オーディ ン
カウ ボーイ
エント ランス
MID I
アトレ ティコ
ア ラー
・ ミ
余 命
南 蛮
島 本
概 して
17 64
ブレー ク
T ele
ド ラン
井 筒
土 師
正 日
発 情
駅 弁
re y
ホロ コースト
4 34
有 識
線 量
as k
J os
W ave
ベ ジ
刺 繍
削 ら
安 室
寺 山
常 緑
憎 ん
翻 案
覗 き
マゼ ラン
ヒ ッター
古 書
盛 大
香 美
23 00
なが わ
th is
アレクサンド ラ
Class ic
e v
傷 つい
川 尻
穂 高
バイ キング
』 ,
セ レッ
好 か
田 宮
黄 泉
イル ム
アリ シア
M OS
健 治
小 橋
黄 河
ベッ テル
丸 型
追 従
鍼 灸
17 73
生まれ 変わり
LE SS
Gu ide
コロッ ケ
B UM
内 線
冷 泉
サイバ トロン
A le
で も
ビ ショップ
モ ザン
協 働
白 衣
皇 国
里 美
エイド リアン
ウ エル
ロ レーヌ
参 宮
本 巣
進 藤
ウィ ウス
ch ange
クリ ティカル
hyth m
ジ プシー
ピ ナ
接 戦
水 温
閉 ざ
コンピュー ティング
しゃ べる
osh i
A st
在 宅
決 壊
稲 川
聖 戦
論 集
黒 岩
リー ノ
ロー レン
ヴェ リ
カン ダ
8 20
L am
た の
企 ん
吸 っ
方 策
直 也
農 夫
駿 府
とん でも
エクリ プス
メ テオ
執 権
バー モント
リスト ラ
AD Y
ハル カ
ang er
コンパ ニオン
M ath
ホ ア
慎 一
拝 謁
瀬 田
男 鹿
群 集
見 地
郷 村
SE E
林 田
遊 べる
15 73
丸 井
勅 使
絞 首
自 明
ファ ール
キャラ メル
トン ガ
ム スタ
太 宗
損 なわ
暴 徒
シュ ター
カン プ
57 5
ブー タン
コンソー シアム
で しょ
孤 島
月 山
祐 一
親 鸞
非 道
グロ リア
歌舞伎 町
エイブラ ハム
ニ ート
中 空
二 の丸
根 幹
科 長
装 弾
誅 殺
貯 め
鹿 沼
麻 原
サン フレ
DE ST
グレイ ス
ビュ アー
上手 い
9 30
懐 かし
手 中
鉱 床
立ち 上がり
清 正
漢 語
現 われ
デイ ジー
ニワ トリ
イージ ス
M ER
劣 等
星 間
武 功
長 慶
アメ ン
掛け 合い
クリー ニング
H ER
本 城
聴 か
輪 廻
レイ ノルズ
ハル ビン
エリーザ ベト
) [
剰 余
潰 瘍
西 晋
試 写
陽 炎
15 92
レン ダリング
ストラ ク
po int
F ish
東 風
横 井
段 差
疾 走
ジョ エル
よろ しく
た どる
モ グラ
祥 子
イン カ
クロ エ
シャー リー
オーバー ホール
ピカ ソ
v ision
オ バ
ヤ ミ
ラ ウル
光 り
散 逸
新 村
笛 吹
葺 き
隆 史
チェ ア
ハッ スル
エコ ノミ
L UN
S et
さ ぶろう
や い
共 犯
河 畔
真 紀
触 角
適 さ
フリー ザ
ひら がな
Gov ern
M bps
t op
に っ
信 彦
大 本
持 病
無 尽
石 棺
バー ランド
ガル タ
ジョー イ
たた み
I mp
ヌ クレオ
二 俣
号 泣
当 代
根 強い
芽 生え
雑 草
17 56
付け 根
led ge
K OR
U I
V iew
リ ベラ
勧 業
松 方
落 馬
Wik ipedia
モザン ビーク
h ouse
夏 美
大 河原
時 津
胃 腸
露 呈
考え れ
34 9
振り 回し
UR L
ミネ ーター
M ain
T el
V ill
t z
ニ ッチ
ペ ラー
ホ エ
マ コト
メ ジロ
五 木
債 券
掻 き
月 日
浮 標
秘 伝
録 り
ツェ ルン
L ost
奇 抜
文 理
新 馬
濱 田
ステ ファ
ヴァ ス
39 5
For m
Hist or
インペ リアル
S ite
W at
ビ ション
・ ポ
啓 示
建 材
深 かっ
燃 やす
ダル ム
おも な
ぶ つける
ド ルー
上 品
仕 上がっ
北 斉
北 沢
和 久
対 角
橋 下
氏 子
自 閉
超 絶
ジェ ダイ
まと い
積み 上げ
B oo
ケ 崎
シ モンズ
会 報
雅 治
17 01
ージ ング
35 2
stru ct
サルバ ドル
ジ ーンズ
ナ タリー
城 館
廃 部
怯 え
玉 井
神 祇
スト ロン
スラ スター
IV A
盛り 上がっ
Col or
CHO OL
M Z
ä r
に ょ
フ ツ
凝 縮
器 楽
尺 度
慰 め
指 紋
整 える
東 松山
義 満
47 6
p ect
克 己
揮 発
陰 茎
領 海
クラ ッ
あえ ず
一 之
外 縁
帰 省
断 言
豪 雪
響 く
ist ry
オル フェ
後ろ 盾
踊り 子
ダ クト
卓 也
弘 安
旭 町
沙 羅
潜 ん
追 憶
スピ ッツ
らっ しゃ
セレッ ソ
W ake
d f
ハ イト
ヤ コ
家 長
束 縛
タイ タ
不可 解
tra x
染 料
難 しかっ
露 わ
レー ズ
トラ ベ
ボル ボ
アメー バ
s in
リ テール
文 彦
ウィ ア
ひろ ゆき
置き 去り
マグ ナ
Dr ive
WC W
Y AM
グ ナ
三 橋
上 着
本 船
欠 落
足 止め
オー ギュ
ell i
い よい
ス モー
チ ロ
ル テ
似 顔
建 久
アル コ
かつ ら
ent ial
45 1
遠ざ かっ
いよい よ
H an
z ur
コ ーク
デ ブ
徳 光
日 豊
水 運
ブラ フ
fl o
ひそ か
K YO
・ モ
下 呂
入 換
出 火
布 志
志 布志
怪 異
拝 領
横 行
流 線
無 法
蒐 集
藤 野
輪 郭
17 55
アス ファルト
ヴィン チ
ト ピア
17 07
16 14
まり あ
飛び 出す
ネプ チューン
ジンバ ブエ
ジ マ
信 之
帰 ろう
早 見
蛇 行
チャン プ
シェ ール
タヌ キ
なご や
失 意
小 次郎
崩 さ
語 句
ser ies
Acade my
ビ レ
接 尾
球 速
クロ フォード
ヨーク シャー
バグ ダード
ストラス ブール
信 憑
出 迎え
双 対
大 永
過 熱
香 辛
oc o
You tube
ヘルス ケア
ゲレン デ
P en
し っ
悪 名
本 場
流 血
純 一郎
エル ヴィス
ミリ タリー
Gold en
y m
ソ ヴィ
印 字
名 山
市 会
強 み
控 える
民 権
SE AS
ド ント
新 座
関 取
髑 髏
コー エン
クリ シュナ
追い 込み
Al bert
ウィン ストン
プレゼン テーション
z i
ト ナ
平 沼
攻 城
プロダ クツ
H OP
固 辞
新 谷
チェン バレン
マッ キ
ace ae
ふじ わら
う さ
か ぶり
架 設
集 う
バー ニング
17 65
s ki
仕 官
定 まっ
水 彩
無 能
選 集
里 山
シェ フィールド
スピ ル
Sh ad
De part
シュー ベルト
enn is
C IR
カ ステル
潜 む
薬 莢
47 7
' )
M ap
R i
è re
ワ タル
娘 役
幸 夫
盗 撮
長 春
プロダ クト
高松 宮
クォ ーク
アング ロ
Z ARD
ウ ・
南 アルプス
大 徳
室 戸
小 結
残 基
離 宮
テレ パシー
カラ ダ
テア トル
COMP LE
C ass
ペ ティ
伍 長
左 肩
庶 流
惨 事
扇 状
摩 耶
有 価
港 南
まる 子
ウィン チェスター
オロ チ
ジュネー ブ
Expl or
南 原
常 侍
法 隆
15 80
デスト ロイ
エスパー ニャ
O pt
お おい
ザ グレブ
リ ミット
不 純
創 生
和 製
道 子
15 85
de f
ヤマ ダ
抗 菌
迫 力
ニュー サウス
K m
ä n
柚 木
祝 っ
行 おう
on i
スク リー
もら おう
C in
P ers
サ ソリ
or row
コー ネル
グラン パス
co de
gen ase
織り 交ぜ
p an
出 勤
塩 屋
大 助
左 上
瀕 し
or ial
ヴィ ット
ron ic
コンティ ニュー
9 10
先 史
叛 乱
引 越し
逃 避
鶏 肉
ar o
EN A
振り 分け
メッ センジャー
ギン ガ
ふ っ
三 池
パワ プロ
ヘラ ルド
ピ リオ
修 一
天 真
弊 害
火 砲
相 原
アー リー
フォル テ
培 地
寒 川
康 弘
悔 し
明 仁
殊 勲
突 く
47 2
ハ ース
二 女
化 す
姓 名
情 け
武 井
貰 い
リン ・
マー リンズ
勝ち 星
Un ix
D K
ガ ナ
小 金
明 ける
索 敵
ヴィ クト
メッ カ
O ur
ミ ントン
外 道
生 ずる
装 い
ジャ ネット
AR O
ウェー バー
しみ ず
F ron
b ay
の べ
比 企
葡 萄
諸 将
es c
us ion
襲いか かる
Educ ation
h ome
些 細
岩 礁
書 け
義 仲
誠 司
鹿 角
ジュ ビロ
De ep
S in
n av
カ ラン
叡 山
尚 子
ファ クター
カレ ル
尽く さ
h um
つ む
デ スティ
廃 城
杉 村
磐 城
リア クション
oc a
Mot or
シ ビル
ト ピ
弾 正
散 在
散 文
バー ネット
宝 くじ
盟 約
茂 樹
鬼 神
50 4
生まれ 育っ
キン ガム
アム ール
N ON
Z one
侍 中
公 私
投 棄
日 展
ファン ディング
ニューサウス ウェールズ
ア フレ
ハ ワー
周 遊
大 聖
電 卓
50 3
ほと り
TV CM
ブレ ター
ッ サンス
敢 闘
昨 日
雲 仙
ディレ クション
ク ッション
在 家
宿 屋
快 活
溜 まっ
騒 乱
is er
スー ペル
per t
M ah
将 門
放 さ
棋 聖
サンフレ ッチェ
グ ルト
友 愛
真 庭
茹 で
荻 窪
スティーブン ス
Wal ter
4 11
ス ッキリ
味 覚
外 洋
尊 厳
47 5
マリ ノ
ö n
ち ちん
セ イル
ナ ター
ヨ リ
分 派
安 佐
テレ ポート
ブラ インド
36 7
ラブ リー
ぷい ぷい
カトリー ヌ
ちちん ぷいぷい
ã o
山 羊
山 里
感 心
晴 明
羽 鳥
花 道
p y
偏 差
八 女
岩 盤
em an
ハル ヒ
u ya
別 種
17 40
33 7
アザ ラシ
も じ
ド ロス
投 射
玉 野
直 筆
雷 神
Coun cil
3 28
G F
ベ イン
低 め
加 須
彫 ら
果 敢
漁 村
終 息
見 做
重 み
ロー デ
AL BUM
リャ ー
確か める
VO ICE
ネイション ズ
ステュ アート
C NN
に じ
デ ズ
フ ョ
マ クス
体 現
小 渕
攻 守
砕 け
駆 る
ロング アイランド
たどり 着く
T AC
T WO
あ じ
の 手
バ ・
ホ スピ
トル ネード
パン プ
スティ ル
ウィン ザー
ぶつ かっ
v ed
あ いち
ソ サ
住 之江
北 線
探 せ
略 号
絡 ま
錯 体
17 61
а л
け が
秀 次
龍 造寺
スト ーク
16 01
ハン ディ
ゆう じ
6 39
半 月
標 津
ザウ ルス
m ×
折 衷
独 唱
引き 裂
ダン シング
クライ シス
ニュ アンス
コメ ディー
プルト ニウム
A ge
H AN
与 野
定 型
白 兵
福 神
老 化
16 89
クラ ム
逃げ 込ん
cl ub
Sec urity
Boy s
ビ ジャ
作 文
徹 子
谷 崎
難 解
17 69
チュ ラ
ビン ゴ
ME GA
スリー ブ
オマ ーン
ロジ ック
K now
V AL
し ろう
は せ
ま わる
ヂ ストン
他 局
国 共
由 衣
ハー フェン
Ch o
SE T
ホル ヘ
置き 換
みず から
ゴッ ホ
K un
ネ メ
厳 し
取り 囲む
バン ディ
ブリ ヂストン
70 2
引っ 張り
モンゴ メリー
4 48
d et
グ ミ
振 幅
気 遣
紙 芝居
行 商
赤 木
連 中
34 1
とり あえず
振る 舞う
フェルディナ ンド
VV VF
し だい
ソ マリ
モ ダニ
ヤ ロス
不 和
昆 布
項 羽
イン コ
ch a
ジア ゼ
あら わす
On ly
ヒン ディー
.. .,
g ood
ス ナップ
ヒ エ
盗 聴
絶 っ
オン リー
編み 出し
伯 母
方 々
林 原
被 曝
17 30
フェ ノール
ブレイ カー
べ い
セ ビ
ハ イル
ル ビン
主 審
原 本
湖 西
草 子
軟 骨
17 04
読み 取り
Beaut iful
5 25
H AR
J ones
M os
あ たら
た どっ
ま ー
卑 怯
山 水
棲 息
節 足
ak es
Con st
バリ トン
クロム ウェル
与謝 野
プレジ デント
ドルト ムント
お 茶の水
海 路
竹 山
船 上
門 真
サイ マル
UN G
プラン ナー
G IN
み ほ
北 総
形 跡
春 夏
附 近
アスレ ティック
オリオン ズ
fun ction
ご ろう
ア ベル
ガ シ
サ ット
分 別
割 る
玉 城
調 書
しん じ
ウェン ディ
Je ff
L ind
h ol
せ れ
セ ラーズ
円 山
冷 たく
完 敗
特 長
養 う
ストー ブ
バース デー
コーカ サス
づ る
ふ ざけ
総 力
訪 ねる
ニー ニ
クレ メンス
BO DY
サラ マン
7 40
グ リア
審 問
引 け
板 東
ドー レ
te gr
NO T
S en
エ プ
キ オ
ル ード
可 憐
肋 骨
良 太
高 角
アン ジュ
34 6
チョ ク
9 40
主 星
延 ばし
緊 密
送 受信
険 悪
17 71
AS IN
まつ だ
A i
C LE
ソ リスト
フ セイン
志 士
玉 木
苦 境
軟 禁
16 80
くま もと
マ デ
洋 式
遠 慮
かけ ら
ティー ズ
てん かん
T ouch
一 望
不 発
入 園
変 圧
大 修
大 曲
輸 血
切り 捨て
An other
ワイ オ
Th ree
L IN
下 谷
勉 学
同 数
新 米
ジュ ニ
ダム ス
イタリア ン
っぱ なし
D N
似 せ
御 坊
暴 言
葬 式
閻 魔
ネ ール
ム リン
ユ カ
主 食
植 栽
藤 島
表 層
足 軽
軍 法
テレ フォン
K y
ゲ ッツ
大 洗
延 享
悩 ま
モノ ラル
て は
手 入れ
棲 む
武 彦
片 瀬
稼 業
結 実
マル シェ
オート マチック
D AI
ウ エイト
大 高
浪 花
満 鉄
眠 ら
綿 花
隧 道
音 痴
ライ ザ
ダイ ク
NH L
ドゥ ・
SWE ET
w el
副 葬
唐 沢
増 結
天 領
漢 学
17 57
引き 取る
シュル ツ
ニュート リノ
ホプ キンス
エ スコ
モ ック
人 命
夏 樹
戸 長
着 弾
行 司
むす び
マラー ター
三 百
持ち 上がっ
押し 寄せ
ミキ サー
Prem ium
ウラジオ ストク
S ign
p at
ベ イル
体 表
嗅 覚
大 須
小 作
幸 男
征 討
17 45
17 59
スケ ル
ダーク ネス
ジェロ ーム
いづ み
F ull
整 流
来 年
毎 分
片 思い
ロマネ スク
カ ゼ
バ ッチ
体 外
失 態
甲 羅
美 代子
英 字
豊 洲
長 坂
al is
トロ ス
クル アーン
コート ジボ
築き 上げ
G III
M ol
ビ ーン
係 留
小 岩
広 尾
松 木
藤 木
ら せん
ア クリル
カ ダ
北 周
終 生
義 貞
見 世
貧 血
駆 潜
お でん
ニ ーク
出 回っ
局 番
桔 梗
自 責
鋸 歯
The ater
打ち 込む
TR PG
つな げ
F ES
h is
ふ き
カ ウル
大 熊
忠 雄
コン パス
ヒー リング
EX PO
パフォー マー
アイダ ホ
し ち
シ ギ
ダ ブ
固 執
女 帝
弥 勒
気 さく
重 んじる
伊勢 丹
生い 立ち
エ バン
厳 選
官 立
小 板
平 昌
東 和
気 軽
私 塾
英 子
頭 数
T an
ぷ ち
ヒ ドラ
売 れる
大 淀
徴 税
敬 称
金 谷
タン ス
and o
リエ ッタ
ケラト プス
9 90
乳 幼児
CO VID
sp ace
NET WORK
5 90
C iel
r ia
こ つ
ひ つ
り な
ア マル
モ ジュ
吸 う
幾 多
氷 期
貫 か
使い 捨て
ムル ーク
ゲッ ティンゲン
ソヴィ エト
K G
休 眠
殴 打
聖 武
アー ゼ
ハン サム
ST AND
言い 換え
Te ch
ヴァージ ニア
H o
み よし
ア クス
千 恵
民 部
真 野
西 浦
サン ボ
ヴェント ス
ケ ム
一 輝
凄 腕
揃 える
曹 長
引き 合い
コル ベット
istr ict
コートジボ ワール
4 39
ひ ざ
別 院
日 新
種 付け
設 営
ニー ・
ナオ ミ
プロバイ ダ
かろう じて
K ON
T BC
ア ヒル
平 然
廿 日市
戸 山
メイ プル
TAK E
Jun ior
カンピオナ ート・
k l
ア オイ
ル ックス
中 米
先 物
天 外
旺 文
有 様
譲 歩
赤 子
造 幣
ベイ リー
X L
あ がる
ク ェ
テ ディ
ユ ヴェントス
ロ イト
京 平
廃 さ
永 平
試 薬
17 62
Com e
けい こ
レシー バー
P ad
き のこ
at re
カタ リナ
MON KEY
レ ブ
丹 下
凄 い
宇 喜多
ライ オ
ビー ノ
スイ ミング
FIR ST
エ サ
松 葉
礼 子
雑 音
ティ ガ
スク ーター
シン ・
55 00
ニン テ
エリザ ベート
H ell
K ore
し ずか
エ スター
ケ トン
浸 食
開 運
17 16
Al leg
シロ ップ
O PS
S ak
ま じめ
宿 る
磐 梯
翼 賛
貰 う
パー ン
38 4
全日 空
上 中
宮 脇
本 節
疎 遠
算 定
鑑 別
プロ ム
フラ メン
安曇 野
ハ バ
ポ ウ
修 斗
妙 心
羞 恥
チョ ル
Wrest ling
ね がい
ア リオ
ノ ミー
野 営
レイ ア
グリ フィス
ニン ニク
W ON
つ げ
ウ マイヤ
シ トロ
今 宮
大 男
炸 裂
総 覧
繋 げ
陥 れ
雅 楽
15 60
マン サ
ul u
7 21
C ro
C CD
G il
S MI
保 釈
渾 名
用 例
白 虎
西 谷
ar u
マリ ウス
フェル ミ
レンタ カー
K al
も え
叙 位
徘 徊
直 江津
硬 く
義 元
譲 位
オブ ライエン
シャン ソン
PC I
バク テリア
帯び る
6 70
O ID
び こ
オ フェンス
写 実
唱 歌
学 徒
川 合
ティ スタ
テン ソル
pt s
H r
う そ
た ず
ち え
オ ア
任 用
木 々
末 梢
結 節
臣 従
St ars
パラ マウント
T en
し し
ぬ け
ス ブルク
プ ジョー
ベ ーカー
リ プ
色 違い
遙 か
イン カレ
35 3
ニン ジン
E in
促 さ
境 川
寅 次郎
毎 朝
監 理
苦 しめる
キャ ブレター
ol ia
Pent ium
黒竜 江
や わら
役 立っ
揺 る
着 ける
陽 介
とも かく
ポリ ネシア
アキ レス
oust ic
比べ れ
Or der
スプラ ッシュ
ナイア ガラ
つ かん
ヤ ール
埋 まっ
慣 行
書 家
百 恵
鉄 橋
st ation
しょう じ
パル コ
くら ぶ
66 6
ヘイ ブン
アウグスト ゥス
八百 長
デモン ストレーション
ア ヴィ
ヒ ェン
ポ コ
多 聞
村 瀬
追 手
ジャ ク
エン パイア
mic ro
ピリオ ド
n at
奏 でる
尾 形
提 灯
月 島
軍 閥
un ch
グレー プ
ぶつ かり
Fe el
めざ す
マトリ ックス
ハ インド
ロ ロ
国 書
明 美
由 貴
クオリ ティ
R ing
S AI
ふ か
ニ ード
亀 有
十 両
古 都
平 仮名
満 員
食 道
isch er
チャンド ラー
怨 霊
悔 い
溶 かし
舎 弟
高 遠
AS P
飲み 込ま
突っ 込ん
ぺ い
ゥ ーン
ジ アン
一 群
由 子
糸 満
ファ ット
ジョ ーン
ベル ゲン
レイ ジ
G raph
H is
L ie
ピ ント
外 界
射 水
幼 体
真 也
眺 める
端 役
豊 山
00 4
フレ ッチャー
コット ン
あ た
ド レイク
根 底
サイ エン
ニャ ック
見積 もら
PREMI UM
ダルム シュタット
C iv
k et
漂 う
生まれ つき
プレ ッサー
モー タ
Fl or
ひい ては
メ ラーゼ
便 乗
天 白
神 護
er gy
ベル ナ
イズ ム
ネイ サン
河内 長野
El iz
ワイオ ミング
B RO
H IT
み える
キ メラ
会 え
倒 せる
克 彦
残 部
甘 粛
魅 せ
取り 扱わ
ath an
イザ ベラ
ESP N
ミ ミズ
ロ ミオ
三 省
活 気
脚 光
蜂 蜜
調 合
須 恵
ラー ・
ウェイ ク
わい せつ
み み
パ フ
投 開票
殴 る
注 記
鑑 み
カン フー
Co A
たた かい
手の ひら
伝 馬
急 便
爛 漫
ノート ン
MAG IC
N D
固 まっ
夜 空
嫡 流
決 選
真 美
it te
組み 入れ
神宮 前
ユ ング
駄 目
17 51
ミー ナ
HEAV EN
ペ イド
洗 面
通 風
遮 蔽
16 61
all en
Sant a
M IC
み うら
更 改
遷 座
0000 0000
Elect ric
7 62
H L
S CO
ガ ッシュ
紺 野
群 落
re ad
とき わ
ノル マ
ロゴ ス
た まり
ゆ け
グ チ
偉 業
共 役
製 材
ルー ベン
Con s
igh ter
ルネ ッサンス
ヴュル ツブルク
r ough
小 品
弥 富
研 磨
裕 介
郡 制
ヴァ ・
ウン ター
持ち 帰り
ダン ク
パル ティア
幼馴染 み
M IS
R ou
タ ラン
夕 日
方 伯
研 鑽
義 政
銅 山
16 20
it i
45 47
ジー プ
ED ITION
くみ あい
F UT
主 語
厨 房
各 人
天 塩
定 説
桓 武
泉 州
立ち 上がる
8 30
ウ エア
ヘ ラン
全 学
協 約
墳 墓
恵 み
成 仏
最 少
男 系
米 田
静 的
レイ ナ
L ake
セ ト
テ ナー
宜 野
従 順
田 所
笹 川
虚 無
見 知ら
から かわ
ブランド ン
しっかり 者
再 帰
唐 辛子
微 量
謳 っ
46 5
カタ パルト
グロ スター
Rain bow
3 27
M ün
d le
ビ ティ
有 斐
矢 倉
荷 台
アッ コ
ロング ヘア
サンタ クロース
市町村 名
ジ ック
乱 射
享 和
山 賊
順 一
ライ ア
ヨー テ
デイ ビス
Py thon
P iT
モ ラル
悲 鳴
達 夫
Ch annel
C W
う ろ
か が
パ オ
戻 れ
模 式
草 稿
走 破
道 頓
サー サーン
トゥ ム
もう ける
web site
道頓 堀
ヘ テロ
ペ コ
北 伐
印 章
横 た
草 彅
持ち 歩い
よし お
r as
募 り
烏 帽子
霊 魂
ピア ース
キ ・
優 美
単 離
危 ぶ
多 喜
草 創
負 わさ
ボル ネオ
ふく おか
9 20
ア リアン
ド ッジ
刻 む
常 温
金 具
チョ ロ
真っ 直ぐ
エッセイ スト
ハジ メ
h al
い せ
寛 平
毛 色
義 隆
羽 越
若 頭
組み 合わさ
ビリ ヤード
ノ 口
十 兵衛
戦 地
拒 み
正 太郎
無 き
物 腰
鬼 塚
ig o
58 2
Ar my
差し 出し
モニ タ
Friend s
T ON
ス エズ
三 星
子 午
拘 留
番 人
ヴェル ナー
Phil ip
Sim on
а т
侵 さ
後 端
看 病
st udio
3 166
H om
だ く
コ メット
マ カロ
両 翼
元 弘
恐 る
摂 関
新 開
海 産
湯 本
現 物
耐 熱
裕 司
Bro ad
もみ じ
P CM
_ _
初 見
左 折
沸 騰
章 太郎
競 演
陳 列
フロ イト
ard o
セオ ドア
兆 候
劣 悪
南 武
朝 陽
未 詳
校 旗
アル カナ
ココ ナッツ
ウズベ ク
那珂 川
々 線
ぃ む
や せ
ゴ ロー
ス ミレ
ツ ツジ
ラ キ
峰 山
昔 話
複 々線
15 84
oc r
くり ぃむ
UND ER
Drum s
L os
W ord
l en
m ill
リ フォーム
形 而
油 絵
48 1
tr ack
ヘキサ ゴン
サヴォ イア
A ven
ふ ゆ
チ チ
ビ エン
保 土
偏 っ
岩 山
愛 川
手 稲
海 難
町 史
社 格
見 下ろす
EX TRA
フレス コ
マ ムルーク
レ ゾ
暖 かい
目 処
テレ 朝
17 14
マル グリット
0 67
や きゅう
レ リーフ
元 妻
恩 人
杏 奈
磁 力
キャバ クラ
Z ero
b ell
包 帯
善 良
埋 もれ
大 義
産 交
精 華
17 67
パウ ダー
突っ 込み
じ つ
ド ノ
ノ ルド
公 達
神 主
軋 轢
00 6
17 11
ゴン ザレス
Ch ic
ベー ダー
UT ION
ツン デレ
スプリ ット
上 本町
先 々
和 正
藩 内
貨 客
バス コ
ビス コ
AI M
ベア リング
カンタ ベリー
な あ
ア ヘン
ツ ナ
ヤ オ
リ ベルタ
山 奥
華 僑
Ch urch
L at
m ot
ジ ノ
ポ ラリー
リ ポ
五 反田
千 原
回 遊
斬 っ
素 行
計 略
豊 崎
鉄 腕
AR TS
ブルジョ ワ
な つき
の き
セ コンド
ヨ ア
体 液
撒 き
歳 入
越 さ
送 検
バカ ボン
あこ がれ
シ ケ
ヘ イル
来 襲
盟 主
記 法
辞 表
適 格
モン ス
ロッ サ
駆け 落ち
ax y
カ リア
ガ ーン
マ タイ
原 野
塚 原
走 査
17 66
マル クト
GR AND
チェロ キー
阿倍 野
ル ッ
ロ チェスター
与 し
再 審
名 刺
皇 紀
肉 眼
すれ 違い
Se e
Ad vent
FR I
カミー ユ
E ST
上 達
清 流
道 士
50 6
ブリス ベン
G II
ホ ルト
勇 人
神 岡
花 鳥
蹴 球
鎮 痛
降 し
OP BF
じゅ つ
ま わっ
む き
低 空
何 百
再 版
困 ら
掲 揚
擦 り
諸 元
シェ イク
バッ ター
引っ 張っ
Her o
G TO
L il
カ プリ
カ ッツ
ト イズ
ミ ハイ
和 美
後 尾
究 明
突 厥
織 機
美 祢
アンダー グラウンド
ゲオル ギ
仕方 なく
太宰 府
W ash
ア ストン
エ ヴァー
城 門
宇 品
放 す
討 っ
記 章
かず お
"、 "
E th
J ACK
乱 舞
外 板
奉 還
琢 磨
義 光
脱 い
訳 詞
転 籍
雄 三
Pr im
It al
M BA
W ING
叱 咤
土 肥
敵 陣
町 中
IN Y
津田 沼
ハリス ン
シュタイ ナー
m obile
ど く
フ ラム
ボ イル
ヤ ッター
亘 理
同 形
和 約
対 数
正 道
独 走
節 目
アウ レ
ワンダ フル
W N
サ モ
ベ リアル
ユ イ
同 機
帝 室
秘 話
長 沙
の 素
ほ えろ
・ レ
信 楽
味 の素
空 腹
茶 室
ダイ オード
呼び 捨て
UN K
マルティ ネス
l ist
ブ ギ
増 量
安 易
揉 め
正 し
漁 場
西 域
バッ キンガム
イニ シア
U V
バ ウム
メ ッシュ
撮 ら
生 かす
税 込
ジョ イス
アン バサ
思い 入れ
ヴォ ロ
ess ion
売り 出し
ビ ルト
ヴ ュー
北 越
岡 谷
悪 口
晴 天
浜 村
ティ モール
シュ リー
薬師 寺
万 引き
師 弟
民 社
皮 革
能 美
キャ バレー
アフリカ ン
I BC
T oy
и м
ひ っくり
家 来
流 水
略 語
en ch
16 90
思い つい
ギン ズ
コンテン ポラリー
v ideo
ゾ ラ
ム アン
・ グ
昇 天
浅 瀬
バン ダ
33 2
巻き 込む
まさ み
ミヒャ エル
タイタ ニック
モ ートン
ワ カ
交 雑
尾 鷲
ルシ ファー
デ ミ
永 楽
求 刑
見 当たら
住み 込み
ドミ トリー
Cry stal
う っかり
チ ド
両 論
争 点
憂 い
百 景
相 愛
it ary
ien ces
A z
T UR
『 '
兵 糧
卑 劣
憂 慮
晒 し
県 連
道 筋
モニ ウム
あず ま
し ぶ
分 流
名 主
奪 おう
新 一
淘 汰
溜 池
競 売
草 食
in to
16 03
ニコ フ
Sh ort
逃げ 出す
isc o
Plan et
G ab
p al
ク エ
地 誌
夕 陽
留 年
盗 む
真 核
豪 商
転 がり
en c
17 02
LI MIT
way s
デスト ロン
ひ も
一 役
修 司
俳 諧
家 名
幕 臣
感 化
手 柄
査 定
根 津
田 沼
真 里
福 沢
00 5
付き 人
たた き
g em
i y
z one
つ まら
ど ー
バ リン
実 科
洋 風
洋 館
誌 面
賑 わい
逆 手
野 蛮
錯 乱
雨 量
マル コム
Ob ject
S CHOOL
つ まみ
ジ エン
前 立
北 里
広 葉
炒 め
裏 付ける
課 す
un ity
プラ ウ
ri x
振り 返り
H M
S ie
エ マー
ニ ジ
ロ ラン
仰 天
円 周
斬 撃
築 港
見 合わせ
まり や
かか わっ
ノイ マン
フ レン
モ ミ
断 固
受け 持つ
ドリ ブル
アダ プタ
Y ak
b ro
ゲ イト
免 職
モノ コック
ドラッグ ストア
ホ ント
前 秦
品 位
締 約
送 球
Pr ince
マイル ズ
フェミニ スト
C i
か がみ
ご っ
傷 つける
毒 物
流 下
義 和
芝 山
打ち 立て
リエ ージュ
テム ズ
サブ ユニット
はる み
NI K
コ サ
ネ ム
ミ ラル
下 座
享 受
優 越
勝 り
浜 辺
閉 め
ジャ ール
ロー レル
ipp on
ジ ク
ヘ プ
愚 痴
新 市
流 失
パン ジー
バル ク
みち る
L PGA
ゆ とり
グ ール
モ ラン
東 陽
竹 林
終 電
聖 火
草 分け
見 据え
逸 見
降 ろ
シー サイド
45 00
置き 場
アイゼン ハワー
Y es
カ ジュアル
日 英
波 乱
清 隆
溺 死
グリ ニ
ガ スト
シ モー
モ スラ
塗 布
宏 一
紅 組
銃 口
プロ グレス
サイ ケ
ハム レット
Econom ic
上 顎
悪 行
暗 黙
金 型
ウィ リス
チョ イス
OK I
不死 身
R and
ち あき
む け
・ ディ
外 人
外 食
ian ce
あしら わ
ベ ロス
リ チャーズ
善 戦
奥 行き
就 寝
年 収
サイ クロ
マー ブル
エク セル
ダ・ ヴィンチ
バンダイナムコ ゲームス
e qu
え ち
加 山
勝 訴
性 器
最 善
称 える
on om
ップ ラー
ノストラ ダムス
F ACE
フ ティ
前 駆
実 刑
スト レンジ
15 98
ステ ッキ
カツ ラ
Bi ograph
ろ っ
イ ーター
ガ チンコ
与 力
丸 岡
光 雄
加 圧
大 貫
純 度
落 差
まつ もと
ニ ジェール
危 ない
早 坂
涅 槃
碓 氷
郵 送
ロッ テル
44 2
アブラ ハム
北 洋
呂 布
多 気
小 村
草 木
血 栓
BR ID
エレクトロ ニック
か なわ
コ ワ
ゴ スペル
処 せ
千 曲
強 める
目 印
賢 人
リア リズム
ファ ナ
マン デー
マー シュ
いわ て
ホテル ズ
ゴー グ
スピード ウェイ
Sil ver
シノ ニム
小豆 島
さ ぬき
外 山
改 竄
本 属
ベル マーレ
ファン ファーレ
Fran ç
Pol y
William s
ユート ピア
р о
バ ウン
東 光
白 熱
PL AN
F eder
T NA
v ard
主 治
俊 輔
大 全
手 渡し
藤 吉
見 抜き
とっ て
YU KI
Fore ver
B K
D am
I Z
w an
ラ タ
ラ ックス
即 応
各 巻
小 高
競 っ
ワイ リー
man ia
a Pa
ま とう
ク アラ
在 地
明 晰
牛 久
h u
健 次郎
僧 正
咸 鏡
揚 州
箕 輪
自 画
裁 き
アウ ター
テイ チク
ロジャー ズ
PiT aPa
け り
ヶ 村
剥 離
平 次
正 木
濱 口
瓦 斯
真 打
17 54
カー ペン
モン ケ
コレ ラ
可愛 らしい
向こう 側
チ ノ
ッ セン
ハ サミ
井 手
利 息
敗 訴
暑 い
笑 点
美 形
アント ラーズ
マリー ア
sc ape
ディストリビュー ション
e i
ぐ らし
嶋 田
投 じる
真 上
ファ サード
ダー リン
ヴァ レー
キュ ート
バッ キング
Mo z
Bro thers
DREAM S
印 西
小 中学
弘 道
選 奨
en z
チェ ク
生まれ 変わっ
au f
申し 訳
iz ed
かな え
コカ イン
ジャス ミン
クトゥ ルフ
Mach ine
当ては まる
6 42
D ol
p et
н о
ス ポー
デ ベ
ポ ーク
レ ディング
五 色
正 行
真 司
磐 越
経 年
長 生
ディ ート
ab ility
ぐる ぐる
サリ バン
ニーダー ザクセン
何 十
坑 道
新 藤
高 志
あり さ
サー フ
ジュ エリー
クス ブルク
日暮 里
チュート リアル
アンバサ ダー
D IG
m id
爆 走
的 場
腰 痛
説 か
st ud
ナイト クラブ
崩 す
賢 二
雨 水
マン ・
プリ ル
アラ レ
CAP COM
コルド バ
デ リア
ラ ガー
神 木
しま え
メル ヘン
リッ ペ
積 ま
算 数
38 8
NG C
ロッテル ダム
全 う
取 付
桜 町
綜 合
近 かっ
通 わ
ほど き
プリ マス
39 6
ひで お
VOCAL OID
ネ バー
ミ ディ
入 山
句 集
グラ ウ
フロ スト
ok o
ワル キューレ
とん ぼ
ガミ ラス
d ream
お 腹
併 置
咽 頭
正 美
無 念
生 協
カン ス
Fight ing
お びき
リ コール
横 切る
禅 師
諡 号
責 務
シュ メール
28 00
マネー ジャ
ss on
S ab
お とめ
く せ
と おる
ペ ッパー
万 丈
並 走
会 得
全 開
収 賄
成 蹊
流 儀
羽 後
閉 幕
リア ヌス
as a
あら われ
ナショナル ズ
ラジ カル
SEAS ON
T CP
仁 和
安 積
実 例
神 託
謀 殺
逃 がす
キング ストン
uk a
スロット ル
d ate
j apon
w ig
サ バイ
ミ ケー
久 松
共 栄
神 霊
福 江
聞き つけ
切り裂 く
・ ム
不 向き
全 壊
勝 てる
水 圧
除 雪
um a
コール マン
Br idge
ester n
Jac ob
エキシ ビション
ギ ョン
ゼ ノン
仕 込ま
孝 明
屈 し
湿 っ
石 丸
縮 め
退 会
離 す
og en
ワイ ア
リヒ テン
z ig
し っぽ
寄 合
東 金
知 立
蟹 江
IS M
su per
空き 地
辿り 着い
いの うえ
A DV
企 み
傑 出
大 浜
引 火
簒 奪
遊 離
難 し
チャ ウ
アミ ド
五十 鈴
off icial
D ra
F LOW
W ell
p n
供 出
帰 し
木 崎
汐 留
行 者
被 服
ジャ レ
17 03
フィ ジカル
付け 替え
Sy mph
R G
S ME
サ クソン
ワ イス
同 音
弁 済
溶 融
田 端
アン ダル
チェ イン
Cent re
サマ セット
ヒャ ー
キャロ ライン
パ ビリオン
久 志
永 享
牛 島
税 理
ジャ マ
16 10
8 90
E ye
j u
か える
フ ミ
俊 之
新 港
震 え
15 50
ul f
ドゥ ン
サンタ フェ
ミノル タ
エカテ リーナ
ホ シ
森 村
江 夏
立 野
近 づけ
冊 封
媚 薬
寺 領
広 間
憲 一
旧 高
桃 花
逆 上
ティ ール
17 09
16 09
ハー ディ
アント ワ
S IL
旗 手
税 収
稜 線
蘇 州
袈 裟
アニ マ
ちょ っ
スモ ーク
E mp
T est
ベ リン
モ レ
ヨ ミ
卒 中
変 色
日 銀
祐 子
聞 け
護 身
ブレイ ズ
テ ヘラン
制 する
和 服
端 緒
エル ボー
EN CE
閉ざ さ
J ane
ニ ティ
ヒ レ
・ ミー
左 下
打 破
敷 島
it é
he art
トリ ム
インター ン
宮城 野
カ ティ
紅 蓮
取り 止め
58 1
MP EG
R ud
き か
ら ら
墓 碑
富 野
澤 村
首 班
イン ダ
アウ クスブルク
パワー ズ
ピレ ネー
お ー
イ リュー
デ ポル
・ セ
付 番
侍 郎
城 島
拠 っ
灼 熱
無 謀
耶 律
トラン クス
BM G
カメ レオン
3 29
P F
全 機
ショ ール
トレ ド
se ud
ニ ツァ
学 友
持 久
揺 れる
欠 かさ
武 生
浪 費
界 面
ライ ティング
17 18
Ex per
和 野
威 圧
往 還
正 彦
沈 下
美 幸
臨 み
西 島
郡 司
開 所
ディ ケイド
it ation
オリ ヴィエ
戸惑 い
6 67
H OL
ス ピア
外 郭
散 る
甲 陽
目 白
確 証
靖 子
フェ ード
ヴィ アン
アリ サ
Vir gin
モハ メド
J er
き たし
乾 杯
川 中島
コミ ン
к с
フ イルム
和 議
納 める
越 境
龍 王
ニー チェ
ラム ズ
Dou ble
E ver
G AM
原 口
市 名
溜 まり
理 数
Jo e
N ord
メ キ
一 也
仕 草
日 下部
ジャ ヤ
シャ ノン
Pri x
ヒ マ
フ ウ
フィ ヨ
セル ラー
38 3
かし わ
pres ent
化け 物
E qu
G eschichte
P ict
b ase
p in
一 彦
伊 良
砺 波
茶 碗
菅 谷
衛 兵
親 権
解 ける
象 牙
トラ キア
id ay
AC S
US HI
eb a
中高 生
4 13
A udio
b our
フ レーション
忌 み
梨 花
筒 美
リー ガル
勝ち 鞍
Ar g
のめ り
たまご っち
あ そ
右 近
採 石
継 母
野 砲
70 5
HE Y
シーケン ス
C UP
ゆ ったり
御 史
減 らさ
緩 急
雅 史
馬 名
ジャ ッ
コン バー
シトロ エン
ピ カル
メ フィスト
井 出
江 別
泊 まり
発 育
薬 科
雄 馬
BLO OD
i for
み ゆ
ニ ケ
優 香
元 慶
加 法
労 使
左 利き
月 組
節 度
16 02
ant ic
膨ら ま
ネメ シス
B rian
S ix
s w
ビ ター
京 丹後
崇 め
コン スタント
ランド ルフ
トリ スタン
A qu
ピ サ
ピ ョン
似 通っ
美 鈴
雨 林
テク スト
よし だ
ポリ ゴン
桜木 町
B G
m u
あ らい
か じ
リ ピート
弱 め
楽 しま
苗 木
頭 領
エル ザ
45 3
A er
ク メール
八 千
列 記
好 機
富 む
目 視
縁 談
腕 力
針 葉
霊 能
フィ ロ
ヴィ ト
ブリ タ
Th ank
ひょう きん
X Y
こ っち
は ば
エ リン
レ ーム
・ キ
恒 常
要 綱
アル ゴン
or f
スク リーム
クロ ーム
ハンド ブック
割り 振ら
ele ase
ヨウ 素
アステ カ
K AT
i ón
ソ ールズ
デ マ
叱 ら
膝 蹴り
ヴィ ック
追い つか
かん しゃ
TR ACK
タ ヒ
ミ ルトン
指 先
桶 川
水 星
爆 死
アン ブレラ
入れ 替える
しず おか
GRE EN
危う く
ホエ ールズ
フ ルー
レイ ユ
ke iba
Hi ro
ミハ エル
Vir t
ギロ チン
オ ルト
デ フォルメ
式 場
思 案
有 村
羊 毛
苻 堅
見 越し
リア ント
50 8
od a
Con f
COR E
くじ ら
テュー リンゲン
ブッ ダ
d own
堕 天
当 年
彼 杵
新 横浜
浴 場
海 原
片 仮名
能 動
花 びら
17 22
Blu es
モルド バ
P age
d ing
さ ながら
セ ゾン
人 件
入 出力
図 式
図 ろう
境 港
心 酔
稲 毛
ag n
立ち 並ぶ
37 9
エレ ベータ
セーフ ティ
r ation
ヘ ヴン
下 駄
庶 務
活 力
混 声
船 乗り
邦 子
カル ガリー
35 9
チュー リング
身の 回り
石 津
霞 ヶ浦
16 83
ヨー グルト
おと こ
ダ レ
唾 液
困 る
囲 み
小 湊
御 子
惜 しく
林 野
比 呂
煽 り
男 装
空 虚
美 食
レイ トン
ok a
gr oup
ッテ ナム
N X
S af
千 谷
奥 野
孝 行
守 れ
石 森
カル テル
セレ ウ
T on
一 男
北 家
取 次
山 北
油 脂
発 散
着 艦
見 直す
スキ ーム
ッカ ース
ve y
BAN G
C ru
エ ロス
ガ ヤ
・ ベ
倉 橋
公 女
政 敵
書 士
次 兄
波 羅
米 朝
興 隆
電 離
ポー ション
レッ ティ
リチャード ソン
待ち 受け
s em
ハ サン
中 根
亜 衣
基 隆
サイ ゴン
アナ リスト
ul ation
ヒ ルトン
ヨ ナ
春 菜
時 宗
続 か
膨 れ
ブレ ザー
te am
割り 当てる
兆 し
桐 朋
淫 乱
白 組
葉 書
雑 魚
引き こもり
合 算
慰 問
滑 川
身 動き
長 城
ティー ボ
まと まり
まさ き
吹き 飛ばす
おこ ない
明け 渡し
ムーン ライト
Engine ering
アレキ サンダー
ENO TE
オ ゾン
加 奈子
綴 ら
芸 妓
アイ リーン
et e
ゆう ゆう
かえ り
ッ ディーン
明 夫
液 化
遺 憾
it es
ac c
OR O
Qu est
はし ご
B ib
入 替
居 合
老 衰
FR P
Fre der
トゥール ーズ
Princ ess
ユーティ リティ
N am
供 する
先 取
底 部
発 振
カロ イド
m ir
グ リス
豊 浦
迷 子
17 13
とき どき
バイ ナリ
切り 替わる
s al
チ ロル
勧 進
宇 陀
度 会
忙 しい
物 真似
通 産
鍛 える
ディ エ
it ive
IT T
オラ クル
H ere
K at
U s
だ ろ
ザ ラ
ビ ョ
円 卓
図 会
森 岡
菅 生
融 和
ハン コック
フェン シング
JT B
Vict or
ミケ ラン
L ic
c ry
ホ メ
凡 例
木 内
棚 橋
クリ ュ
37 6
アサ シン
休 ん
会 わ
健 介
捕 り
昇 る
飛 龍
シャ ット
結び 付け
封じ 込め
Oper ation
l ov
っ きり
オ ッズ
ゴ ド
培 っ
多 良
恭 介
殺 虫
濾 過
硬 度
自 認
36 9
An ne
n umber
ス ベルク
ホ ッグ
ラ ツィオ
ヶ 浜
・ ボ
名 東
商 家
神 威
赦 免
鶴 舞
ショ コラ
呼び 掛け
Er ic
ターリ バーン
学 界
秀 才
ジョ ジョ
グロ ース
ki ra
マスカ ット
S AP
ル ポ
同 馬
所 々
片 足
軍 港
錦 町
17 46
27 00
マイ カル
振り 子
if fer
ran g
折り たたみ
As ian
ミキ シング
フェミニ ズム
ド ブ
余 生
前 代
助 詞
幸 手
37 3
ツァ ーリ
JU ST
あつ し
WI TH
M ik
不 滅
委 譲
富 樫
清 洲
玉 座
禅 宗
福 地
竪 穴
纏 う
袁 紹
親 類
AS C
Ch in
ベッド フォード
こな せる
ны й
0 25
R KO
宿 営
東 寺
直 義
粘 液
裏 手
邂 逅
閏 年
頸 城
コレ ステロール
スリー パー
R ON
T ay
ト ニック
辛 辣
農 道
レイ ソル
ノル ム
くら べ
メディ チ
E AR
i D
ヨ セフ
公 館
堀 口
影 武者
惜 しま
益 城
高 卒
ため 池
チャ リ
アニ バー
45 9
Mar ch
マニ フェスト
ブラジ リアン
K am
r ome
ぽ っ
デ フレ
年 刊
灯 籠
芦 原
10 10
H TT
W atch
_ {
エ ノ
ル シア
小 嶋
従 妹
試 算
16 30
ブリ ャ
ポジ ット
マリ リン
ロバート ソン
デリ バリー
マヨ ネーズ
FRE E
ANIM ATION
あ ー
じ こ
イ ール
ム ート
リ セ
奉 じ
特 装
軽 装
食 感
高 峰
17 21
エン ゲルス
かる た
ボン ヌ
ちょ い
担い 手
8 33
ず ん
に こ
キ ド
天 道
星 組
16 40
ブラ チ
NE VER
オル ゴール
叩き つけ
スパー ズ
ば た
ト ッテナム
ル ム
免 れる
川 岸
ロー ヌ
ッチ ュ
ヴェ ローナ
レッ スル
ボ イド
ラ ヴェル
円 墳
妹 尾
戦 える
浦 添
減 税
腕 輪
貸 す
過 給
野 性
17 35
16 44
シャ ナ
ウィ レム
モダニ ズム
g or
ご し
下 津
叩 か
大 嫌い
孔 雀
川 井
年 初
正 信
真 名
17 36
チェ チェン
みや ぎ
DEST INY
M ountain
セ カイ
御 幸
治 す
董 卓
諸 藩
除 幕
ルー ブル
イル ミネーション
ビー フ
ボー ア
ow ers
ミツ バチ
アデ レード
インディペン デント
G OL
L or
Y u
そ な
ザ ワ
義 人
脱 ぎ
豊 原
ガン ガン
KIN ENOTE
フォロ ワー
ツ ノ
ナ デ
丹 沢
北 大路
呼 出
回 天
探 り
無 知
狡 猾
17 48
Re ich
John son
アルビ オン
シュヴァル ツ
い こ
シ エル
佐 用
弁 明
昇 華
浮 動
片 想い
90 2
差し 向け
アタ リ
FE E
Comp lete
YE AR
オデ ッサ
F N
F DA
} }
セ レン
ダ マスカ
刹 那
執 務
官 軍
小 脳
漕 ぎ
硬 直
術 式
ハイ ネ
アラ ジン
MR I
Christ oph
つぶ し
C ook
P erson
ア スペクト
エ ピック
画 し
菱 形
試 す
THE ATER
巻き 上げ
ねじ れ
インス ブルック
スキン ヘッド
Mem ories
クレオ パトラ
ロ ックス
健 児
捕 まえる
登 米
複 写
遡 っ
食 塩
ID AY
ダマスカ ス
4 14
G ER
ラ ケット
人 目
元 凶
光 圀
学 修
桜 ヶ丘
犯 す
野 洲
髙 橋
16 24
he m
アイ ラ
n s
ウ レ
ユ ミ
小 区
眼 帯
神 獣
裏 方
アー モンド
ビア ス
エリ クソン
Conc ert
な じ
ド グマ
持 論
ヴォー カリスト
きた す
t em
上 北
健 次
握 ら
茶 会
鉄 塔
17 27
キャ シー
St one
かり ん
尽き る
メ トリ
埋 没
応 神
本 日
調 律
豪 語
コー リー
読み 取る
セラ ピー
Nat ural
官公 庁
p df
ウ ケ
名 士
園 部
憧 れる
校 尉
食 う
食 っ
シー ラ
ブル マ
st ad
50 7
引き 寄せ
バイ ソン
36 2
アントワ ネット
F ed
喰 らい
熾 烈
破 砕
絵 里
隊 士
バイ ブル
ルド ン
パーク ス
ヨア ヒム
J oy
b al
ヴ ・
同 属
同 店
嘉 門
宿 題
巻 物
既 成
熟 語
角 栄
課 外
険 しい
17 47
ent e
フリ ント
Don ald
Nat ure
危ぶ ま
C AC
と み
ア ミー
メ リル
不 穏
修 練
和 賀
遼 東
17 42
ヴィン スキー
feat uring
ミネル ヴァ
C J
f irst
付 記
休 載
本 籍
清 川
若 槻
辿 る
青 野
20 25
アン サー
ヴァ ラ
ニール セン
V ision
イ ートン
オ ゴ
セ リカ
プ ランク
逆 さ
難 破
鳥 越
フィ ールズ
タケ シ
-- -
きら り
ディナ モ・
ORIG INAL
3 200
k ins
受 勲
境 地
夏 侯
華 道
隆 之
17 44
ラウ ド
コロコロ コミック
w art
ッ ハ
ホ ランド
一 茶
下 側
増 額
実 地
小 判
花 茎
露 骨
ラン ボー
シャル ロット
ME TAL
寄り 添
sch ool
C os
メ スト
アル カン
ロー ネ
pr of
トリニ ダード
G BA
é d
ア ビー
プ プ
中 城
日 の丸
解 約
諸 王
軍 楽
院 殿
麾 下
37 2
アド ラー
ジェン ス
カワ サキ
コーディ オン
U KE
c ript
パ サ
本 職
王 道
等 式
サイ レンス
さま ぁ
ant is
観世 音
C e
ク ーン
ゲ シュタ
不 遇
地 場
学 童
無 礼
焼 津
突 発
サン ダル
55 1
ud a
久 光
付 帯
大 仙
曽 我
論 考
クラ クフ
マー リン
プリ ペイド
PAS S
l ie
い らっしゃ
剣 心
区 切ら
連 ねる
道 南
隠 れる
割り 込み
ソリューション ズ
4 27
W oman
b s
l ad
あ らし
サ ライ
ニ ラ
フ スキ
万 治
四 駆
婚 礼
晴 らし
曲 がる
無 量
15 75
16 70
大田 原
もも こ
イジ メ
Walk er
K GB
ア デル
キ チ
ミ ッツ
リ ヴィ
市 側
文 民
病 室
真 摯
穴 埋め
顛 末
魅 惑
el ect
カイ ダー
SU GO
エリ トリア
Encyclop edia
アフレ コ
N u
戒 厳
手 ほどき
犬 養
PS Y
FI LE
ラク ダ
フランケン シュタイン
先 例
弩 級
成 層
戸 畑
本 局
17 12
de c
クライ ミング
ポリ ドール
Bo ard
アナスタ シア
コ リー
ニ キ
ミ ェ
人 手
回 忌
本 命
沈 静
胎 内
バー ナ
クラ シ
引き 込み
aw ay
ru g
net keiba
TRA IN
Arch itect
Eliz abeth
A ction
は かる
ア リエ
ホ ト
命 日
緒 戦
ティ オ
ノベル ス
WH ITE
一ノ 瀬
Chic ago
じ お
べ っ
ア コーディオン
ト ランド
交 わり
八 方
剣 客
智 也
異 質
隠 棲
ヤマ ザキ
ハート フォード
FL Y
iam ond
つる ぎ
V el
寝 返っ
局 地
相 楽
諸 君
都 区
ro ck
移り 住み
A J
M AL
人 骨
親 しん
質 疑
適 度
関 越
陽 明
ed y
コミ ッション
Le w
コンサ ドーレ
ING O
FUT URE
アニバー サリー
し ー
ば め
カ スピ
ビ バ
痛 感
親 日
ヒル ベルト
サブ カルチャー
ツバ メ
エマー ソン
N ame
ア パラ
・ ディ・
手 放し
牧 草
美 男
被 写
谷 地
15 68
テン ブルク
ag ain
フォー ブス
ri es
マニア ック
ラジ コン
ロニ カ
Ro om
シリン ダ
クローズ ド
ば か
文 殊
渡 島
災 厄
纏 い
覚 まし
難 病
on ia
マー チン
om on
60 7
St op
果た さ
EN TER
He alth
アスレ チック
ず く
オ グ
ゴ ンド
モ リエール
倍 数
品 物
威 厳
小 口
成 さ
植 林
水 神
17 24
ラー ニング
ワー カー
ap t
Gu ard
モンテ カルロ
ひょ んな
グリニ ッジ
, "
セ イント
ブ サ
ホ ライ
借 入
小 物
抜 本
棟 梁
浅 香
清 子
滑 稽
膠 着
醜 い
60 5
打ち 込ん
b us
リ ウマ
原 価
授 かる
猪 苗代
稲 城
精 進
高 宗
ディ クソン
ほう じん
g as
ア ユタ
タ ルト
デ リカ
云 わ
冴 子
平 滑
融 解
if ied
ens ion
バーベ キュー
ぼ け
作 詩
先 んじ
文 夫
起 立
15 87
h and
ト ラー
元 請
生 長
裕 次郎
鯖 江
アン ジュー
トリ コ
オル ガニ
ブロード バンド
ウィーク エンド
4 38
「 "
バ ベル
下 品
交 野
信 行
夕 刻
グリ フィン
ミル キィ
HE L
ビューティ フル
SQU ARE
5 21
合 議
小 堀
年 報
群 生
聡 美
脱 皮
類 する
or der
マル ガ
ミュー ダ
56 9
ショル ダー
E LE
N NS
P B
中 段
制 球
引 渡し
着 水
薙 刀
P or
b ol
あ やか
エ ブリ
オ セロ
千 家
夢 見る
大 群
始 終
山 腹
拒 む
政 経
直 り
笑 み
義 久
詳 報
豊 穣
ハン ティング
タイム リー
ri ft
ant i
ベー ラ
ゲット ー
迷い 込ん
L yn
T MA
こ き
ス ウィング
ノ 宮
ミ セス
仏 語
源 平
空 け
美 佐
豊 国
軍 記
10 67
シュ カ
ラス ボス
iv ate
34 7
させ よう
ジョシュ ア
F le
か ながわ
キ ジ
古 馬
小 城
本 門
核 酸
茂 原
蘭 学
リー ジョン
アル ル
ホー ネット
もつ れ
聞き 取り
ニャン 子
ナッ サウ
ま なみ
単 価
払 拭
神 功
蔚 山
邦 夫
17 17
アド ミラル
ボラン チ
ホモ ロジー
だ に
北 本
州 境
張 力
聖 女
フィ ッシング
Le x
結び つける
ブロン クス
疑わ しい
M ob
ば つ
エ コール
モ ヒ
冷 め
国 公立
安 息
密 売
市 ヶ谷
智 頭
浩 之
田 子
飛 田
ファ ージ
Th ink
成り 行き
プロテ クター
ジーク フリート
E I
エ カ
キ キ
ベ ガルタ
土 御門
諭 し
Sh o
くわ え
' -
h om
な まる
ボ ニ
レ ビ
両 校
体 躯
出 島
助 産
浴 室
焚 き
紺 色
製 油
透 視
顆 粒
17 41
ro om
エディ ット
立ちはだ かる
ポセイド ン
Fron t
C ase
D ir
N AT
こ ぼし
凌 辱
接 吻
早 急
渓 流
間 合い
アル キル
ゴル バ
エイ プリル
ジアゼ ピン
イ コ
人 参
押 しかけ
草 地
谷 津
過 労
モン ク
ッチ ョ
ビス ケット
M ake
N FC
め く
ヴ ロ
依 田
塚 山
太 り
沈 殿
海 側
理 沙
理 化学
粗 暴
織 部
裾 野
豹 変
鋼 材
領 邦
16 85
SP A
トーク ン
7 500
B UN
ミ ナス
余 市
内 気
茅 原
香 子
黒 子
アル ザス
プリン シ
7 27
ノ 浦
富 津
花 畑
詩 篇
障 子
フェ イク
ヴィ ジョン
50 9
uk u
真っ 赤
ヒム ラー
ル ソー
・ フ
流 産
通 さ
鉄 球
39 8
ブロ ム
S us
エ チレン
ラ ーム
助 長
小 千谷
真 鍋
石 膏
シャ ボン
ヴェ ス
ri er
GP L
D ASH
f ree
l aw
ぴ ー
不 眠
刺 さっ
嫁 ぐ
義 一
ター トル
キー ラ
gen cy
7 58
m RNA
ヒ ラリー
・ ペ
春 夫
概 説
病 態
自 棄
赤 星
軽 微
ライ コ
バック パック
結び 目
メモ リーズ
オイ ゲン
ディヴィ ジ
M AK
P ot
受 難
議 案
閘 門
閣 下
17 05
ジョ チ
ロック フェラー
ish i
さき がけ
K night
パ カ
ラ ファイエット
岩 谷
県 北
送 出
15 69
ing en
ポン テ
ポリ ュ
サント ラ
カツ オ
At l
H oney
パ オロ
マ ジョ
・ アン
秀 頼
科 挙
16 45
ol as
N ar
け やき
こ ぶ
ス プリンター
五 味
拓 哉
番 宣
or ed
アイ ソ
パンチ ラ
ルルー シュ
M orning
l anguage
ビ タ
ル マン
南 魚沼
取 消
可 算
木 曾
永 吉
賑 わっ
Th er
F ox
印 紙
嚆 矢
語 呂
道 道
サイ ア
ガン ズ
タバ タ
ヒュ ン
アヤ ックス
W o
シ ラー
ダ ビング
パ ング
マ ハ
効 く
多 分
山 系
復 職
思 しき
標 語
窒 息
華 子
ラン テ
テー ゼ
Gal axy
GOLD EN
た な
ぷ る
ス ッ
プ ブリ
在 る
孝 之
米 山
西 友
覆 す
香 菜
ウェ ッ
一人 前
B ol
и р
嬉 野
寛 大
河 井
清 末
玉 造
蹴 っ
Not e
マ イルス
会 所
寿 永
横 溝
リカ ー
en der
トー リー
突き 出
hist ory
Birth day
ウ ラー
セ レス
ラ ヂ
三 脚
包 む
和 男
牛 耳
秋 津
誠 文
跡 取り
野 坂
シル ヴィア
ist ic
マラ ウイ
伊藤 忠
フィヨ ルド
4 32
O d
き き
ゆ で
イ コン
タ シュ
ュ ン
今 市
大 畑
常 人
憶 測
拘 禁
曹 司
牛 込
犬 猿
虚 空
遠 賀
高 屋
ポン ス
az e
ルン プール
請け 負う
こ ず
ホ リー
ミ ニー
共 振
志 保
沼 地
17 28
受け 取ら
シャ リ
IN TER
ファー マ
メッ サー
ens ch
じょ し
デズ モンド
B urn
I f
ビ バリー
ポ ネ
小 胞
新 平
服 属
申 立て
16 16
レス ク
IS IL
やし き
TAK A
スクラ ッチ
F ol
H B
の 親
ブ ロンド
休 む
周 平
木 管
村 々
牧 畜
留 任
禁 制
荷 電
16 67
16 98
ジェ ルス
イタ チ
70 3
生み の親
JA XA
CRA ZY
イ ミ
偏 り
冴 え
岩 戸
最 深
横 尾
正 博
池 谷
チル ダ
オタ ワ
か がく
ケ 丘
タ ダ
ノ リス
マ ニー
令 状
出 く
地 先
山 路
自 警
アル フ
あい さつ
あき た
セラ ミック
さと し
h ave
あ そび
だ て
も ぎ
シ チョフ
生 かさ
苦 言
頸 部
パラ ダイム
Car ol
5 33
い も
わ ー
恐 喝
戦 慄
探 題
赤 褐
am ura
プラ ム
45 2
ゴー カイ
ツイ スト
タカラ トミー
A us
A ud
ホ バー
・ デ
居 館
手 口
牛 田
異 物
詩 作
エン テ
コー ヴィチ
打ち 解け
かか わり
ストロ ベリー
コンド ー
売れ 行き
4 26
K L
タ メ
嘲 笑
巧 妙
弘 樹
御 厨
徳 井
段 落
祈 っ
飄 々
ヴィ シュ
カシ オペ
G on
h im
そ ぐ
エ マニュエル
ビ ッシュ
ワ レ
夢 幻
シュ レース
マイ レージ
プラ タ
SP IR
Ste phen
FAN TAS
つぐ み
4 29
い たし
シ ルト
倭 国
創 成
増 員
菅 沼
語 幹
スペ リ
トラ フィック
od es
言い 回し
スキ ピオ
TA IN
s ign
ガ タイ
ス サノ
ソ バ
傍 受
塔 頭
減 点
on ic
37 7
返り 咲き
Mic hel
Nav al
にい がた
p ower
ゲ イン
チ ワン
ッ テル
ロ ピー
三 宝
乱 交
堀 井
建 長
技 士
柑 橘
荻 原
補 っ
過 渡
食 らっ
16 97
マン ハイム
ラプ ソ
エスペ ラント
サディ スティック
モ ヤ
ー ツ
主 家
天 間
数 式
背 負う
顔 出し
in er
すば らしい
ベンゾ ジアゼピン
Hein rich
G es
H IP
t es
ア ボ
グ サ
一 翼
性 愛
書 庫
染 み
36 8
ディオ ニュ
Wash ington
シュレース ヴィヒ
3 78
オ ジ
バ ッカー
ユ ニー
利 得
桂 川
浩 子
瓦 礫
飛 べ
香 里
エル ベ
36 4
イズ ミ
やす し
送り 込み
ロフ スク
てつ や
Miss ion
コモン ウェルス
c ase
g ie
h as
n ame
メ ネ
ラ エ
中 団
供 え
恨 ん
貧 民
アル ツ
サー モン
アー リントン
Th ere
きょう ぎ
ビュ ラ
ボイ ジャー
ロッキー ズ
8 45
あ づ
乖 離
佐 木
反 攻
大 した
守 屋
宋 代
イル ズ
ドゥ ーム
アルファ ロメオ
れ つ
オ デュ
ゲ ント
世 宗
固 形
坂 戸
嬉 しい
式 神
比 丘
泉 南
津 久井
祥 伝
空 域
香 山
フュー リー
麻衣 子
Hy per
く らし
ぐ ま
つ お
ま もる
カ オル
海 溝
火 花
道 幅
15 55
フロン ターレ
サリ ヴァン
イマ ーム
Dis ney
e ar
t witter
オ ベ
両 分
大 庭
明 かり
蓮 田
17 25
ダイ アン
46 4
V B
b ody
だ せ
ノ バ
パ ム
城 砦
妙 法
混 ざっ
田 山
磯 子
里 菜
グラ ッド
ボン ゴ
グレ コ
Pro v
由紀 子
S ome
v iv
は まっ
・ ブ
助 教
夕 子
イン フレーション
ファ ング
16 32
おか やま
JB IS
は さみ
ハ ラス
予 見
休 職
堅 牢
昇 圧
死 骸
西 門
貞 子
高 安
シャ レ
マイ ティ
Sh ar
ノフ スキー
Franc is
じ どう
イ ラー
リ ベリア
梯 子
片 面
登 壇
退 部
雪 組
黒 瀬
エン ペラー
須賀 川
マッケン ジー
7 90
ハ モンド
具 志
天 智
恩 賜
無 言
蓬 莱
須 佐
20 30
ター ザン
ラン デ
スト ッキング
アル タイ
コン セント
16 73
ed o
ig en
EN EOS
ガイ スト
駆け つける
アブ ダビ
どれ み
Acc ess
ソノ ラマ
モ ズ
リ ヴァイ
如 き
灯 火
災 難
脅 さ
酷 く
シャ ネル
SS E
DO M
フレー バー
有栖 川
ケ ーター
ゴ ング
ジ ニ
ヒ ツジ
一 世
下 請け
女 好き
子 犬
宏 美
恩 義
掲 出
洪 武
生 薬
草 本
返 ら
速 達
ターン ズ
Fr ame
ジェラ ール
イ クス
・ ロ
勇 退
潰 れ
菊 水
スラ ヴァ
DO ME
Z EN
ピ グ
マ ロン
全 文
喋 っ
感 応
施 術
次 席
母 港
長 澤
閉 園
高 嶋
st on
36 3
ph osph
H aw
ボ カ
マ オリ
大 府
小 手
持 田
早 瀬
祖 語
羽 咋
テレ 東
メン デルス
48 4
PAR K
s ource
ゴ ダール
サ ガン
セ リア
ト ック
プ ルー
全 治
別 邸
捕 球
泣 か
15 86
取り 除か
エル サルバドル
打ち 込ま
ID O
サンド ウィッチ
ハム スター
ミケラン ジェロ
A x
ユ グノー
一 幕
友 里
山 辺
帰 途
景 虎
木 梨
簡 便
若 山
遊 技
鎮 西
イン ディア
KO BE
メンデルス ゾーン
O w
Z I
こ よ
ナ バラ
快 勝
竹 村
駒 沢
ター ミネーター
パー リ
埋め 込み
踏み 切っ
コントラ バス
7 11
d ou
パ ステル
ペ ント
摩 耗
文 楽
猟 奇
色 調
親 局
賑 わう
転 売
離 縁
頑 な
17 23
17 08
ヨー ヨー
流れ 込む
ティン パニ
ha us
Blu et
tw o
アンダル シア
а й
と こと
ク ァ
ネ ヴィル
マ ドラ
メ フ
即 売
塩 酸
持 てる
点 字
茶 髪
霊 山
EX PRESS
マクス ウェル
キ サン
デ ヒドロ
乗 法
和 哉
平 手
戦 用
新 治
桐 蔭
比 嘉
温 かい
見 破ら
ボー リング
49 6
ロボ ロ
DS M
江原 道
е л
ほ ね
ラ ダー
新 北
有 川
短 所
配 流
イン ベーダー
エー レ
ソ コ
バ ミューダ
助 命
太 秦
安 国
遺 稿
アド レナ
ドライ ビング
S AL
城 戸
新 山
福 留
羊 飼い
音 素
駆 ら
鳥 獣
ロー ザンヌ
フル シチョフ
スロー ン
ぶつ かる
Per f
MOR NING
BIR TH
ä t
ゴ ロウ
ミ チ
味 わう
大 元
年 明け
懐 中
敬 礼
東 成
流 暢
生 来
眼 窩
遣 わし
17 19
かつ き
マイ シン
マル ケ
合わ さっ
ファン キー
af ter
オマ ハ
P INK
a is
ガ ジェット
七 海
広 岡
建 前
私 財
羅 漢
聯 合
述 語
隔 壁
シュ ラク
ヴィ ツェ
グル タミン
arch ive
J J
P ra
Y a
激 し
連 峰
重 機
院 政
ター ノ
ティ アラ
ストラ クション
AM G
えり か
ラミ レス
C ab
I WA
ド リス
ヵ 所
地 学
平 良
靴 下
バー ブ
ウェ イド
サン セット
セル ジューク
ロイ ター
Rob in
C row
M ike
ノ 森
康 平
救 え
散 らす
晴 海
護 岸
ディ ース
デン プン
プリ ティ
47 1
RO LL
Bas ic
テ コンドー
恵 一
検 修
混 じり
物 性
頭 巾
15 91
Pro cess
Java Script
H op
仇 討ち
対 流
恵 庭
春 野
稲 村
薬 理
闘 牛
16 11
et c
持ち 上げる
トリ ル
セイ ロン
Pl ace
マンス リー
コーン ウォール
Hen ri
r ent
兆 銘
噛 ま
昌 幸
江 差
軍 旗
道 長
16 34
16 82
16 94
レイ オス
ノー ラン
エベ レスト
6 45
é l
き い
上 泉
丸 ノ内
朱 子
標 記
科 技
称 す
美 郷
見 沼
in ation
16 49
グラ ディウス
たく み
くに お
ゼー タ
アポ ロン
長谷 部
アユタ ヤ
ペ グ
図 解
尚 美
景 子
横 暴
率 先
金 網
雑 賀
響 子
香 月
ヴォ イス
掛け 持ち
スキ ュー
Chr is
代官 山
オーギュ スト
イ デア
ボ ロボロ
メ チ
似 合わ
奈 津
屋 島
蘇 ら
スタン ディング
90 3
av i
by e
ヴェネ ト
l am
や じ
ダ ックス
度 量
浮 島
雪 山
Cl ar
カート ゥーン
p on
о б
イ 族
一 口
乾 隆
判 官
前 週
枕 崎
泳 い
爆 裂
