#version: 0.2 - Trained by `huggingface/tokenizers`
す る
あ る
い る
2 0
1 9
か ら
こ と
れ る
な い
20 1
な ど
20 0
な っ
そ の
リ ー
タ ー
日 本
た め
よ り
な る
1 0
ッ ク
イ ン
ッ ト
ー ル
こ の
よ う
も の
い う
ン グ
ス ト
ま た
ー ム
ー ト
ラ ン
あ り
0 0
あ っ
1 2
ま で
ら れ
昭 和
1 1
ー ド
e r
19 9
ュ ー
1 8
学 校
デ ィ
お り
で き
ン ト
テ ィ
こ れ
平 成
ラ イ
シ ョ
場 合
a n
よ る
19 8
i n
ー ス
鉄 道
1 5
o n
リ ア
そ れ
よ っ
コ ン
フ ァ
放 送
大 学
ー ク
使 用
か っ
な り
バ ー
会 社
現 在
な く
e n
ロ ー
レ ー
ッ プ
バ ス
東 京
プ ロ
ア ル
3 0
テ レ
19 7
1 6
つ い
でき る
a r
ら れる
え る
ン ド
o r
ショ ン
お い
シ ャ
受 け
サ ー
タ イ
テレ ビ
ス テ
1 3
1 7
開 始
キ ャ
し か
フ ィ
リ カ
ジ ャ
a l
マ ン
19 6
可 能
1 4
ダ ー
時 代
登 場
発 売
2 5
ホ ーム
の み
a t
ラ ー
カ ー
i c
シ ー
サ イ
ー ジ
ア メ
行 わ
e s
だ っ
世 界
設 置
チ ャ
アメ リカ
多 く
存 在
リ ン
大 阪
レ イ
な かっ
と も
ス タ
19 4
め る
た り
お よ
ル ー
シ ュ
エ ン
ッ ド
e l
時 間
2 1
せ る
一 部
19 5
作 品
事 業
i s
2 4
ク ラ
ス ター
しか し
セ ン
英 語
パ ー
列 車
およ び
し い
o l
ジ ョ
ド ラ
利 用
な お
取 り
以 下
一 般
2 2
フ ォ
自 動
明 治
2 8
オ ー
映 画
i t
呼 ば
2 7
ッ チ
ウ ェ
変 更
レ ン
し ま
研 究
リ ス
当 時
ナ ー
2 6
キ ー
対 し
株 式
廃 止
必 要
同 じ
2 3
m m
ス ペ
千 葉
多 い
J R
フ ェ
ウ ン
オ ン
大 き
持 つ
か け
出 演
行 う
コ ー
番 組
サ ン
ア ン
開 発
ル ト
2 9
ジ ェ
ジ オ
ニ ュー
お け
だ け
な ら
た ち
か つ
ラン ド
情 報
リー ス
選 手
以 上
ゲ ーム
同 年
ト ル
用 い
ア イ
s t
運 転
担 当
行 っ
ック ス
な が
201 0
5 0
3 1
r e
r o
リー ズ
年 度
ア ー
通 り
ブ ル
開 業
プ レ
活 動
以 降
フ ラン
い っ
ベ ル
け る
関 係
t h
ょ う
ジ ン
営 業
ー ン
201 2
i on
201 1
201 3
シ ング
イ ト
中 心
路 線
高 等
に て
フ ト
ア ニ
イ ル
中 央
計 画
シ リーズ
さ ら
200 7
c h
及 び
機 関
交 通
201 4
200 9
I C
ラ ジオ
l e
た だ
モ ン
ダ イ
京 都
チ ェ
200 8
管 理
教 育
し く
ク ター
ナ ル
地 域
販 売
引 き
運 行
シ ア
ク ロ
付 け
ポ ー
なが ら
車 両
ま り
ク ト
シ ステ
こ う
コ ミ
システ ム
自 分
200 6
タ ル
4 0
代 表
製 造
さら に
開 催
設 立
部 分
メ ン
都 市
と き
伴 い
I S
ス ク
同 様
う ち
旅 客
朝 鮮
考 え
a m
ほ か
参 加
本 線
u s
指 定
所 属
201 7
201 8
a s
ウ ィ
乗 車
地 区
意 味
201 6
事 件
出 し
大 会
発 表
デ ル
道 路
問 題
海 道
ほ ど
ニ ー
地 方
i g
設 定
20 19
200 5
ネ ル
入 れ
位 置
作 曲
収 録
メ ント
かつ て
グ ラ
当 初
持 ち
デ ザ
i l
文 字
201 5
方 面
マ ー
施 設
ニ ア
ネ ット
チ ーム
上 げ
知 ら
タ ン
ブ ラ
e t
バ ル
10 0
アル バ
以 外
人 間
わ り
ス ー
電 気
カ ル
k m
マ イ
リ ング
19 3
B S
こ ろ
ン ス
セン ター
攻 撃
企 業
o f
カ ード
使 わ
関 する
アニ メ
国 道
中 国
ート ル
名 称
工 場
発 生
野 球
合 併
バ イ
国 際
目 的
通 常
00 0
キャ ラ
戦 闘
ビ ュー
ただ し
い く
終 了
特 に
a c
シ ン
ド ル
一 方
対 応
社 会
結 果
ヴ ィ
駅 舎
ガ ン
an d
大 正
音 楽
イ ツ
ヴ ァ
ジョ ン
プ ラ
影 響
起 こ
技 術
建 設
文 化
裁 判
ルー プ
フラン ス
機 能
in g
卒 業
レ ス
法 人
o d
監 督
200 0
区 間
合 わ
シング ル
デ ン
メ ートル
め て
ケ ット
制 作
川 崎
航 空
ビ ス
デザ イン
アルバ ム
ま ま
同 時
ー ション
向 け
実 施
優 勝
女 性
丁 目
ト ラ
A N
状 態
ト ン
生 ま
調 査
o m
デ ー
6 0
人 物
決 定
200 4
o u
パ ン
普 通
ぞ れ
それ ぞれ
全 国
テ ン
世 紀
能 力
記 録
込 み
ま っ
北 海道
ポ ン
en t
し て
警 察
採 用
自 身
テ ー
主 人
ー ロ
グ ループ
停 車
公 園
出 身
ジ ュ
モ デル
横 浜
e d
200 3
改 称
I I
ソ ン
ラ イン
記 念
ギ リス
た い
持 っ
ドラ マ
が っ
ア ク
わ っ
人 員
サー ビス
しま う
ト リ
ド イツ
平 均
た る
最 終
移 転
そ う
ー ター
病 院
ザ ー
基 本
S t
ウ ス
ビ ル
カ イ
ハ ン
作 詞
乗 り
業 務
高 校
19 0
ゴ ン
導 入
銀 行
ダ ム
ビ ー
特 別
T O
構 造
i d
ボ ール
参 照
と ころ
試 合
E R
r a
さ ん
ズ ン
そ して
キ ング
最 初
最 大
対 する
構 成
相 手
シャ ル
完 成
キャラ クター
委 員
ッ シュ
周 辺
U S
イ ス
ヴ ェ
異 なる
組 合
A R
ワ ー
i a
務 め
全 て
広 島
エ ル
工 事
200 2
主 に
含 む
対 象
u n
番 号
高 い
3 5
イ ド
か り
出 来
改 札
ロ ン
公 開
表 記
エン ジン
予 定
ガ ー
古 屋
名 前
編 成
ファ イ
合わ せ
I N
ギ ー
場 所
ア ナ
カ ン
総 合
スー パー
生ま れ
ニ ング
戦 争
地 上
試 験
名 古屋
女 子
特 定
一 覧
提 供
整 備
科 学
入 り
移 動
県 道
4 8
い は
リ スト
プ レイ
以 前
実 際
シー ズン
パ イ
最 後
漫 画
イン ター
生 産
ジ ア
事 務
組 み
江 戸
O N
内 容
20 20
リー グ
国 鉄
3 8
も っ
地 下
物 語
ス ポー
ユ ニ
イ ギリス
い わ
け れ
交 差
工 業
最 高
S T
e m
ライ ブ
運 動
ハ イ
切 り
歴 史
高 速
マ ル
出 場
製 作
設 計
ある いは
e c
ハ ー
スポー ツ
九 州
年 間
指 導
改 正
生 活
o t
変 化
そ こ
ろ う
ん ど
ウ ム
特 徴
表 示
ディ ング
性 格
経 済
キ ロ
大 型
期 間
T h
ま る
200 1
ゅ う
バ ン
与 え
専 用
ール ド
シ ェ
ヤ ー
扱 い
198 7
a g
戦 い
由 来
a y
ッ グ
搭 載
経 営
A T
デー タ
7 0
契 約
海 軍
貨 物
ボ ー
神 奈
リ ュ
編 曲
装 置
重 要
飛 行
u m
装 備
タイ プ
停 留
条 件
イ ベ
3 3
4 5
え ば
番 線
ひ と
ウ ォ
本 作
サイ ト
N H
i r
オ リ
撮 影
距 離
ず れ
企 画
時 期
t er
労 働
i v
つ け
方 法
神奈 川
初 めて
立 ち
認 め
ディ ー
ア ップ
よ く
帝 国
B C
公 式
専 門
大き な
I n
リ オ
関 西
非 常
ソ フト
ロ ック
主 義
な けれ
ク ス
コ ード
獲 得
ファ ン
セ ス
デ ビュー
部 隊
NH K
わ る
イベ ント
a d
ジ ー
完 全
展 開
最 も
ど う
メ ージ
事 故
時 点
199 0
ジャ ー
A L
ほ と
彼 女
u t
や す
保 護
3 4
加 え
テ ル
5 5
ピ ュー
経 由
自 由
u r
ベ ン
一 人
クラ ブ
制 度
新 た
組 織
選 挙
6 2
7 8
ち ゃ
取 得
宇 宙
就 任
接 続
系 統
199 8
テー マ
A S
c m
じ る
コン ピュー
オー プ
ほと んど
い ずれ
at ion
環 境
V E
ッ カー
学 園
様 々
生 き
た ら
比 較
A M
協 会
規 模
基 づ
大き く
ク リ
人 口
8 0
O C
i m
北 朝鮮
統 合
政 府
朝 日
連 合
ス カ
輸 送
天 皇
種 類
リア ン
す べ
ス ティ
デ ター
フ リー
新 設
理 由
追 加
開 設
メン バー
少 女
急 行
連 続
限 定
o w
パ ス
団 体
小 さ
立 て
プ リ
18 9
メ ロ
ブ レー
ラ ス
な し
政 治
教 習
o s
ー カー
規 定
199 9
免 許
初 期
決 勝
程 度
駅 前
く る
と っ
編 入
行 き
すべ て
出 す
運 営
チャ ン
3 9
ロ シア
果 た
独 立
産 業
言 わ
付 近
成 立
神 社
表 現
th e
B N
か る
元 年
出 版
制 御
太 郎
自 ら
違 い
え き
特 急
ら か
大 和
示 す
述 べ
電 車
S P
ウ ル
ケ ン
ル ート
指 す
タイ トル
下 り
始 め
は じ
ギ ャ
本 社
続 け
199 4
プレ デター
3 2
信 号
神 戸
エ イ
ピ ン
18 7
E N
ナ ン
ミ ュー
福 岡
199 6
リ リース
4 4
5 00
C D
処 理
状 況
社 長
IS BN
ガ ス
人 気
合 衆
国 家
小 説
通 信
郵 便
h t
ベ ース
支 援
方 向
法 律
設 け
ブレー キ
ワ ーク
呼 ぶ
発 足
199 2
コー ナー
フ ジ
共 同
わ ら
形 成
コンピュー タ
チャ ー
し ば
ど り
全 体
キ シ
199 3
クラ ス
キロ メートル
o c
入 っ
評 価
シー ン
リュ ウ
p h
不 明
原 作
タ ウン
ダ ン
形 式
所 在
イ メージ
ッ カ
分 類
障 害
使 っ
含 ま
県 立
関 し
受け る
3 6
ち ら
初 代
美 術
T BS
メ タル
分 割
ビ ア
再 び
効 果
形 態
長 崎
スペ ース
E C
M od
破 壊
199 7
198 8
べ き
ん な
カ ップ
フ ル
ポ ート
発 見
関 連
イン ド
例 えば
新 聞
複 数
ダイ ヤ
C h
ッ ツ
取 引
空 港
199 5
ご と
り 返
ミ ー
基 準
方 式
機 械
舞 台
キャ ン
ユニ ット
系 列
製 品
陸 軍
u l
も と
カ リ
コ ース
ペ ージ
施 行
有 する
直 接
ファ ー
9 0
ト ロ
住 宅
連 絡
O R
チ ー
マ ーク
受 賞
延 長
行 動
セ ル
ッ パ
記 載
込 ん
開 通
安 全
熊 本
結 成
込 ま
3 7
イ タ
現 代
行 い
と う
言 葉
Mod el
4 6
こ こ
ホ ール
ポ ール
ユ ー
ワ ン
乗 降
原 因
替 え
潜 水
発 行
ニュー ス
A P
マ ス
武 器
生 徒
T V
の り
ほ ぼ
パ ート
将 軍
秘 密
近 年
連 盟
198 9
ジャ ン
スペ シャル
A C
ラ ル
愛 知
描 か
言 う
配 置
18 8
ト ラン
標 準
発 着
誕 生
ライ ト
198 0
d e
ト ー
定 義
少 年
タイ ム
しま っ
F M
V ol
げ る
ロ ス
唯 一
er s
4 7
ウ ルト
エ ネル
バ ラ
上 り
強 い
活 躍
精 神
フ レ
ロ グ
協 力
通 過
5 8
バ ンド
出 力
多 数
寄 り
議 員
カイ ダー
エネル ギー
4 2
い い
な さ
ズ ム
デ ュー
大 臣
艦 隊
el l
a p
キ ュ
ブ リ
レ ース
過 去
サイ ズ
アナ ウン
Th e
ウルト ラ
o g
ゆ る
ク ション
ト ップ
ピ ー
使 い
復 活
か い
奈 良
無 人
商 品
o p
共 和
打 ち
魔 法
ティ ング
ロー マ
ー リー
使 う
医 療
地 球
好 き
死 亡
認 定
運 用
4 1
図 書
男 性
電 子
リー ト
199 1
H E
o v
ル ス
内 閣
写 真
楽 曲
紹 介
軍 団
3 00
ア ラ
ギ ュ
付 き
教 授
自 然
ig ht
ら し
掛 け
み どり
反 対
実 験
店 舗
登 録
197 0
作 戦
建 築
思 い
映 像
温 泉
結 婚
イン ト
ちゃ ん
無 い
行 政
行 為
リー ン
198 6
ウ ンド
シ ル
ス キー
ダ ル
メ イン
ラ ム
岡 山
の ち
チ ュ
ノ ー
従 来
エ ア
停 止
外 国
少 ない
所 有
拡 大
流 れ
イタ リア
O S
ク レ
タ ッチ
ロ ード
以 来
報 告
渋 谷
観 光
コミ ック
が る
な わ
設 備
スト ラ
E T
a k
周 年
地 名
富 士
快 速
機 器
プロ デュー
c e
ジ ナル
成 功
近 い
ディ ア
く り
ヨ ーロ
す ぐ
国 有
子 供
用 いる
同じ く
ヨーロ ッパ
ぶ り
チ ョ
勝 利
確 認
近 く
駆 逐
4 3
セ ット
ネ ス
ロ ボ
会 議
出 さ
構 内
正 式
オリ ジナル
r i
し よう
ア ド
カ ラ
上 記
個 人
化 学
岐 阜
記 述
関 東
で す
エ レ
グ レ
チ ン
バ ック
交 換
単 位
特 殊
軌 道
途 中
k g
プ ライ
ミ ン
主 張
取 締
支 配
線 路
編 集
選 択
198 5
はじ め
A l
か し
ク ル
ニ ッ
C O
イ ー
ノ ン
人 々
劇 場
司 令
段 階
相 当
電 力
オ ペ
電 鉄
た っ
グ ラン
商 業
学 生
金 曜
ゴ ー
ス コ
リ ティ
仙 台
勝 ち
国 民
増 加
東 北
速 度
ドラ ゴン
L I
も う
ア フ
レ ッド
P C
作 ら
山 口
残 っ
言 語
ウェ ア
地 元
競 技
続 き
進 出
in d
タイ ル
アイ ドル
A K
V D
ソ ー
プ ト
以 後
演 奏
続 い
シャ ン
チェ ン
C M
あ れ
オ フ
仕 事
共 通
挙 げ
経 験
スト ーリー
オープ ン
5 6
パ ラ
メ ーカー
リ フト
作 成
国 内
指 揮
ウェ ー
A n
し ょう
サ ッカー
入 る
竣 工
範 囲
部 門
スタ ン
i an
パ ーク
主 要
動 物
反 応
金 属
ウ ト
ピ ア
回 路
大 戦
成 長
推 定
要 素
購 入
イン グ
パ ワー
分 け
求 め
派 遣
発 展
スト ロ
I D
e w
ベ スト
市 場
細 胞
至 る
D J
あ たる
ね じ
事 実
候 補
同 社
生 物
除 く
196 0
is t
伊 勢
作 業
合 い
国 立
思 わ
臨 時
5 1
L E
R e
つ き
ニ ック
作 用
市 民
案 内
植 物
果た し
ミュー ジ
5 4
5 7
P S
セ ント
ペ ン
離 れ
レー ション
S H
ナ イト
呼 び
定 め
平 日
性 能
明 らか
本 来
自 衛
集 合
es t
フォ ー
レン ジ
N A
ブ ン
尾 道
治 療
練 習
アナウン サー
a b
フ ラ
ヴ ォ
土 曜
巨 大
書 き
福 島
高 く
198 4
のり ば
5 9
代 わり
埼 玉
民 主
連 載
I T
が り
ス ケ
ス タイル
ブ レ
ミ ニ
兵 庫
往 復
掲 載
料 理
本 人
清 水
防 衛
食 べ
es s
D VD
か ん
つ つ
ッ ジ
ヒ ー
新 しい
機 構
空 間
追 い
R E
サ ル
強 く
注 意
近 畿
せ い
オ リン
ク シー
ピ ック
作 り
東 海
発 電
脚 本
R O
ま す
も ん
ポ イント
ル ム
一 定
仕 様
原 子
有 効
移 籍
しく は
定 期
日 曜
空 気
継 承
198 3
し ゃ
イ ズ
ナ イ
ニ ュ
メ ラ
操 作
統 一
説 明
な か
一 種
芸 術
5 2
ザ ン
新 潟
神 経
迎 え
Y O
さ ま
な ん
ア レ
ゲ ン
デ オ
ド ー
ヒ ロ
ブ ランド
プ ル
含 め
対 戦
対 策
建 て
徒 歩
継 続
197 6
u b
し ん
ア ジア
ス ピ
ヤ マ
制 限
取 っ
本 部
翌 年
表 す
長 野
駅 名
198 2
ic a
イ ラ
シ ナ
ド ン
危 険
土 地
基 地
換 え
比 べ
結 ぶ
限 り
クロ ス
o k
死 去
18 6
エイ リアン
い ち
ミ ア
同 一
概 念
管 轄
簡 易
食 品
ティ ー
197 3
4 9
き っ
カ ナ
指 し
自 体
資 格
高 架
オ ール
モ ー
困 難
富 山
延 伸
民 営
禁 止
適 用
197 2
ネット ワーク
さ い
な み
や か
ら い
リ ック
体 育
建 物
被 害
c t
イ レ
ニ コ
バ ッ
パ ク
作 家
分 離
動 作
博 士
印 刷
委 託
家 族
置 く
ファ イル
やす い
v ol
や ま
カ ラー
毎 日
証 明
ニッ ポン
B O
け ん
ワ ード
伴 う
兵 器
成 績
演 出
紙 幣
韓 国
197 9
よ れ
出 会
分 布
分 野
原 則
小 型
沖 縄
男 子
移 管
給 与
置 か
込 む
il l
A I
C H
わ け
グ ル
区 別
南 部
強 化
文 庫
見 る
オ ブ
メ イ
レ ギュ
国 会
広 く
形 状
得 る
直 後
通 じ
長 い
ar d
F C
e b
t o
お ら
ほ う
ア タッチ
会 長
兄 弟
実 行
意 識
秋 田
職 員
農 業
鎌 倉
197 4
197 7
起こ し
ねじ 込み
アタッチ メント
あ まり
三 菱
京 阪
信 用
古 代
ラン ダ
en s
グラ ム
アク セス
出来 る
り返 し
4 00
7 2
S S
ド ライ
令 和
改 良
改 造
相 対
連 邦
長 官
チェン ジ
備 え
再 開
制 定
異 なり
茨 城
車 体
フィ ン
スク ール
タン パク
M E
u p
も しくは
ヒ ット
モ ード
主 演
内 部
女 優
巻 き
支 店
教 会
検 査
記 事
A D
g e
ビ ン
ロ ット
低 下
執 行
息 子
書 か
発 射
落 ち
プレイ ヤー
レギュ ラー
つ ける
と り
ホ ー
乗 っ
結 合
議 会
フィ ー
プラ ス
ロボ ット
6 1
L O
a v
て る
ツ アー
ナ ム
ル ド
一 郎
出 る
実 現
幕 府
敗 れ
移 行
T R
た く
オ ランダ
向 か
後 半
校 舎
競 馬
自 治
良 い
ジャ パン
コミ ュ
A G
i f
や っ
ハ ウス
ワ ールド
向 上
命 名
回 転
引 退
消 防
確 保
連 結
静 岡
ント ン
メタル ダー
i e
か なり
ケ ー
コ ロ
メ ッ
ワ イ
入 学
再 生
刑 事
判 決
展 示
条 約
詳 細
身 長
関 数
194 4
す れ
カ メラ
ク リス
テ ナ
ビ デオ
各 地
物 質
行 く
責 任
進 め
196 3
196 9
) -
5 3
ア ンド
サ ラ
人 生
感 じ
振 り
新 宿
E X
r an
シ ート
ユ ーロ
区 域
名 誉
幹 線
意 見
戦 士
政 権
更 津
木 更津
海 上
独 自
置 き
通 称
進 行
スペ イン
コミュ ニ
f or
ウ ント
ガ イ
ホ ル
リ ズム
助 け
拠 点
松 本
起 点
軍 事
近 代
モン スター
い つ
せ ん
ま と
ゴ ル
ボ ク
主 な
宇 治
少 なく
得 意
応 じ
指 摘
方 言
米 国
製 紙
規 制
集 め
197 1
I P
T HE
ヨ ーク
一 体
作 中
有 名
消 費
言 っ
訓 練
読 み
選 ば
ロー ン
フォ ル
ジェ クト
0 5
9 78
イ オン
コ ール
ダ ンス
レ ベル
合 成
文 学
浮 標
海 外
終 点
見 せ
al l
N S
勧 告
単 独
周 囲
支 持
機 体
灯 標
示 し
統 領
シナ リオ
i o
ら く
ボ ン
ボ ード
伝 え
役 所
戦 車
爆 発
登 記
許 可
領 域
N ight
P ro
な た
サ ポート
ハ カイダー
ミ サイ
メ ディア
中 継
全 く
大 統領
戦 後
王 国
金 沢
or t
トラ ック
ミサイ ル
L D
つ く
ソ ング
ト レ
ト イレ
ビ ッグ
フ ロ
ヘ ン
判 断
吸 収
固 定
役 割
法 廷
犯 罪
現 れ
維 持
リー ム
in e
196 8
S h
ネ ー
中 学
前 述
医 薬
東 映
芸 能
譲 渡
イン タ
197 8
ガ ル
ソ ロ
ブ ルー
マ ンド
レ ット
仲 間
任 意
初 回
山 陽
弁 護
成 田
戦 隊
描 い
自 己
197 5
195 0
トリ ック
OC A
オ ル
交 流
保 安
児 島
安 定
建 造
怪 獣
言 い
部 屋
198 1
196 6
is s
6 3
U N
i k
m an
た び
ク トル
グ リ
ド ゥ
プ レー
伝 統
創 業
完 了
措 置
提 案
有 限
水 素
海 岸
街 道
ター ン
向か う
す なわ
ゲ スト
テ ッカ
入 れる
政 策
競 走
閉 鎖
レー ター
エン ディング
取り 扱い
大き い
いわ ゆる
すなわ ち
P G
ゴ ール
ニ ャ
ピ ング
優 秀
公 益
報 道
提 出
無 く
理 論
達 成
ステ ージ
196 4
プロデュー サー
LI VE
A r
あ たり
オ ート
ッ キー
ド ア
務 める
向 き
更 に
残 し
王 子
続 く
解 決
起 き
バー ジョン
ウェ イ
ギ ル
ク ライ
ケ ル
デ ジ
ホ テル
ミ ス
三 重
上 下
住 民
司 会
合 計
島 式
思 想
死 刑
知 識
西 側
計 算
オリン ピック
オ ス
中 止
保 存
創 立
勝 負
勤 務
四 国
生 成
石 川
重 量
25 0
ニュー ヨーク
ou r
基づ く
7 5
p r
じ ょう
エ リア
エ クス
ス ラ
デ イ
ト ゥ
ミ ング
リ エ
与 える
主 題
作 っ
健 康
医 学
合 格
手 段
症 状
継 い
配 信
鹿 児島
コン パ
ーク ル
0 1
ケ ース
ゼ ル
ダ ウン
交 渉
会 計
市 街
愛 称
機 動
火 災
資 金
陸 上
194 1
バル サン
ec t
ヒロ イン
8 00
q u
ご う
ア ス
キ ン
ギ リ
ケ ーション
ボ ル
両 親
公 共
判 定
学 習
復 帰
活 用
満 た
規 格
高 橋
ar t
ic h
しま い
パイ ロット
ざ ま
た ま
ど の
ッ ション
十 分
太 平
宮 城
持 た
教 え
母 親
準 備
用 語
電 話
プロ ジェクト
196 7
スタ ッ
ガン ダム
ソフト ウェア
メロ ディ
M O
n d
n e
え もん
ま だ
も ら
キ リ
傾 向
出 現
協 議
後 述
札 幌
毎 年
燃 料
社 名
結 び
表 面
要 求
見 える
飛 び
196 5
ドラ えもん
ビ ジ
動 き
可 部
当 該
扱 う
松 井
父 親
西 口
証 券
TO K
あ い
あ ら
か か
中 村
伝 説
前 作
北 部
吉 田
始 める
始 まる
患 者
民 間
決 め
特 許
立 場
解 説
194 5
ヴァ ン
キ リスト
グ リーン
サ ブ
デ ュ
付 い
供 給
到 着
前 身
創 設
家 庭
有 し
本 編
衆 議
隣 接
ロー ズ
ま ち
シ ティ
ミ ル
一 時
互 い
保 険
加 入
取 る
太 陽
当 て
教 科
日 市
殺 害
活 性
減 少
疾 患
繰 り
血 液
調 整
跡 地
防 止
集 団
鳥 取
リア ム
194 9
iv e
小さ な
ミュージ ック
スタッ フ
6 00
I ON
i p
o b
ソ ナ
ッ ター
価 値
向 かっ
工 学
沿 い
記 憶
諏 訪
通 し
シャ ー
レイ ク
オペ ラ
8 8
ど ちら
ひ ろ
ま つ
エ ス
タ クシー
ヒ ル
二 人
圧 力
大 分
昇 格
検 討
消 滅
統 計
194 7
レン ズ
インター ネット
B A
入 院
名 義
商 店
失 敗
学 科
宗 教
年 代
東 口
目 標
科 目
テッカ マン
6 7
B l
C o
W ind
t e
す ぎ
だ い
む ら
ゆ う
ア カ
コ レ
バ レー
俳 優
北 側
友 人
命 令
大 字
対 立
次 郎
現 象
知 っ
記 号
財 団
レー ン
ビジ ネス
W A
か かる
じ ゃ
ら しい
テ ム
ナ ス
パ ル
ボ ス
任 務
各 種
希 望
後 継
推 進
権 利
用 意
田 中
落 と
蒸 気
鈴 木
コン ク
it y
o h
し ろ
ず つ
つ まり
ス イ
リ ッチ
人 事
伊 那
南 西
大 幅
大 量
幹 部
整 理
旅 行
更 新
王 座
生 じる
相 互
窓 口
選 出
青 森
類 別
サイ ド
r y
や り
ス ポ
信 託
入 社
募 集
後 期
投 票
既 に
民 族
物 理
趣 味
195 4
アフ リカ
O P
e a
い き
く れ
ち ょう
サ ート
ニ ン
パ リ
ミ ュ
中 間
京 成
供 用
共 有
出 雲
前 後
拡 張
操 縦
東 側
理 解
異 常
面 積
高 岡
196 1
スタ ジオ
195 9
チー フ
l and
s h
u d
き ょう
た と
ま ず
ッ サ
ビ ット
ヘ ッド
休 止
作 る
依 頼
北 西
回 復
太 田
学 院
山 梨
技 能
描 写
撤 去
支 払
様 子
知 事
資 料
プロ グラム
ンド ン
ジョ ージ
ow s
イング ランド
I R
M BS
P l
S U
c c
ス マ
ゼ ン
児 童
呼 称
基 礎
山 田
年 齢
惑 星
抵 抗
改 善
文 書
旭 川
月 曜
止 め
群 馬
補 助
資 産
ディ オ
ウィ リアム
ジア ム
9 9
か れ
ア ント
シ ップ
マ スター
入 力
戦 う
投 げ
春 日
未 来
立 っ
規 則
超 える
電 化
ショ ナル
リア ル
ブラ ック
起こ す
8 3
D i
i b
ま し
コ ント
ノ ル
メ ル
ル ール
低 い
全 員
審 査
崩 壊
成 分
披 露
数 字
開 校
10 00
ショ ット
ブル ク
as h
きっ かけ
TOK YO
A V
B E
S er
く ら
も り
バ ート
ブ ロ
ラ リー
属 する
当 たり
良 く
衝 突
道 具
ラン キング
キャ スター
ic al
re d
ag e
オープ ニング
I E
S p
ど こ
ア ウト
ス ウェー
テ スト
乗 客
公 演
古 墳
在 籍
知 り
藤 原
身 体
雑 誌
ショ ー
イラ スト
スウェー デン
こ そ
し ょ
っ ぽ
づ け
と おり
マ リア
メ キシ
モ ノ
元 々
分 岐
呼 ん
変 身
市 内
普 及
検 定
残 り
異 端
発 明
相 模
義 務
解 散
遺 伝
ーク ス
195 5
しば しば
さま ざま
F A
P r
v er
y st
し み
べ く
カ バー
サ ークル
ダ ーク
ド リ
バ ース
ピ オン
プ リン
モ ーター
ヤ ン
一 緒
予 選
共 産
具 体
合 意
変 換
弟 子
挑 戦
武 道
残 る
純 情
近 鉄
遅 れ
ール ズ
フォ ン
オー バー
トン ネル
バン ク
メキシ コ
か わ
た ん
よ い
ガ ポール
デ ス
任 命
伊 藤
全 線
券 売
効 率
台 湾
同 士
広 場
方 針
無 料
生 じ
短 期
職 業
走 行
進 ん
マン ション
マー ケット
シン ガポール
ドライ バー
Wind ows
8 6
N ew
う え
コ ス
ミ リー
ワ イト
仮 名
体 重
価 格
勢 力
単 に
単 式
埋 め
場 面
宣 言
必 ず
押 し
敷 地
残 さ
深 夜
灯 台
解 体
コン ビ
at e
194 3
195 1
アイ テム
0 7
K O
M ar
U R
て ん
ば り
も つ
エ ロ
ギ ター
テ ク
下 げ
処 分
吉 野
外 部
対 抗
撤 退
改 革
歌 手
紀 元
負 け
起 用
類 似
高 松
ロー カル
がっ こう
チャン ネル
の 子
や や
カ ット
ソ ード
ニ ス
ヘ ル
レ コード
入 口
再 建
参 戦
取 扱
受 験
同 盟
和 歌
強 力
本 名
東 洋
連 れ
過 ぎ
an t
パー ソナ
上げ る
パーソナ リティ
M us
a st
w it
ば かり
ッ ピング
ブ ロック
ム ー
モ リ
レ ント
下 記
主 催
加 盟
南 側
噴 射
売 り
批 判
携 帯
教 室
料 金
殺 人
発 達
立 つ
逮 捕
項 目
19 28
ディ ス
15 0
プロ セス
組み 合わせ
OC K
ヒー ロー
A F
N o
こ ちら
ア マ
エ ピ
エ スト
カ タ
ク イ
コ ル
テ イ
ホ ワイト
ロ ンドン
付 属
会 場
八 幡
同 日
団 地
望 遠
直 通
自 転
集 中
願 い
195 8
プレ ミア
IC OCA
0 8
C l
L U
M A
M C
m l
か す
ず か
ゴ ッド
パ ッ
マ リ
今 日
南 北
天 使
捜 査
歌 詞
生 命
箇 所
至 っ
課 程
ター ミ
in t
7 7
O p
S u
e y
コ カ
レ ール
ワ シ
三 郎
世 保
予 備
佐 世保
併 設
加 工
半 島
古 い
哲 学
始 まっ
必 殺
悪 魔
戻 る
数 学
母 音
物 件
用 途
考 える
金 融
長 く
フォ ード
ウィ ン
バイ パス
ac k
om p
ポン プ
パート ナー
6 9
L u
ア プリ
リ ット
ロ ール
ヶ 月
保 有
容 易
思 っ
欧 州
現 場
相 談
笑 い
緊 急
語 っ
踏 切
連 携
階 級
頭 部
駐 車
or d
194 8
ファイ ナル
ファー スト
ユー ザー
M P
c on
お お
た か
キ ア
サ ム
タ リー
ベ ーター
人 工
切 っ
子 孫
小 学
島 根
末 期
東 海道
模 様
理 事
跨 線
部 品
スト ン
an g
195 6
as s
インター チェンジ
ターミ ナル
6 8
I G
ハ ート
メ ール
剣 道
単 純
地 帯
実 質
得 点
戦 国
殺 し
生 み
福 祉
車 庫
かか わら
E D
S D
あ なた
ラ テン
上 位
分 子
増 え
大 野
毎 週
瀬 戸
現 実
略 称
称 し
育 成
荷 物
訪 れ
銀 河
高 度
コン サート
ic e
195 2
かけ る
チャン ピオン
ピア ノ
メッ セ
6 4
D e
O L
U n
ま さ
セ イ
チ ア
上 野
体 制
戻 っ
手 法
早 く
次 元
武 蔵
求 める
長 男
開 か
階 段
電 圧
スタ ント
セン ス
8 5
N E
i x
u st
あ き
か さ
き り
も たら
ろ し
ペ ル
マ シン
一 族
代 替
函 館
判 明
博 物
合 っ
名 鉄
地 震
外 科
実 力
宮 崎
左 右
改 築
放 つ
本 格
森 林
漢 字
現 存
著 作
警 備
買 収
週 間
過 程
駆 動
リー ナ
on o
196 2
at or
スター ト
乗り 入れ
まと め
インタ ビュー
0 9
ご ろ
に く
よ し
わ ずか
カ トリック
ガ ラス
一 番
不 足
並 び
全 長
午 後
寄 せ
属 性
従 事
源 氏
複 合
西 方
議 論
進 学
騎 兵
19 31
an n
グ レイ
ッ キ
ト ウ
ナ ショナル
モ チーフ
下 車
会 員
佐 藤
南 東
徳 川
新 規
書 い
木 曜
東 西
深 い
皇 帝
目 指し
直 前
突 き
衛 生
通 行
魔 弾
サー バ
ウェ ブ
生ま れる
II I
デジ タル
0 6
M D
i al
チ ュー
ネ ーム
ハ ウ
ハ ム
ミ オ
リ ュー
レ スト
優 れ
割 り
古 く
声 優
密 度
山 本
従 っ
想 定
感 染
支 線
橋 梁
河 内
火 曜
現 役
続 ける
置 い
観 測
解 釈
諸 国
貢 献
降 り
限 ら
ラン ス
en d
ンド ー
US S
A B
D E
u e
ぐ る
け い
キ カイダー
コ マンド
マ グ
マ イル
モ ンド
井 上
側 面
先 行
原 理
外 交
実 装
教 師
期 待
本 郷
水 曜
河 川
測 定
演 じ
特 撮
積 極
自 宅
船 舶
進 化
遺 産
19 30
リー ド
リン ク
引き 続き
コンパ クト
コンク リート
G P
プ ラン
モ ール
亡 く
京 浜
公 立
動 産
合 流
大 陸
始 まり
学 会
市 営
広 告
循 環
投 資
申 し
空 軍
組 ん
西 武
親 王
解 析
阿 鼻
震 災
フォ ーム
ピン ク
8 9
V A
ち なみ
エ ー
ジ ット
ト ーク
バ トル
ヒ ュー
ポ リ
ワ イド
上 昇
伸 び
市 長
平 和
戦 略
扱 わ
承 認
東 山
東 部
祖 父
終 盤
複 雑
見 え
通 路
香 り
高 知
195 3
195 7
コー ラ
1 20
9 5
a f
y n
さ き
ヒ ト
マ ラ
世 代
例 外
依 存
協 定
取 ら
地 図
屋 根
当 たる
日 中
暮 らし
極 めて
渡 り
締 結
航 路
超 え
輸 入
送 り
19 24
19 26
ディ スク
アー ティ
基づ い
小さ い
ナン バー
エレ ベーター
あ わ
つ なが
ッ タ
プ リング
ボ ディ
レ ル
個 体
公 務
南 海
収 め
帰 国
性 質
授 業
改 修
敗 北
日 間
総 理
講 習
進 む
金 庫
青 山
首 相
イン チ
フィ ールド
194 6
ジュ ニア
ボー イ
ディー ゼル
0 2
M I
e x
s p
し た
だ ろう
ク リア
ケ ンドー
リ ニュー
主 体
事 項
体 験
前 半
劇 中
北 方
否 定
地 点
失 っ
守 る
将 来
少 し
待 ち
抜 け
捨 て
次 い
武 者
療 法
直 し
衛 門
西 部
費 用
軍 人
通 っ
除 い
集 落
革 命
ラン ク
ar y
ウェ ル
チェ ック
コミュニ ティ
エピ ソード
メッセ ージ
リニュー アル
0 3
S C
a z
e g
v s
々 木
あ げ
ば し
シ リ
ス ライ
チ ル
ビ ーム
プ ール
メ ガ
指 示
描 く
本 体
東 急
栃 木
次 第
背 景
茶 屋
負 担
重 視
ライ ター
on g
コミ ックス
193 7
8 7
E n
V S
あ と
う る
か く
さ え
ま れ
オ フィ
ゲ ル
シ ス
ハ ンド
ボ タン
ミ ドル
リ オン
上 がっ
中 山
中 野
会 館
容 量
広 い
斬 り
方 程
注 目
流 れる
温 度
申 請
男 女
白 い
福 井
要 請
言 える
週 刊
鶴 見
en ce
ステ ーション
スタ ジアム
H T
L S
O T
b y
お か
も し
ゆ き
ア ダ
コ スト
シ カ
シ ロ
ド ウ
ネ ラル
パ チー
ポ ジ
両 方
分 析
回 数
図 る
地 位
対 決
座 席
心 理
折 り返し
貨 幣
貴 族
重 ね
際 し
コン デン
ポー ター
IN G
たと えば
S F
i es
l a
い ろ
ど も
カ ス
ガ ール
ソ 連
ッ コ
ユ ダ
付 ける
伝 承
利 益
姉 妹
岩 手
手 術
普 段
架 空
発 言
知 る
社 団
経 緯
結 晶
車 内
連 隊
部 下
電 源
ティ ブ
ショ ート
ヴィ ル
ハン ター
In ter
コンデン サ
9 4
A Y
I V
っ と
カ ール
コ ム
マ ット
人 民
信 頼
修 正
切 れ
危 機
変 え
大 賞
大 隊
天 王
小 田
庁 舎
接 触
日 向
明 確
材 料
正 月
渡 辺
発 揮
短 い
粒 子
衝 撃
見 つ
話 し
該 当
諸 島
辞 典
近 隣
逃 げ
運 賃
黄 色
19 29
リー ダー
アル ファ
フィ ック
フィ ルム
ent s
シェ ル
基づ き
グラン プリ
8 4
C on
N ono
い え
お こ
ら す
エ フ
ス パイ
ベ ット
ホ ン
マ ツ
中 部
中 隊
九 鬼
代 理
住 む
入 手
動 画
博 多
囲 み
変 わっ
多 かっ
大 半
存 続
審 議
属 し
差 し
待 合
楽 器
牽 引
発 車
総 称
緑 色
訴 訟
赤 い
越 え
通 勤
長 期
バス ケット
プロ ダ
194 0
ro s
果た す
6 6
S O
i le
あ さ
な す
ひ ばり
や が
エ ース
ク タ
テ ック
マ ックス
一 致
事 情
事 態
医 師
十 字
友 達
回 避
天 海
奇 跡
平 安
復 興
指 名
有 力
東 武
歩 行
準 急
無 線
特 性
発 音
話 題
阪 神
レン ス
プレ ス
アク ア
プロデュー ス
A BC
b er
い か
ち ょ
と る
は る
も ち
エ ジ
コ ピー
シ グ
ソ ニック
ツ ィ
ト レー
ベ ト
マ ッチ
ム ラ
不 能
回 り
回 収
変 形
小 町
推 移
早 川
武 将
池 田
画 面
研 修
英 国
菓 子
藩 主
違 う
適 切
高 山
ジャ ック
サン ダー
カナ ダ
スイ ッチ
A s
p er
u g
く ん
す ら
れ ん
オ ケ
カ フェ
ク ー
サ ス
ダ ブル
テ キ
ベ イ
マ ッ
ミ ック
メ ダル
ロ ウ
久 保
倒 さ
再 現
周 波
国 土
富 津
張 り
感 情
挿 入
搭 乗
水 戸
沼 田
生 息
画 像
発 動
空 中
経 過
考 慮
資 本
返 し
酸 化
電 流
首 都
駆 け
受け 入れ
is h
ドラ ム
アカ デ
7 9
e at
か 月
ア ミ
カ ム
コ ア
シ ュー
セ ミ
ゼ ロ
ツ ェ
ネ タ
モ ニ
リ ク
上 場
不 屈
以 内
冒 険
分 かれ
前 面
加 藤
北 東
塗 装
天 然
悪 い
提 携
新 人
植 民
気 象
盛 り
装 甲
認 可
認 識
車 種
追 放
遊 び
長 鯨
附 属
須 賀
駐 在
19 27
アル ゴ
シャ ーロ
サイ クル
起こ る
キリ ギリス
エジ プト
0 4
D O
M ac
か え
ケ ージ
セ ー
ゾ ン
タ レント
メ ット
五 十
保 持
修 了
免 疫
兼 ね
前 年
北 緯
受 信
大 手
小 野
態 度
期 限
本 店
本 町
松 山
正 確
死 後
現 地
訪 問
財 産
遺 跡
電 動
オー ストラ
レン タ
ac t
もっ とも
ボー カル
カラ オケ
やが て
G O
M T
e p
u k
づ くり
ア シ
エ ッチ
グ ッド
セ メント
ド ロ
ピ ーター
フ ロー
メ イト
事 前
但 し
住 居
倒 し
出 入
夜 間
大 寺
大 川
妖 怪
引 っ
応 援
戦 艦
手 が
最 寄り
流 星
現 れる
絶 対
翼 型
走 る
造 船
違 反
阪 急
顧 問
魔 女
19 00
er al
ティ ック
ファ ミリー
フィ リ
it e
キー ボード
フラン ク
ig i
ブラ ウン
193 9
クレ ジット
フォル ニア
和歌 山
ベト ナム
オーストラ リア
7 1
F R
M Y
P red
a in
i z
l y
お も
そ んな
と ら
ギ ン
ジ ストロ
ス ル
ツ ール
ハ リ
ビ ジョン
ポ ル
マ ウント
ロ イ
ヶ 丘
一 色
三 河
上 がり
中 島
人 形
兵 衛
出 張
出 発
前 橋
勉 強
千 代
各 国
塩 化
大 将
定 める
新 生
既 存
未 満
横 須賀
殺 さ
渡 し
率 い
簡 単
結 局
議 長
過 ご
麻 雀
ユダ ヤ
アルゴ リズム
9 00
N N
a x
が ん
し ゅ
ち ゅう
ア リ
ク レーン
ケ イ
コ ネ
ジ ニア
ス ポン
ソ ウル
バ カ
フ ライ
ブ ック
メ ス
ロ バート
中 華
体 系
修 理
内 側
大 輔
当 日
支 社
暴 走
王 者
病 気
練 馬
記 者
谷 川
運 送
19 23
プラ ット
ウォ ー
ファン タ
カリ フォルニア
置き 換え
ホル モン
シャーロ ック
Pred ator
7 00
I A
J AP
P D
U E
b o
l d
m e
s e
が い
が 丘
も とも
エ リ
キ ュー
グ ロ
シ ック
ハ ッ
パ ソ
ホ イ
メ カ
ラ ッシュ
ロ ング
下 部
出 資
刊 行
前 方
前 期
即 位
名 付け
四 日市
境 界
大 宮
奉 行
後 ろ
恐 れ
悪 化
所 持
抱 え
明 る
最 低
月 刊
東 方
東 経
構 想
渡 っ
直 線
福 亭
笑 福亭
美 濃
若 い
請 求
講 師
軍 艦
転 換
通 算
釣 り
閲 覧
青 年
ティ ア
on d
ステ ークス
193 4
デン マーク
もとも と
C G
M S
O K
O r
き ん
じ ゅう
は ず
や し
エ ム
サ ウンド
ジ ル
ズ ル
テ ニス
ナ ビ
ニ ックス
ミ ナ
並 行
中 立
休 日
共 演
前 提
問 わ
大 人
大 橋
守 護
小 林
恋 愛
書 店
武 士
沿 っ
浅 野
町 田
目 指す
知 山
福 知山
私 立
突 破
競 艇
終 わっ
繰 り返し
記 さ
輸 出
防 ぐ
魔 物
ート ン
フォ ーク
ウィ ル
持ち 主
バイ ス
od e
ファイ ナ
小さ く
出会 い
あら ゆる
Lu igi
7 6
D S
E S
G E
a h
i el
ス リー
ッ ズ
ド ール
メ ジャー
乗 る
借 り
働 き
全 面
出 典
北 陸
単 行
合 う
山 陰
幼 稚
徐 々
成 人
改 名
日 常
最 小
機 会
正 体
気 動
流 通
確 定
終 わり
翻 訳
自 主
表 明
要 する
視 聴
言 及
試 み
調 べ
論 文
負 傷
送 っ
運 輸
防 御
飲 料
ター ズ
日本 橋
at h
タン ク
ヴァ ー
ゴル フ
1 10
F F
K o
V er
b r
n o
が し
く れる
ま ん
ゆ え
エ ク
ガ メ
ク ロー
テ ロ
バ リ
ル ン
ロ ゴ
一 宮
上 がる
争 い
傘 下
再 編
各 駅
変 わる
外 側
子 音
尋 常
山 下
幼 少
待 避
後 者
投 与
探 し
曰 く
樺 太
正 面
死 ん
気 筒
深 く
監 視
称 さ
空 襲
経 路
英 雄
行 方
観 察
語 り
講 談
買 い
開 い
関 与
ショ ップ
ステ ン
194 2
クラ ウ
スペ クトル
am a
193 3
イス ラム
チュ ア
ヘン リー
JAP AN
パソ コン
H e
P h
U C
d u
あ ろう
じ ゅ
み んな
ク ール
サ ンド
ソ ース
ド ーム
バ リア
ヘ リ
メ ディ
ー タ
両 者
五 郎
交 代
代 行
住 ん
区 画
協 同
召 喚
合 同
同 型
多 摩
実 業
実 況
実 用
岡 崎
師 団
投 入
書 体
正 統
沈 没
法 則
派 生
海 水
災 害
異 なっ
看 護
答 え
装 着
車 線
込 め
野 田
香 港
ティ ン
ラー メン
ジェ ル
アレ ク
yst em
した がっ
バスケット ボール
6 5
S ch
p ro
s k
で に
ば ら
ま ら
り ょう
ア ム
グ モ
コ ック
ト ヨ
ナ メント
ネ イ
パ ール
ペ ット
レ ート
中 世
主 流
予 約
全 域
命 じ
和 名
小 倉
小 山
平 方
心 臓
改 編
暗 殺
暴 力
松 鶴
格 闘
決 意
率 いる
甲 板
着 用
積 み
聖 書
選 抜
養 成
スト リア
ショ ッピング
チャ ート
ol og
リス ク
トル コ
スー ツ
193 6
AN D
un d
出来 事
スケ ート
ボク サー
プレミア ム
パッ ケージ
ポジ ション
G l
M L
N O
S E
b ian
e ar
っ て
ま え
め ぐ
ら しく
わ たっ
ア ール
イ エ
キ ス
ゲ キ
コ ート
ス カイ
バ レ
ベ ルト
三 十
三 角
上 訴
不 詳
中 期
交 点
併 用
保 健
保 障
先 生
全 身
初 頭
南 口
合 戦
大 津
太 刀
女 王
始 発
戻 し
抜 き
掃 海
放 射
放 映
木 曽
海 兵
終 え
臨 床
興 味
離 脱
19 20
ロー プ
at a
ージ ェ
取り 付け
アク ション
やす く
ホール ディング
バレー ボール
Ser bian
アーティ スト
あわ せ
ファイナ ンス
9 8
G en
o o
す でに
ず み
り ゅう
ゲ ート
ス イス
セ レ
ネ ン
フ ット
ブ ー
ヨ ン
ラ ウンド
上 映
住 友
侵 入
先 頭
公 表
古 典
司 法
合 体
圧 倒
山 形
工 作
従 業
意 図
投 手
新 田
最 強
最 近
梯 子
構 築
橋 本
民 国
気 持ち
水 道
津 山
滋 賀
激 しい
獅 子
琉 球
発 症
称 する
統 治
継 ぎ
脱 出
表 彰
起 工
越 し
達 し
開 幕
限 界
青 春
高 野
as e
id e
US NS
AR T
iv ers
キャン パス
フロ ント
落と し
ミオ パチー
レスト ラン
ジストロ フィー
7 3
G M
M y
O VA
P a
S c
p l
し も
は ら
ア ート
オ イ
ガ イド
グ ランド
シ ネ
ナ レーション
マ ジ
マ マ
モ ーション
ロ マン
一 切
一 貫
一 面
両 国
中 型
信 仰
内 海
再 会
参 考
同 月
売 却
大 船
天 文
当 選
徳 島
拒 否
文 献
本 拠
様 式
横 山
歴 代
海 峡
特 技
現 行
継 ぐ
肉 体
自 殺
艦 艇
電 機
音 声
高 田
スト リート
ディ レ
or e
フィ ア
フィ ル
ジェ イ
ダイ ス
チェ コ
ポー ランド
グラ ス
193 5
生き る
トー ナメント
CH AR
ギリ シャ
スポン サー
ホールディング ス
A m
H C
L L
S m
n et
う ま
お う
げ ん
し ゅう
な れ
ほ ん
や く
ア キ
ウ ー
エ ディ
カ ク
ゼ ッ
ッ パー
ド リーム
ハ ード
フ ード
マ ニ
ラ グ
付 く
促 進
再 度
刺 激
創 造
反 乱
受 託
和 田
商 事
商 人
執 筆
変 える
姿 勢
役 場
戻 り
改 定
救 急
時 計
本 当
村 上
業 界
歌 う
歯 科
理 科
症 候
筋 力
薩 摩
襲 撃
見 せる
解 放
診 断
配 合
重 複
騎 士
ステ ップ
キャ ッチ
およ そ
イル ス
リュウ ケン
Mus ic
シカ ゴ
アカデ ミー
トヨ タ
9 2
G u
L e
M G
O W
f f
s u
と ど
み つ
ア チア
イ カ
イ ナー
エ ト
エ ンド
ミ ット
モ ラ
ロ イド
一 環
不 可
全 般
出 口
加 わっ
午 前
反 射
収 集
同 期
和 泉
圧 縮
多 様
天 正
女 の子
実 績
小 川
意 思
払 い
抑 制
抱 い
振 興
木 村
木 造
温 州
特 集
甲 府
結 ん
舞 鶴
衛 星
被 告
複 線
護 衛
食 事
養 子
19 13
er n
レー ザー
es ents
クロ アチア
190 6
ウォ ル
An d
ミル ク
クイ ーン
8 2
A d
D M
W or
c l
c om
e ch
ご く
さ せ
ら ん
わ れ
ア ウ
エ ッ
オ イル
オ レンジ
ソ ル
プ ス
ヨ ー
ラ ボ
ロ ケット
並 ん
乾 燥
先 端
出 走
南 斗
参 議
収 容
吹 き
回 っ
国 造
外 見
失 わ
嫌 い
巡 洋
支 部
新 型
校 長
権 限
浴 び
混 乱
独 特
番 地
短 縮
空 母
約 束
継 が
老 人
苦 手
誘 導
調 達
貿 易
開 き
開 放
飯 田
19 11
ショ ック
ロー チ
パー ツ
ジョ ー
オー ストリア
アニメ ーション
起こ っ
ou t
190 5
切り 替え
スポ ット
アプリ ケーション
プロダ クション
Ko ch
9 6
A A
B ash
C omp
L A
s n
こ ん
つ る
な ぜ
ガ ード
キ ック
ツ ァ
ド ライブ
マ ガ
モ バ
レ コー
中 断
伊 東
会 津
取 材
古 賀
味 方
大 田
太 子
実 態
客 車
強 制
愛 媛
感 覚
憲 法
戦 前
権 力
橋 上
歌 唱
法 学
海 賊
爆 弾
知 行
祭 り
立 地
育 て
落 語
詰 め
語 ら
警 視
通 る
開 拓
隠 し
青 色
19 25
ディ ズ
ライ フ
ライ ダー
an k
カー ン
ルト ン
193 2
ac e
AM P
スティ ー
ジャン プ
188 9
ケー ブル
ボク シング
満た す
NE W
にく い
クラウ ド
- 』
9 3
B o
M US
a ch
u re
あ け
か み
じ め
そ も
の び
り ん
エ ド
カ レ
コ ウ
ジ ュー
ス キ
ス リ
タ ナ
ト ム
ビ ング
ベ ート
ボ ックス
ヤ ード
上 杉
不 良
事 例
仮 称
会 期
債 務
働 い
分 校
分 裂
削 除
創 作
台 車
国 勢
土 佐
大 使
大 悟
大 河
学 ん
守 之
式 典
応 答
描 き
故 障
敷 設
本 位
武 装
水 野
演 算
田 村
確 立
符 号
等 級
聞 い
興 行
芸 人
資 源
部 位
除 き
er t
プロ ト
アル ティ
デザ イナー
カン パ
im e
フィン ランド
Su ica
アルファ ベット
7 4
8 1
A b
C ar
H P
Y ou
あ の
く に
な う
は り
み ち
ト ライ
ベ クトル
マ ウス
並 ぶ
仮 面
任 じ
伝 える
厚 生
変 わら
夕 方
大 将軍
天 神
年 金
幼 い
思 議
戦 時
扱 っ
旗 艦
日 野
来 る
板 橋
椅 子
検 索
歌 っ
歩 道
水 上
画 家
疑 問
盛 ん
看 板
移 植
移 設
箕 面
素 材
西 洋
要 件
降 車
音 源
19 14
18 0
ライ ズ
ライ バル
バー グ
ロー タリー
mm F
トラン プ
BO X
CHAR MY
C P
E d
R NA
t r
あ たっ
さ と
つ な
ど んな
ま せ
ア プ
ウ ッド
カ テ
ジ ラ
ダ ニ
ダ メージ
テ イン
ネ ック
バ チ
ビ ュ
リ ゾ
ル イ
三 井
予 算
付 加
伴 っ
佐 々木
倒 す
切 断
周 り
回 る
屋 敷
悟 空
文 部
日 産
消 し
消 火
爬 虫
登 山
社 員
観 客
解 消
許 さ
財 政
違 っ
酵 素
ラン プ
プロ レス
ジェ ット
クト リー
マイ クロ
アラ ゴン
アド レス
ニュ ートン
Pl ay
スマ ート
エッチ ング
ディズ ニー
. ,
2 10
B R
C C
C ol
M B
M ag
W BC
k W
こ く
ふ く
ぼ の
テ ス
デ モ
ハ ル
フ ー
ミ リ
ミ ックス
ム ーン
ヤ ング
ロ フ
下 ろし
主 力
之 助
伊 予
作 者
出 店
前 田
動 力
叩 き
実 家
容 疑
平 面
座 標
後 部
改 め
放 出
書 籍
生 涯
端 末
脱 退
航 海
薬 師
血 管
観 点
言 え
討 ち
訪 れる
読 売
軽 量
通 う
通 学
金 額
飲 み
高 圧
黄 金
ない し
ント リー
or y
ジャ ケット
ic k
レン タル
フェ ン
コー チ
St e
ビー チ
EN T
シル バー
ct ion
オフィ ス
I B
ぐ ち
す ず
た け
ふ る
ア ース
エ スカ
ガ ソ
サ スペ
シ リン
ツ イン
ナ イン
マ シュ
ロ ッド
下 表
不 思議
仏 教
侵 攻
分 解
動 脈
北 口
半 ば
占 領
双 方
反 映
宣 伝
富 田
山 崎
後 方
忘 れ
成 果
技 法
投 稿
排 出
損 傷
攻 略
教 員
明 日
替 わり
本 項
栽 培
歴 任
決 戦
決 まっ
沿 線
焉 耆
無 限
環 状
町 村
確 率
究 極
西 大寺
親 友
解 除
認 める
読 者
連 勝
運 休
都 心
開 館
20 21
19 22
コン コース
ic s
ルー ツ
エン ス
アン テナ
ジェ ーム
グラ フィック
トリ ウム
un g
フリー ドリ
ゴール デン
マガ ジン
モバ イル
ガソ リン
B B
B e
C am
H O
H z
I O
N T
S ystem
i er
m ent
あ く
い け
こ い
っ かり
ゆ み
エ イト
オ プ
ボ ート
ポ ップ
モ ス
ユ リ
ラ ・
一 旦
上 部
下 関
乗 員
修 道
元 気
六 角
墜 落
外 れ
戻 す
手 掛け
援 助
早 朝
明 石
書 く
最 新
架 台
次 々
演 説
留 置
石 油
秘 書
終 着
繊 維
署 名
船 橋
薬 物
衣 装
表 さ
記 し
貫 通
退 団
送 ら
進 み
選 定
関 心
除 去
順 序
鹿 島
on e
レー ベル
ーン ズ
起こ り
ファイ ア
ation al
ギャ ラリー
ph er
イー スト
LE D
ヴォ ル
出会 っ
カク テル
3 000
9 1
M on
R PG
T A
c k
お く
が わ
さ くら
ざ る
っ きり
ま じ
み な
め い
エ ティ
ザ イ
セ ブン
テ リー
ト マ
ブ ース
ペ ア
ボ トル
マ リー
レ シ
保 管
信 じ
公 安
函 数
初 め
別 名
取 扱い
向 かい
土 木
外 観
大 岡
威 力
宇 都
定 数
帰 還
平 野
急 速
振 る
改 組
数 多く
書 房
機 種
歩 兵
液 体
焼 き
特 務
石 炭
神 話
美 しい
表 し
要 望
逆 転
長 谷川
イン テ
ar k
チャ ード
it ion
フェ ア
ダイ ナ
マイ ケル
プラ ザ
190 7
ia ea
ひと り
スコ ア
スピ ード
クライ アント
のび 太
宇都 宮
. -
D ay
E x
G I
K iss
L t
N P
P ER
W i
W eb
か 所
き ゅう
ひ ら
わ し
ア ーム
ウ イルス
エ ージェ
ガ ウ
ザ ク
ナ トリウム
ネ オ
パ ターン
ブ レイク
ヘ ビー
ベ ス
ペ ー
ユ ウ
ロ ケ
二 十
人 類
偵 察
入 試
分 散
北 九州
占 め
司 教
合 金
周 期
問 い
国 王
変 数
学 年
居 住
市 電
広 げ
廃 車
怒 り
懲 役
戸 塚
才 能
排 水
接 近
新 築
景 観
次 ぐ
留 学
石 田
神 宮
自 社
舞 踊
若 干
触 れ
証 拠
識 別
貨 車
赤 道
送 る
送 信
都 営
長 年
降 下
離 婚
需 要
高 齢
19 12
ショ ウ
ジャ ズ
アメリカ ン
アイ ル
st r
re am
LO VE
レンタ カー
Gen eral
ゼッ ケン
C R
F I
P V
S A
T I
a w
y l
お き
か かっ
し り
そ ば
ア ジ
キ スタン
シ リア
ジ スタ
ゾ ーン
タ ワー
バ イト
上 海
予 想
公 司
区 分
原 町
同 意
名 乗っ
在 日
変 遷
定 員
宝 塚
小 牧
廃 線
弘 前
思 う
思 考
挙 行
最 上
村 山
東 宝
松 尾
格 納
次 男
水 洗
流 域
海 洋
混 合
演 劇
田 辺
発 券
着 工
研 磨
破 り
立 体
行 なわ
襲 わ
試 作
認 知
認 証
財 閥
転 じ
過 剰
適 し
配 慮
闘 士
雇 用
麻 痺
19 19
10 5
イン ディ
コン サル
ジャ イ
エン ター
フェ ル
193 8
ヴァ イ
マル チ
スティ ック
述べ る
ul t
エレ クト
まつ り
ノル ウェー
テイン メント
C LU
D iaea
G e
J A
J ap
L in
a i
h y
r it
い れ
い える
う た
し れ
づ く
み や
み る
イ ヤー
グ ロー
セ ラ
セ プト
ナ ツ
ネ シア
ノ ミ
バ ード
ブ ラン
マ ク
ミ ラー
リ チャード
乗 せ
代 謝
伊 達
低 く
併 せ
偶 然
働 く
半 分
地 形
外 し
実 践
強 調
当 主
恋 人
戦 死
授 与
排 気
推 薦
揚 げ
撃 墜
政 令
故 郷
文 章
池 袋
添 加
無 かっ
福 山
翌 日
背 中
被 災
象 徴
近 郊
道 場
阻 害
除 籍
風 景
高 原
黒 い
19 15
19 21
ライ センス
なく なっ
13 5
キャ プ
エン タ
リス ナー
フェ ニックス
re c
トラ ブル
id ge
ウォ ール
ベン チャー
189 8
oc k
ゴー スト
コント ロール
アプ ローチ
CLU B
C E
C T
G o
S R
だ ら
つ か
で ん
ふ た
や る
ガ ラ
ク ルー
ス ラー
セ シル
ソ ビ
タ ック
チ ップ
ビ ール
上 述
乗 務
元 町
公 募
切 る
削 減
前 者
勃 発
化 合
右 衛門
同 人
同 志
含 ん
喧 嘩
固 有
国 務
地 理
地 面
学 区
守 備
少 将
平 田
広 がっ
当 地
応 用
教 皇
曖 昧
朝 廷
楽 し
標 高
正 常
母 艦
河 野
渡 る
確 実
神 学
移 り
積 載
結 ば
縮 小
財 務
貸 切
起 動
足 利
配 備
スト ア
レー ティング
エン ジェル
ウン ジ
チェ ーン
メン タル
St ation
190 8
US B
ギャ ン
ワーク ス
Al l
ダウン ロード
あけ ぼの
オプ ション
ソビ エト
J oh
R OCK
a il
p e
か な
か も
み なさ
イ チ
ク レイ
ゲ イ
コ ット
コ メント
セ キュ
ナ ック
ネ ロス
ホ スト
ョ ン
ラ ブ
レ オ
レ フ
三 浦
上 伊那
代 数
佐 久
先 輩
切 ら
前 線
去 っ
収 入
在 学
大 山
奪 わ
家 臣
常 磐
幼 虫
広 域
建 立
担 っ
操 業
民 事
港 南
焦 点
石 綿
祝 日
称 号
筋 肉
管 内
絵 画
角 川
調 教
走 り
遭 遇
郊 外
電 解
非 難
19 16
an ce
in a
レー ズ
シャ マシュ
キャ リア
取り 入れ
マル コ
データ ベース
ギャ ラ
フレ ーム
ov e
コミュニ ケーション
pr esents
エロ ース
wit h
ディス プレイ
アマ チュア
過ご し
E P
G A
M V
P i
j ect
p s
い す
た し
エ ラ
カ ザ
カ ウン
コ ラボ
ザ ード
ッ テ
デ ビル
デ バイス
ノ ート
ブ ログ
プ ター
ホ ウ
ポ スト
マ ネ
ラ ジ
ー ラ
一 連
不 安
世 帯
介 し
代 わっ
会 話
会 談
体 内
免 除
全 米
助 手
勾 配
北 見
占 める
在 位
多 項
大 名
大 島
天 気
子 ども
学 級
官 僚
対 処
幕 張
忍 者
戦 力
手 紙
振 動
捕 ら
改 訂
整 数
断 念
明 け
根 拠
水 中
法 令
消 え
消 化
無 効
特 典
睡 眠
示 さ
移 住
稲 田
立 川
緩 和
繰 り返
若 手
菅 原
著 名
著 書
製 薬
要 塞
観 音
話 す
軍 隊
連 覇
関 わっ
関 わる
19 10
ラン ト
プロ テ
at t
とも ない
スタ ンド
is m
クラ スター
アン ダー
ドル フ
テー ブル
ジャン ル
オペ レーティング
食べ 物
さい たま
巻き 込ま
ran s
ニャ ン
br idge
フリードリ ヒ
あく まで
Jap an
セキュ リティ
M et
O F
R Y
S ou
S OCK
W E
o ol
o us
し き
だ ん
て つ
ね ん
わ たり
ア セ
ア ポ
ウ サ
ウ ズ
オ ム
カ スタ
セ リ
ゼ ント
ソ ウ
ソ ニー
ト リア
ナ ップ
ノ ス
ノ ック
ノ ール
ノ ガイ
バ ランス
ピ ット
ブ ライ
ペ ース
メ モリ
ョ ウ
ヨ ット
リ ポーター
レ ッ
レ ム
丹 波
交 番
今 回
今 後
伏 見
住 吉
係 数
保 守
倉 庫
八 重
処 刑
出 土
千 鳥
及 ぶ
史 上
回 し
囲 気
基 盤
大 社
天 心
夫 婦
季 節
学 名
学 者
室 町
宮 町
工 程
帰 っ
復 元
恐 怖
抱 き
捕 虜
掛 ける
推 測
支 え
救 出
最 中
松 島
横 川
樹 脂
流 し
海 域
甲 子
皮 膚
監 査
考 案
聞 き
落 下
語 る
論 理
走 っ
遠 藤
釧 路
防 波
雨 宮
雰 囲気
飛 ば
ター ル
フェ リー
アイ ス
イス ラ
ファイ ターズ
シェ イ
ウル ス
ナン シャル
リュウ ガン
インド ネシア
ダイヤ モンド
Al i
スラ ヴ
もら っ
コレ クション
アダ ルト
ファンタ ジー
MUS IC
1 12
D r
N ET
O B
S M
Y A
p ort
い ん
え ん
じ ん
な つ
ぶ ん
り つ
エ ステ
カ ツ
ク イズ
ゲ ー
コ ト
ッ チャー
ド キ
ニ ル
バ ット
ビ ック
プ ー
ボ ウ
モ レ
ヤ ル
ラ ウンジ
ヶ 所
上 京
上 方
二 郎
冒 頭
刑 務
口 径
右 側
同 等
和 解
報 じ
変 成
変 わり
天 保
天 才
学 ぶ
守 り
室 内
寺 院
巨 人
差 別
強 度
抑 え
拘 束
支 所
新 地
昇 進
時 刻
死 者
毎 回
決 める
淡 路
炭 酸
照 明
爆 撃
田 舎
番 台
相 続
着 手
瞬 間
短 く
示 唆
神 田
突 然
端 子
続 編
織 姫
補 給
要 因
論 争
講 演
迎 える
近 江
遣 い
野 川
金 山
難 しい
高 崎
ライ オン
コン セプト
or k
13 9
14 0
ig h
マイ ク
of t
190 9
アナウン ス
BE ST
ハウ ステン
アシ スタント
プラット フォーム
ディレ クター
レコー ディング
カンパ ニー
リゾ ート
かも め
ハウステン ボス
G IR
H I
K V
T r
Y Z
c o
d i
い ま
が く
ち なん
つ れ
て い
ぼ う
や はり
わ たる
チ ック
テ ッド
パ ケット
ヘ ア
ボ ーン
マ ダン
マ ネー
メ リット
仕 え
他 人
住 み
余 り
保 証
修 行
優 先
光 線
全 力
公 認
兵 士
出 席
分 ける
到 達
参 入
呼 吸
商 号
変 動
安 芸
定 理
対 馬
小 路
府 道
彫 刻
戦 っ
承 継
数 値
日 記
早 期
暗 号
望 む
検 察
洗 浄
物 体
球 場
百 貨
立 た
終 戦
老 朽
興 業
船 体
行 事
補 充
解 剖
詩 人
開 店
電 磁
面 し
順 次
19 17
11 1
ライ ナー
コン テン
セン チ
レン ジャー
コー ヒー
シア ター
am p
ザー ズ
190 1
ボー ナス
オリ コン
食べ る
バッ タ
ギリ シア
もら う
ひばり が丘
テキ スト
マジ ック
Wor ld
Cam bridge
Lt d
SOCK S
A X
B er
J F
M R
N R
P IE
R ec
S up
a u
l o
s ch
か ぶ
が ら
き れ
ぎ ょう
っ くり
は し
ゆ く
グ レン
コ メディ
シ ウム
ゼ ルス
タ カ
パ フォー
レ オン
下 位
不 正
伯 爵
倒 産
儀 式
制 裁
劇 団
功 績
動 員
印 象
古 川
吉 本
同 僚
同 市
同 級
品 川
品 質
国 外
国 防
墓 地
士 官
大 佐
大 西
寿 命
導 体
岡 本
川 口
恐 竜
攻 め
日 新
日 立
旧 制
早 い
木 下
松 竹
永 井
沿 岸
済 み
渡 さ
片 側
狩 り
発 掘
着 陸
石 垣
空 き
策 定
組 む
総 督
習 得
藤 田
行 なっ
行 える
退 職
閉 じ
間 隔
関 わら
闘 争
隊 員
騒 動
高 級
リー フ
ディ ル
ファ ッション
or n
キャ ノン
ジェ ネラル
イル ズ
ブラ ジル
テー プ
ヴェ ル
シェ ア
AT ION
アップ ル
187 4
AC E
トラン ス
バラ エティ
ov er
NA TO
if e
たび たび
ワシ ズ
ぐる み
亡く なっ
ジュー ス
ジェーム ズ
アイル ランド
Joh n
5 000
D X
G T
I F
L AN
M AN
P R
R o
R es
S L
f m
f er
i um
n a
p t
s on
y s
あ ん
お と
っ ち
ま い
ウ スタ
オ レ
ガ リ
シ ド
ハ マ
ハ ラ
ペ ーン
メ トロ
ル ーム
三 木
上 流
上 級
丘 陵
交 際
具 合
内 蔵
力 学
北 条
南 方
単 なる
原 題
反 面
可 愛
地 獄
増 大
変 異
夕 張
大 口
大 谷
天 国
太 字
定 着
宿 泊
岡 田
年 数
後 年
御 影
悪 く
感 度
指 令
接 する
救 助
教 団
新 春
施 し
有 人
本 塁
柔 道
検 出
横 断
民 法
水 深
水 雷
流 行
混 雑
特 異
王 朝
着 い
石 井
算 出
結 論
要 領
貸 借
賞 金
運 命
運 航
遠 征
避 難
配 布
食 い
飾 り
香 川
駐 屯
15 5
ファ イト
ar e
キャ スト
フィ ナンシャル
ジャ ス
マン ス
ラー ズ
エン ジニア
スター ズ
フェ スティ
プレ ゼント
IS O
マイ ナス
バイ ク
レス リング
ON E
もっ と
立ち 上げ
スカ ウト
187 5
リュウ ジン
キャン プ
TV A
アラ ブ
プライ ベート
ヤマ ト
キャプ テン
コンテン ツ
ウスタ シャ
フェスティ バル
) ,
D AY
J U
K A
L ive
M Hz
S G
V IS
d er
e k
f eat
お そ
か ね
ず る
づ き
ふ れ
ア レンジ
イ ラン
コ モ
ス ロー
ス ピン
チ ス
テ ール
ネ ズ
ノ イ
ヘ ルム
マ ップ
ヤ シ
ユ キ
レ ディ
ロ マ
ロ サン
交 付
交 響
人 造
伝 わる
修 復
側 線
入 門
共 済
兼 任
出 動
加 える
努 力
勇 気
千 種
原 料
厳 密
可 動
合 理
同 名
夏 季
多 用
天 下
太 夫
完 結
宮 廷
家 系
対 話
専 攻
山 頂
工 廠
師 匠
府 中
度 々
廿 日市
引 用
役 員
御 所
怪 我
成 す
戻 さ
批 評
拗 音
掲 げ
文 明
昆 虫
東 子
欧 米
死 ぬ
法 務
玄 関
理 想
由 紀
直 径
相 撲
県 内
競 争
筑 波
織 田
誇 る
賭 け
避 ける
録 音
香 典
馴 染
10 9
スト リ
スト ップ
ar a
フィ ギュ
カー ズ
サイ ダー
チャ レンジ
シュ ヴァン
ジェ ン
入れ 替え
ブラ ッド
ガン ダー
パン チ
ジュ ール
クラス メイト
キャン ペーン
セル ビア
トップ ガンダー
グレ ート
ブレ ード
アレ ル
すぎ る
埋め 立て
もたら す
ハンド ル
HT ML
手が け
うま く
プロト コル
バチ カン
シリン ダー
レシ ピ
ギャラ クシー
Ali ens
フィギュ ア
C S
J O
M ic
T H
X X
a ir
m us
y a
あ や
か た
が た
つ め
ふ じ
ま か
ア テ
ガ リア
コ コ
ス プリング
タ ク
ツ ー
テ イルズ
ド キュ
パ ロ
ミ ド
レ イン
ヶ 浦
中 津
主 導
予 防
佐 賀
入 場
公 社
写 像
動 く
勝 手
厳 しい
各 社
吹 田
国 境
学 問
学 術
宮 前
家 事
寺 山
小 杉
尼 崎
届 出
島 田
工 芸
常 滑
庭 園
惚 れ
憧 れ
改 装
旋 回
朝 熊
本 数
概 要
構 え
欲 しい
正 しく
武 術
残 存
法 的
渋 滞
濃 度
火 山
無 視
物 資
玩 具
町 名
白 色
皇 子
米 朝
終 結
緑 地
美 子
艦 長
花 火
葬 儀
行 軍
言 動
誇 り
負 っ
起 源
起 訴
返 り
逃 亡
透 明
造 り
選 ん
遺 体
郡 山
酒 田
開 閉
降 板
集 まっ
頻 繁
題 材
飼 育
19 18
イン スト
11 3
サイ エンス
チャ ージ
スタ ル
クラ シック
スク エア
バイ オ
シン ボル
アナ ログ
インター ナショナル
下り 線
グレ ード
ムー ビー
はる か
エスカ レーター
ザク セン
C ent
E F
G re
H S
N BA
Q U
W al
c ol
g en
s er
t y
u x
が ち
き ょ
し ら
ぞ う
む しろ
も も
ア リス
ア リスト
ギ ア
ク モ
ゲ ット
ズ マ
ッ ヒ
デ ート
ビ リ
ベ リー
ポ ケット
ミ ラ
ミ ントン
ミ ッション
メ ニュー
リ レー
リ トル
ル イス
一 員
上 田
上 陸
事 典
人 材
人 格
人 質
介 入
他 社
入 団
内 子
出 馬
加 賀
原 田
反 発
品 種
増 設
増 える
大 平
大 破
女 流
学 長
官 房
対 照
市 道
市 町村
弱 い
愛 し
慶 應
手 前
探 偵
接 し
放 っ
放 水
斎 藤
日 々
曹 操
有 料
有 田
来 日
松 田
検 疫
正 義
残 す
気 流
浜 田
滞 在
狭 い
田 園
町 内
県 庁
破 っ
若 者
茶 の
薬 剤
装 飾
見 解
訴 え
誤 解
課 題
遮 断
電 撃
音 速
高 値
10 1
レー ダー
プロ モーション
リン カーン
パー セント
フェ イズ
サン タ
ro m
合わ せる
ER O
ER S
IN E
スピ ーカー
エクス プロ
ヒル マン
wit ter
ワシ ントン
ウェブ サイト
トレー ニング
千代 田
ゲキ リュウケン
カテ ゴ
Play Station
ロサン ゼルス
- )
A f
B r
F or
G N
I L
I s
J IS
K B
M X
M e
M k
V T
W OR
r d
v e
y m
し め
っ こ
な き
ぼ し
み ず
ろ ん
イ セン
エ ヴェ
オ ーク
カ ワ
キ ット
ク ジラ
ゴ ラ
セ ール
タ クト
ッ ティ
ペ イ
ポ ルト
マ ド
ミ ッド
メ タ
モ ル
レ モン
レ ビュー
ワ イン
ヶ 谷
一 帯
中 盤
亀 山
予 報
作 動
備 える
元 素
光 明
入 居
入 隊
八 代
公 判
公 民
典 型
制 約
前 回
剣 術
北 斗
受 付
口 蓋
喜 劇
在 住
城 崎
実 在
家 督
就 職
展 望
島 津
帰 り
帽 子
弱 点
当 然
当 たっ
従 者
復 讐
徹 底
志 摩
感 謝
懸 念
成 り
成 瀬
手 伝
手 続
折 り
挟 ん
放 棄
施 さ
条 文
染 め
止 める
武 田
沙 羅
津 軽
浦 和
無 し
生 存
真 田
素 子
維 新
美 女
脱 離
菊 池
融 合
行 列
読 む
調 理
豊 か
豊 田
負 荷
質 問
踏 み
迫 撃
進 水
進 める
運 搬
金 銭
閉 店
除 菌
隠 れ
集 積
青 木
面 目
音 響
飯 塚
10 3
スト リーム
ディ ション
ライ ブラ
ロー ラ
アル コール
シャ イ
フィ クション
マン ガ
シュ タ
取り 上げ
ウェ ン
フェ イス
th er
引き 継い
am e
バル ブ
トラ スト
まっ たく
ガー デン
しば らく
タウン シップ
カリ ウム
アド ベンチャー
ソー シング
メイ ク
エクス プレス
コス プレ
ゴッド ネロス
Mag ica
ファイア ウォール
パフォー マンス
おそ らく
エヴェ ッサ
- (
- -
D D
F E
F l
M W
N EC
T a
U F
h e
r al
y o
き み
く らい
さ わ
ぜ ん
ね る
ば ん
カ ウ
グ ッズ
シ オ
シ クロ
ソ クラ
タ ミン
チ ッタ
ヌ ス
バ ク
パ ネル
ボ ラン
マ キ
ロ ジー
不 満
不 要
予 測
仮 定
使 命
便 宜
僅 か
全 部
八 木
八 王子
分 泌
前 日
北 京
史 料
同 行
和 子
四 郎
囲 ま
基 幹
増 幅
大 切
大 変
大 村
大 気
失 う
奨 励
寄 生
小 売
届 け
平 衡
志 木
想 い
意 志
把 握
担 う
日 程
有 線
松 江
松 阪
染 色
栄 養
楽 団
次 長
比 率
氏 族
津 田
浜 松
海 堡
満 足
漏 れ
男 爵
発 注
白 石
石 州
稲 荷
箱 根
総 務
菅 谷
視 点
覚 え
記 す
誤 り
賃 貸
返 還
邪 悪
配 線
野 菜
順 位
馬 力
コン パイ
en n
アル ミ
16 00
ar m
フィ ート
チャ ールズ
リン ダ
パー ティー
ジョ ーンズ
フェ ンス
モン テ
乗り 換え
エル ン
AM E
ダン サー
Ch r
キュ ラ
アラ ビア
CO X
IT E
クリス マス
Op en
グロ ビン
だら け
ウズ ベ
オム ニ
エクスプロ イト
ソクラ テス
コンパイ ラ
A p
P er
R C
U P
l er
あ らか
き ら
く だ
く ろ
っ ぱ
ど か
ま わり
ゆ かり
エ ール
オ カ
ク ラン
ク リーム
ゴ ミ
サ イン
シ ム
セ ガ
ト ニー
ド クター
ニ ール
ヌ イ
ノ ベ
パ ウ
フ レーズ
ホ ーク
ボ ト
マ レー
ミ ステ
メ イド
ラ スト
リ モ
ル カ
一 流
五 浦
仕 掛け
伸 ばし
住 所
係 る
信 長
倉 敷
単 線
台 風
右 投
叶 え
喫 し
器 具
学 び
容 姿
寝 台
審 判
射 撃
山 岳
嵐 山
帯 び
広 報
広 がる
慶 長
押 す
括 弧
撃 沈
数 々
未 だ
未 知
歌 謡
毎 月
毛 利
決 して
汽 船
注 文
流 用
滅 亡
犯 人
独 占
甲 斐
発 現
目 覚
真 面目
破 損
確 か
窃 盗
笠 原
荒 川
表 題
賠 償
軽 減
配 列
野 々
量 産
開 局
阻 止
頭 脳
頻 度
顕 著
飾 っ
馬 名
駅 員
高 島
黒 田
ング ル
ライ ド
コン プ
バー タ
アル ト
タイ ミング
ダー ビー
ッチ ン
le x
le y
グラ ウンド
il d
乗り 入れる
190 3
ディー ズ
立て る
ミュージ シャン
ナイ ター
出会 う
ギル ガメ
っぽ い
Mar k
生み 出し
割り 当て
マラ ソン
つなが っ
UE FA
じゅ ん
アレク サンド
サスペ ンス
ギャン ブル
あらか じめ
ギルガメ シュ
B GM
I M
I AL
K I
L T
M o
M an
N EX
Q u
Q ue
V R
V al
] (
b ay
n ational
s em
t a
t on
あ ゆみ
お ん
せ よう
な む
べ る
り か
ア リーナ
ウ マ
コ プター
ジ ム
ス パ
ス ミス
ソ ラ
タ ケ
タ ッグ
テ ュ
ニ クス
ハ ワイ
フ ック
ポ リス
ラ ク
ラ グラン
レ ジ
ワ ルド
一 門
三 国
三 条
上 手
上 空
乗 用
乙 女
付 与
佐 伯
体 力
使 える
全 駅
別 れ
割 合
半 年
参 宮
収 益
同 局
同 左
告 示
坂 本
城 主
大 井
大 泉
奈 々
定 時
審 理
尾 張
幸 せ
弥 生
後 輩
従 い
感 じる
我 々
戦 線
所 管
拳 銃
挨 拶
損 害
改 めて
服 装
模 し
歩 い
殆 ど
深 刻
港 湾
焼 失
直 営
相 違
石 巻
神 々
秋 季
移 っ
等 しい
終 わる
統 括
絶 え
繁 殖
繋 がっ
義 塾
自 称
落 成
虐 殺
評 論
語 源
買 っ
越 える
転 用
辞 書
造 形
遠 く
開 港
関 わり
電 波
飲 食
鳥 羽
20 6
コン テナ
or i
カー ブ
ic o
レイ カーズ
ルー ン
ジョ チ
it al
コー ポ
サン デー
ro up
アク セント
コンピュー ター
187 2
187 3
カップ リング
トラン ジスタ
ab le
AI R
てん とう
テク ノ
シリ ル
見つ かっ
もち ろん
フィリ ップ
olog y
ウォル ポール
ペー パー
KV M
シュヴァン ガウ
WOR LD
1 30
9 7
E le
G ra
L a
P AS
T witter
W D
c y
g r
h a
さ つ
す け
ど ん
ぼ す
ア サ
エ リート
カ プ
キ サ
サ ウ
ザ ・
ス ・
ス キャン
ナ ナ
ニ シ
ノ ース
ハ ロ
パ ック
ホ ーン
マ ギ
マ ジン
マ スク
メ チル
ル ク
上 原
上 限
下 級
並 み
丸 山
主 任
之 江
伊 丹
併 合
倒 れ
光 学
六 郷
加 熱
北 山
参 謀
受 章
右 打
司 馬
名 目
売 買
外 務
天 平
天 満
夫 妻
姫 路
孵 化
安 倍
安 打
完 備
専 属
工 房
左 手
市 販
延 期
必 須
意 向
所 領
手 続き
打 者
控 訴
推 奨
提 唱
提 示
操 る
敏 感
数 え
新 町
新 駅
最 古
有 利
本 質
極 端
概 ね
正 しい
歩 く
比 例
水 晶
激 しく
無 事
特 番
真 っ
真 実
稼 働
穀 物
管 制
自 作
自 民
藤 井
触 れる
診 療
評 判
譲 受
豊 岡
貸 し
超 人
進 展
遠 隔
適 合
都 合
配 給
重 賞
隊 長
音 符
領 土
顔 面
顧 客
馬 場
黒 澤
コン テスト
プロ セ
アル マ
サー チ
タイ ガー
しか も
シュ ミット
アン ゴラ
ベル ク
ベル ギー
ウィ ーン
om e
ra g
シャル ル
ST AR
AT R
In d
189 1
189 9
os p
スコ ット
伊勢 崎
フォー マット
ub l
支払 い
Un ivers
スパイ ク
エリ ザ
明る く
ふる さと
Wi i
エンタ テインメント
ネズ ミ
: -
B L
C BC
C ap
F T
F U
F r
J AL
O D
V C
t i
さ か
ざ ん
す み
ぼ く
わ かる
ア クター
ア ワー
イ ケ
エ ット
キ ッチン
ケ ア
サ クラ
セ ゾン
ゼ ノ
ゼ リオン
ド ・
ナ ラ
ナ ード
パ シ
フ リ
ブ レイ
ベ ー
モ スク
ラ バ
ワ フ
ワ ル
万 葉
両 社
中 川
中 日
交 わり
人 数
代 々
作 物
併 結
充 電
公 衆
冬 季
冷 戦
制 服
勢 い
勧 め
化 粧
占 い
双 子
収 穫
受 容
受 講
同 居
名 所
品 番
商 標
喪 失
地 蔵
垂 直
城 下
塩 基
境 内
増 強
多 々
天 体
天 地
好 み
容 積
封 印
少 数
就 い
岩 石
嵯 峨
左 翼
年 次
序 列
従 う
慶 応
扇 町
挙 げる
探 検
控 え
新 井
新 羅
新 道
早 稲田
晩 年
最 適
死 体
混 同
演 じる
火 薬
炭 素
珍 しい
現 状
町 制
発 祥
盛 岡
目 撃
目 黒
禁 じ
移 さ
稼 動
米 軍
系 譜
緊 張
美 容
自 家
著 者
行 なう
表 紙
角 度
赤 穂
転 向
迎 撃
適 応
選 ぶ
避 け
部 長
酸 素
長 尾
関 節
降 格
難 易
難 波
食 堂
馬 車
駅 長
この 頃
プロ イセン
オー ディション
プレ ート
チェ ア
スク リ
of f
ou n
ed ia
ra y
パイ プ
ジャー ナ
ut ion
ur n
クリ スタル
187 1
187 6
AC K
シャン ゼリオン
AG E
起き る
もたら し
ツィ ア
まん が
カレ ッジ
GIR LS
オムニ バス
くだ さい
NEX T
マジン ガー
4 50
B i
C ON
D A
D is
G r
I X
L ife
R ob
V OL
W e
W ar
a j
e v
g h
m g
o od
r p
s c
し お
ち なむ
と ん
は っきり
み なみ
や め
ア バ
オ キシ
ガ ム
ガ リー
キ ル
ク エスト
ケ イン
シ ミュ
ス ズ
ゾ ー
タ グ
チ ケット
ッ ディ
ッ シャー
ニ ウム
ビ ートル
ブ リー
メ モ
リ ル
リ リアン
中 将
丹 後
九 十
仮 説
伊 奈
休 み
伝 達
侵 略
倍 率
元 帥
先 祖
公 家
共 用
割 引
加 速
動 向
北 米
北 野
南 軍
去 る
収 納
右 手
図 鑑
報 酬
失 い
客 室
対 面
小 屋
小 平
山 脈
市 川
幕 末
幹 事
広 大
征 服
後 任
性 的
戦 場
招 待
捉 え
推 理
揚 力
摂 取
政 党
旅 団
晴 れ
書 記
最 多
板 紙
業 績
横 手
正 教
浅 草
海 戦
渡 す
湘 南
湾 岸
生 え
生 誕
町 域
発 信
笑 顔
編 纂
職 人
腹 部
褐 色
西 南
見 積
見 直し
計 上
調 書
貴 重
赤 色
路 面
近 世
近 藤
通 達
連 動
運 河
達 する
野 村
金 井
開 く
陥 っ
飲 酒
首 脳
高 浜
10 4
スト ック
an c
バー ン
ロー ラー
クラ ッチ
it s
ro id
ジュ アル
ビル ダー
ra d
ヴェ ネ
上り 線
エア ロ
チン コ
パラ メ
フラ ッシュ
ソロ モン
ドゥ ル
相模 原
ord s
フィリ ピン
ロイ ヤル
バレ エ
クレイ グ
アレル ギー
茶の 水
ウズベ キスタン
B T
C SS
E U
E l
L G
O n
O ff
P RO
P OP
S ITE
T ech
U D
W h
g er
k e
m ar
か れる
ざ わ
じ ょ
す い
せ つ
だ し
づ い
て も
ら さ
わ が
エ ッグ
ガ シ
ク ランク
コ ク
ジ ウム
ダ ッシュ
チ コ
テ オ
デ ッド
デ ンス
ノ ベル
ピ ストン
マ カ
マ サ
マ ニア
メ ア
モ ロ
三 島
三 軒
下 田
会 合
伝 わっ
位 相
借 金
債 権
償 却
優 しい
公 国
円 山
創 建
南 端
名 乗る
君 主
唱 え
四 季
回 答
壊 滅
売 上
大 尉
夫 人
妄 想
実 技
射 程
将 棋
小 南
市 原
帝 王
年 末
幾 何
当 事
役 目
御 前
心 配
抗 争
抜 い
拡 散
撃 ち
敗 退
数 十
数 百
旗 本
有 害
望 ま
梁 瀬
棋 士
止 まり
武 家
水 平
法 定
火 力
炭 鉱
点 在
無 理
特 例
特 有
狙 っ
田 原
発 光
発 覚
発 する
短 編
立 山
精 度
線 維
美 人
美 里
職 務
腫 瘍
船 長
艦 船
芸 名
若 松
著 しく
薄 い
薬 学
補 償
襲 い
襲 う
評 さ
警 告
豊 臣
負 う
貯 蔵
貯 金
赤 字
車 掌
軌 間
転 落
逆 境
通 報
通 貨
重 大
鈴 鹿
鉱 山
銀 座
集 会
須 磨
ター ゲット
よう やく
15 00
on s
クラ フト
ドラ フト
ドラ ッグ
取り 扱う
it ed
サン プル
アー マー
アー カイ
グラ フ
トリ ニ
乗り 場
カン ズ
組み 込ま
ベン チ
ケン タ
チョ ウ
モー ニング
メッ サー
トレ ード
オート バイ
ブロ イ
売り 上げ
As pher
ヘリ コプター
Pi Ta
トリア ゾ
モスク ワ
スクリ プト
三軒 家
アーカイ ブ
Aspher ical
PiTa Pa
" (
H BC
N C
N or
P et
P ET
V ER
W ill
d ay
l ing
u al
v i
こ だ
ず っと
た て
は ん
イ グ
オ ロ
カ ジ
カ ノン
カ ウント
キ ッ
キ ム
キ ッド
ゴ ート
ゴ ールド
タ マ
ダ ード
ッ サー
テ ュー
デ ア
デ ・
ド リンク
バ グ
パ ブリ
ボ ディー
メ ト
モ ア
ヨ ハン
ラ ダム
一 気
一 目
不 全
中 枢
今 作
伊 賀
余 裕
使 え
入 ら
共 鳴
処 置
出 港
出 血
分 配
分 かる
勲 章
単 体
危 惧
可 決
同 線
図 っ
図 ら
埋 葬
変 電
多 発
大 韓
天 候
好 意
官 人
宮 島
対 称
山 手
左 側
師 範
平 行
年 表
広 東
広 義
弾 薬
弾 頭
後 漢
後 退
急 激
意 匠
懇 親
成 虫
招 い
挑 む
探 す
摩 擦
新 城
木 材
東 南
根 本
梅 田
標 的
標 識
歌 劇
気 圧
永 久
決 議
油 圧
沿 革
洪 水
添 付
準 じ
瀬 川
燃 焼
牧 場
特 化
王 室
球 団
相 棒
真 理
硫 黄
神 獣
福 音
移 し
精 密
細 菌
締 め
置 換
耐 用
脆 弱
舞 い
艦 橋
菊 川
蒸 溜
袖 ヶ浦
覚 醒
謝 罪
路 上
踊 り
農 村
追 跡
退 任
逃 れ
進 歩
重 用
鉄 筋
阿 部
露 出
頂 点
高 層
鷲 巣
10 2
あり が
18 80
ティ ス
リア ー
ファ ーム
タイ ヤ
ージ ュ
ol a
ニュー ジー
ブル ガリア
アニ ア
ig n
ヴィ ン
レス ラー
ライン ナップ
ot t
AL L
ウル フ
186 8
ニコ ラ
ボン バー
生み 出さ
申し 出
小田 原
ナビ ゲ
Sch ool
つな ぐ
ダニ エル
Day s
プロテ スタント
JF N
VIS ION
bay fm
ビートル ズ
ニュージー ランド
2 20
F L
L ove
N e
R NP
S ong
T ub
c a
f t
i re
m ir
o st
x y
う つ
う ら
お 茶の水
き わ
ぎ り
さ せる
じ り
た かっ
と ても
ど れ
な じ
は め
ひ なた
ぴ ょ
ほ っ
ま どか
や さ
や ら
ゆ め
ア ッ
イ ブ
ウ イング
エ ミリー
オ リー
ゴ ム
ス プレー
タ キ
タ ス
ッ キング
デ ッキ
バ リー
パ ヴェ
パ チンコ
ピ ナツ
ブ ドウ
ラ ト
ラ ップ
リ ウス
ル ノー
レ ック
レ スター
中 原
二 見
亡 命
京 急
代 用
保 全
個 々
健 太郎
優 位
優 等
出 入り
分 かっ
刺 し
化 し
北 軍
単 語
台 北
合 弁
商 工
四 肢
回 想
回 送
土 浦
地 裁
城 東
執 事
外 伝
実 戦
家 康
宿 主
寄 付
寛 永
尽 く
師 事
帰 る
弾 丸
待 機
後 藤
忠 実
所 蔵
抑 える
拡 幅
搬 器
放 置
教 える
斜 面
星 野
替 える
有 罪
本 館
条 例
柴 田
校 区
機 銃
欠 点
永 遠
河 原
河 口
活 発
炎 症
熊 野
熱 心
犠 牲
甘 木
留 め
異 動
皇 后
相 応
省 略
真 空
着 る
知 的
破 綻
社 内
秩 序
紛 争
結 城
絡 み
給 水
総 額
背 面
脂 肪
良 好
行 使
親 族
評 し
説 得
貼 り
遅 延
配 属
重 力
閉 館
駆 使
騎 手
魅 力
10 8
12 5
コン テ
ファ クトリー
16 0
タイ ガ
ステ ピナツ
フィ ビ
フォ ワード
ウェ スト
レン ツ
なら び
アー ケ
ベル リン
引き 上げ
引き 継が
こう とう
マイ ナー
トラ ス
ent al
ハイ パー
ir l
アップ デート
In c
ジー カンズ
ut e
クリ ミア
os h
ph an
ウルトラ マン
なか なか
ok oh
バッ テリー
つく ば
繰り 広げ
Co mm
ud io
たと え
知り 合い
リュー ション
ヒュー マン
Inter national
エフ エム
ros s
ウィル ミントン
クロー バー
フット ボール
sn RNP
繰り返 す
ウサ ギ
Chr ist
マギ カ
エリザ ベス
メッサー シュミット
ぴょ ん
okoh ama
3 50
7 50
A WA
F S
G AL
K E
O M
T S
U L
U T
j p
l es
l og
r u
で し
ふ ん
ア ガ
ア タック
ク ワ
コ シ
サ リー
サ プライ
シ ールド
ジ メント
ス ン
ソ ム
デ ラ
ナ ・
ナ レーター
ヌ ード
ノ コ
ハ ルト
ベ ア
ボ イス
マ ニュ
ユ ミ
リ ラ
リ ソース
リ ビング
リ サーチ
ロ バ
一 角
不 動
世 話
両 側
中 ノ
中 毒
中 退
乗 合
体 調
便 器
便 所
保 つ
倶 楽
出 世
出 荷
前 部
加 算
勇 者
半 身
友 情
吉 井
同 種
喉 音
国 分
国 連
地 中
大 い
大 原
大 衆
安 価
官 職
家 人
富 沢
対 峙
対 空
封 じ
尊 敬
小 島
小 松
岡 村
岡 谷
川 越
市 制
廃 業
延 び
建 国
応 急
急 性
恵 子
恵 まれ
愛 用
打 撃
捕 獲
掃 除
排 除
掲 げる
損 失
撃 破
播 磨
敵 対
文 久
新 川
新 星
新 村
昼 間
時 折
有 機
有 無
果 て
桑 名
樹 木
歌 舞
死 に
死 傷
民 家
没 年
片 道
牡 馬
生 理
百 鬼
監 修
目 論
直 轄
祖 母
神 子
神 農
絶 縁
総 数
考 古
聞 か
聞 こ
自 覚
花 月
英 文
茶 道
蘇 芳
衰 退
証 言
読 ん
調 子
豊 富
身 分
轟 天
辞 任
追 求
退 役
通 商
適 当
配 下
長 らく
難 しく
青 葉
順 番
領 主
高 める
er man
an a
an s
in o
15 2
ファ ミ
バー ジニア
en z
レー ベン
シャ ツ
フィ ール
at ed
ージ ー
シュ ート
ol d
取り 戻し
フォ ース
it t
ジェ ネ
ナル ド
シン ガー
ハン ガリー
TO UR
ユニ バー
em ent
ウォ ーター
In t
im a
ow er
ナン バ
ミュー ジアム
OR N
ブリ ッジ
プライ ム
AK B
シャン プー
186 5
186 9
ホー プ
クリス チャン
テナ ント
for m
Ar c
SU PER
プリン セス
ひばり ヶ丘
ポル ノ
そも そも
アルティ メット
Ab out
You Tub
いす ゞ
カスタ ム
セリ フ
八重 山
なつ み
ボラン ティア
スキャン ダル
倶楽 部
- 」
3 60
C om
D NS
F ran
G EN
H en
M ON
O s
S im
b e
f rom
i ro
i am
i us
k a
p or
r es
r est
v ar
w e
あ え
か おり
さ がし
ざ い
す り
せ き
た き
ち に
ち ん
ほ しい
わ い
オ ク
ギ ブ
ク ア
ケ ート
ケ ント
ケ ストラ
ゴ キ
ス ノー
セ ラー
ゼ ミ
デ リック
ト ロン
ド ット
ヌ ー
バ イン
パ カ
ピ ース
ピ ーク
ピ ッチャー
ベ ッド
ポ ンド
マ テ
ミ ツ
ミ ール
ミ ッキー
ヤ ク
リ ト
リ ナ
リ プ
リ ッツ
レ バー
ロ フト
上 演
下 し
中 核
中 等
主 宰
主 役
人 種
今 井
休 暇
会 見
使 節
兄 妹
出 向
出 産
初 出
北 総
半 利
半 数
反 動
右 腕
同 校
固 め
国 語
園 芸
大 蔵
天 華
奈 半利
妊 娠
尽 力
山 地
山 城
山 麓
川 内
川 島
常 識
平 戸
年 鑑
幼 児
座 間
弓 張
張 る
当 社
戸 籍
打 席
抜 く
搬 送
支 給
救 命
救 援
敗 戦
教 養
新 橋
新 線
日 露
早 岐
曲 線
最 期
月 島
有 明
有 権
木 津
末 裔
本 木
本 校
榛 名
歌 い
正 当
歩 き
残 骸
泣 き
準 々
準 拠
片 桐
物 事
玉 名
玉 置
異 名
発 し
発 布
登 板
監 獄
直 撃
相 馬
磁 気
社 宅
神 龍
種 別
立 法
絵 本
肥 前
育 っ
臨 港
補 佐
西 暦
覆 わ
覚 王
触 媒
詳 しく
蹴 り
転 校
返 す
退 社
逃 し
週 末
遂 げ
違 法
還 元
郡 区
醸 造
重 傷
長 堀
長 良
降 伏
階 層
雨 森
雷 撃
食 料
養 護
骨 格
高 め
高 井
黒 島
リー マン
イン ズ
イン ディーズ
スト ライ
スト レート
ライ ヴ
ース ター
シャ ドウ
チャ イ
リン ス
is e
フォ ント
オー ケストラ
it a
アー ズ
ウィ ーク
起こ さ
ジュ ン
St ar
ハー ヴェ
189 5
189 6
os e
ギャ グ
リュウ ケンドー
マス コット
ell a
ell o
ak e
An n
イラ ク
186 7
ニコ ニコ
落と す
プリン ス
つなが る
シリ コン
小田 急
久保 田
ウォー ズ
And roid
NEW S
NT T
エレクト リック
Lin ux
あけぼの 町
マネ ジメント
Sou th
ous e
イスラ エル
リュウガン オー
はし ご
シュタ イン
マレー シア
ドゥル シネ
トリアゾ ラム
アーケ ード
" )
A c
A ir
C V
C y
H ar
I EC
J C
M IT
P ar
R D
i ent
o id
r ic
t ra
く ま
し っかり
た つ
だ り
と め
に ち
は や
ひ こ
ふ し
ぼ れ
ゃ く
ア カリ
ア ロマ
イ シ
ウ イス
ウ インチ
エ ビ
オ ラ
ク ・
ケ ティング
コ イン
サ ハ
ス ルー
ズ ー
セ ロ
ゼ ミナ
ッ ポ
デ スティ
ド ミニ
ノ ード
パ ッド
ビ ザン
ピ ラ
フ マン
ブ ッシュ
ヘ ッ
ホ ールド
ポ ンス
ロ ク
ン シー
七 尾
三 日
下 旬
世 間
二 塁
享 保
今 川
代 々木
休 憩
低 減
余 儀
信 濃
充 填
全 日
八 田
公 会
公 的
内 田
出 生
創 刊
医 科
南 下
叔 父
受 領
台 詞
右 京
吉 岡
同 地
在 来
堀 川
大 好き
天 狗
天 野
守 っ
安 田
宮 内
宮 殿
害 虫
容 器
寺 社
寿 司
小 児
山 中
川 村
巡 回
常 務
幅 広く
序 盤
廃 校
当 てる
彫 り
役 者
徴 収
徹 夜
愛 する
戦 術
捜 索
接 収
数 列
断 絶
新 制
日 付
春 季
暫 定
曜 日
最 寄
有 用
本 州
案 件
棄 却
森 田
樹 立
機 雷
次 官
水 準
水 溶
水 系
汚 染
洗 礼
消 失
淀 川
滑 走
火 炎
灰 色
熱 帯
牟 田
物 流
理 念
田 子
療 養
盆 地
砲 台
福 田
秀 吉
筒 井
管 区
純 粋
絶 望
絶 滅
総 括
繋 がる
聖 堂
胴 体
脅 威
芥 川
虐 待
西 域
西 村
見 つけ
解 答
詐 欺
警 務
議 席
譲 り
質 量
転 写
載 せ
追 う
遠 位
選 考
遺 族
釈 放
野 外
野 生
金 正
長 大
長 女
長 岡
防 空
集 める
面 倒
頭 巾
食 用
鳥 海
麻 里
10 7
12 2
昭和 町
ティ オ
ファ ル
en e
シャ ッ
ic us
コー ラス
さら なる
モン ゴル
マー ケティング
プラ ズマ
トラ キア
190 4
ハイ ム
ハー ゴン
AT M
SP EC
oc i
ers ion
AK A
ミュージ カル
SH OT
ブレ イン
グル メ
Ar t
Bl u
コンビ ニ
マグ ナ
伸び る
マッ ハ
Mac ro
コネ ク
PD F
ロフ ウ
ダイナ ミック
エージェ ント
捕ら え
マネー ジャー
ふれ あい
Cent er
ライブラ リ
UF J
キュラ ソー
きら ら
リモ ート
ラグラン ジュ
プロセ ッサ
ジャーナ リスト
スズ キ
ヴェネ ツィア
トリニ ティ
フィビ フ
GAL AX
中ノ 瀬
歌舞 伎
ナンバ リング
ウイス キー
ゼミナ ール
三日 月
5 50
8 000
C iel
K S
L INE
M ot
M ENT
c ap
c omp
g l
o ph
お る
が れ
く う
す こ
で る
と くに
な ぎ
も らい
れ い
ア ブ
ア ・
ア ング
イ エス
ウ イ
ウ クライ
ェ ル
エ ストロ
オ モラ
ガ ロ
キ ホー
ギ ス
ク ッキー
コ ング
サ マ
ジ ナ
ス ギ
ス プライ
ズ ・
セ ックス
ゼ ット
タ ント
ネ ート
ノ ・
パ トリック
ピ ュ
フ ュー
ヘ モ
ベ ック
ホ ッ
ポ ニー
マ リン
ミ カ
リ ッシュ
一 線
一 見
上 宝
上 面
下 流
不 死
中 田
京 王
仕 組み
他 方
仮 設
任 さ
作 画
個 別
備 後
元 禄
光 速
克 服
入 線
入 出力
出 目
切 手
切 符
初 戦
利 根
利 点
助 ける
勝 山
北 魏
南 アフリカ
卸 売
受 精
口 癖
合 唱
吉 川
哺 乳
多 少
契 機
孤 立
学 位
学 制
実 務
実 証
寅 次郎
封 鎖
専 修
崩 れ
巨 乳
常 陸
幼 馴染
廃 棄
延 岡
後 日
恨 み
悩 み
悲 劇
成 し
所 要
手 当
押 さ
拒 絶
新 しく
日 比
暴 行
有 馬
植 え
機 甲
母 体
水 路
活 かし
海 浜
減 価
溶 解
演 技
特 命
現 金
生 地
男 優
百 済
直 す
直 結
着 く
砲 撃
私 鉄
稽 古
競 合
筆 頭
精 算
聖 人
舞 わ
航 続
航 行
融 資
西 鉄
要 員
誤 っ
賛 成
農 家
退 治
通 じる
連 想
部 員
都 内
開 け
陶 器
集 約
養 老
首 位
駿 河
イン パ
ット ー
ティ アン
レー シング
バス ケ
バス ター
アル プス
ジョ ーカー
ジェ ント
st it
re t
ダイ レ
ポー ズ
ウィ キ
ジョン ・
TO RY
ハー バー
シェ リー
iv er
ak a
ストロ ーク
セント ラル
ヤマ タ
バッ ハ
ホル ン
リエ ーション
qu e
諏訪 部
パル プ
カタ ログ
ゴッド ゲキリュウケン
ホン ダ
ちょ っと
アミ ノ
フロー レンス
ギン ガ
大船 渡
トマ ト
楽し む
Sup er
ウェン ディ
ミステ リー
Univers ity
Tech n
ウクライ ナ
エストロ ゲン
オモラ シ
キホー テ
6 50
A g
D R
E A
F X
G X
K C
O H
O ne
R U
T KO
Y okohama
b a
i h
m in
く っ
こ ども
し かっ
ど おり
ひ みつ
へ い
へ ん
も て
ア パート
ウ インド
ェ フ
カ リーナ
キ ース
ク リー
ク ック
コ バ
コ フ
コ ロン
ゴ ウ
シ マ
ス プ
ゼ ネラル
タ ラ
タ リ
テ ラ
ナ イツ
ナ チス
ニ ッカ
バ ーク
バ ウント
バ リエーション
パ ナ
ミ シ
リ ボン
ワ ゴン
一 括
一 斉
中 古
中 性
主 婦
付 か
住 人
佐 野
体 操
信 玄
充 実
内 務
冷 却
凍 結
出 撃
分 から
分 かれる
列 島
初 演
初 等
制 覇
刺 史
割 っ
動 機
単 発
原 画
取 れ
各 々
同 梱
同 法
名 乗り
含 める
吸 い
固 体
国 体
土 岡
塗 り
塩 素
多 岐
大 勢
大 地
大 森
大 石
大 腸
妨 害
宇 品
安 政
官 能
宣 教
専 務
尾 西
川 之江
広 まっ
広 がり
店 主
引 い
当 局
御 殿
復 旧
志 野
恩 納
情 勢
愛 人
慎 重
投 下
抜 ける
捕 手
換 装
操 り
敗 れる
散 布
文 法
新 約
旧 来
暗 黒
有 形
本 庄
松 平
果 実
校 歌
株 主
格 付け
検 証
楽 天
残 留
水 域
決 着
決 まり
治 安
津 波
流 出
混 在
溝 口
激 怒
熱 血
爵 位
珍 しく
生 育
生 かし
産 地
田 谷
直 列
直 ちに
眼 鏡
石 岡
砂 漠
祖 語
神 鏡
種 目
築 い
納 入
細 い
経 歴
結 腸
続 行
総 会
編 制
耐 え
聞 く
肝 臓
脱 走
落 選
葛 飾
薄 く
薬 品
襲 名
見 学
警 戒
豊 島
赤 坂
趣 旨
輩 出
速 水
連 装
遂 に
部 外
郷 土
長 け
開 聞
間 に
間 接
電 池
静 か
風 間
飛 ばし
飲 む
魔 王
20 7
00 1
18 3
18 70
18 78
レー ズン
ar g
or r
13 6
17 0
キャ ップ
ic ation
レイ アウト
ルー レット
el e
取り 組ん
オー ナー
JR A
ジェ リー
フラン シ
ジン マ
イル ド
引き 受け
メン テナ
ニー ズ
グラ フィ
ブラ ザーズ
ac a
ハン マー
ra ph
ヴェ ー
ファイ ヤー
48 0
大和 田
ht t
チャー ミー
思い 出
AK U
ヴォ ー
比べ る
ens land
落ち る
オス マン
コンパ イル
満た さ
コンク ール
ニン テン
Sp ec
ウェル ター
スライ ディング
オフィ シャル
中山 道
ヴィル ヘルム
ros oft
ダブル ス
テキ サス
UC I
ラグ ビー
コンサル ティング
ジャイ アン
グロー バル
クルー ズ
ニャン 子
Mic rosoft
目覚 め
Que ensland
rp m
ナビゲ ーター
マニュ アル
YouTub e
SPEC IAL
コネク ティング
ヘモ グロビン
( "
B ar
D oc
D NA
E m
F P
G R
G Y
H F
H er
L P
M EN
S ec
T re
a e
b l
b le
d ro
g y
l or
p le
s el
t rans
w w
あ て
か ず
こ んな
さ く
な ま
ぬ き
は い
め ん
め ぐる
ア ストラ
ウ エスト
カ レー
カ レン
キ ミ
グ スタ
ケ セン
コ リ
サ キ
サ ウス
ザ ル
ザ イツ
シ オン
シ アン
ス バル
タ ム
ツ リー
ニ ョ
ネ ード
パ ヴ
パ ッチ
ヒ ュ
ビ レ
ビ タミン
ピ ール
フ ロン
ベ ラ
ベ ニア
ボ リ
ボ ルト
マ ミ
マ スカ
ミ ニー
ユ ース
ラ ビ
リ ポート
リ メイク
ル ネ
一 家
三 田
不 在
不 振
中 京
中 尉
交 互
交 戦
今 度
代 償
便 利
保 村
倫 理
偉 大
元 日
先 進
全 権
六 本木
冷 静
出 願
分 かり
北 欧
反 撃
古 市
古 田
名 物
吹 奏
吾 郎
告 げ
営 む
園 部
土 壌
均 一
均 等
増 し
増 発
増 やす
変 速
多 額
大 抵
大 日
大 月
始 動
子 宮
定 格
対 潜
小 泉
少 なかっ
就 航
局 所
屋 外
岸 壁
工 科
引 く
役 職
微 分
性 別
悪 夢
想 像
慣 れ
慣 習
成 る
抱 く
持 続
提 督
救 い
旧 道
書 類
本 曲
本 物
杏 子
松 岡
枚 方
格 子
森 木
正 規
水 泳
水 産
永 禄
浄 土
海 里
済 む
減 速
狙 う
生 体
生 前
畜 産
痛 み
発 作
百 合
目 白
目 立つ
破 る
祇 園
稲 毛
積 分
立 命
筑 豊
築 地
紀 勢
経 費
統 制
網 走
習 志野
聖 職
膨 大
臓 器
至 ら
苦 し
藤 沢
補 強
製 剤
覇 道
視 覚
親 しま
親 しみ
討 伐
許 し
訴 因
誘 拐
講 座
警 官
起 因
足 軽
踏 襲
踏 まえ
近 所
逃 走
通 知
造 ら
造 成
週 替わり
遂 行
金 田
鎮 守
長 州
長 編
間 違
間 違い
集 配
鞍 馬
飛 来
ター ボ
ター ビン
イン ジェ
スト ーン
12 3
11 5
ライ フル
an y
15 1
on t
ファ イン
プロ グラ
プロ フィール
シャ トル
ステ ロイド
13 8
at er
サイ コ
アメ リア
is ch
ol ic
レン ヌ
コー ン
ベル グ
ion s
le t
ヴィ ト
ヴィ ッド
ヴァ ル
ing s
od y
48 5
組み 立て
江戸 川
AS H
生き 残り
クリ エイ
プリ ント
189 7
ギャ ング
EC T
188 8
ライト ニング
付き 合い
アフ ター
SH RD
ct or
ens is
ME GA
まと める
WA VE
春日 井
イラスト レーター
にく く
ann er
Gl ad
イエ ロー
DM Z
浴び る
エド ワード
フェン ダー
Rec ords
つめ かえ
ポルト ガル
コンプ トン
シミュ レーション
パラメ ータ
パブリ ック
ありが とう
タイガ ース
ユニバー サル
座間 味
ふし ぎ
サハ リン
デスティ ニー
日比 谷
ダイレ クト
フランシ スコ
メンテナ ンス
ザイツ ェフ
SHRD LU
B I
D I
D av
E M
H igh
M ich
N TV
R FC
S I
S Q
T E
T ER
U p
V V
V o
V TR
Z ERO
k en
p o
r ich
s up
u c
u ra
あ だ
え い
か かり
つ もり
な に
ぬ い
の う
ぶ つ
ま み
み なし
む つ
や む
わ かり
ア ーク
イ リ
イ ・
イ ット
ゥ ル
ウ リ
エ キ
カ キ
カ ライズ
グ メント
ゲ ッター
コ モン
ゴ モラ
シ ール
シ フト
チ カラ
ド コモ
ナ ッツ
ニ ット
ニ オン
ネ ックス
パ ルト
ピ ク
ペ ラ
ボ ブ
ボ ロ
マ タ
マ ザー
マ ユリ
メ テ
メ ー
モ ザイ
ヨ シ
ロ ワ
万 部
三 好
上 告
不 快
中 西
久 里
乗 換
乗 組
亢 進
以 っ
保 育
借 手
僧 侶
優 勢
充 当
入 部
公 路
共 生
出 品
列 挙
判 事
創 始
加 茂
助 言
動 詞
勝 率
半 田
卓 球
原 宿
友 子
名 詞
名 門
喜 多
営 利
四 角
回 さ
図 案
国 籍
売 店
大 牟田
女 神
好 ん
如 来
婦 人
安 藤
宗 方
宮 沢
密 接
小 原
小 木
少 佐
尽 き
左 衛門
常 用
平 城
平 塚
張 っ
彗 星
応 募
恒 星
意 外
愛 情
戯 曲
拳 法
支 流
改 題
施 工
日 の
日 光
春 秋
景 頼
暮 らす
朝 倉
木 星
本 国
本 山
本 田
架 橋
根 岸
格 好
樽 見
死 神
民 俗
沢 田
河 合
治 山
浮 き
淡 水
満 了
満 州
滑 り
演 歌
演 習
為 替
特 設
狩 矢
理 沙
甘 酒
産 卵
甲 州
疲 れ
登 る
省 庁
税 務
稼 ぎ
突 入
紋 白
納 言
細 かい
終 日
総 局
線 型
美 し
耐 久
育 ち
胸 部
自 在
色 彩
葛 西
蘇 生
蛍 光
表 情
見 なさ
計 測
訪 ね
誘 致
語 尾
議 決
豊 橋
豪 華
買 う
資 材
越 後
軍 用
転 送
農 林
近 接
近 衛
近 づく
進 入
遅 い
遊 撃
遠 洋
選 び
邪 魔
郡 上
配 達
重 なる
鋳 造
長 万部
関 税
阿 仁
隙 間
雄 一
電 停
青 い
駐 輪
高 木
高 雄
鳥 栖
12 1
11 4
in c
15 8
なく なる
ロー ナ
アル タ
テレ ス
受け 継い
テレビ ジョン
ステ ル
フィ ッツ
ジャ スコ
ジャ ージー
シュ メール
パー ティ
ウェ イン
サン ディ
サン チョ
サン プリング
アン リ
アン ケート
トル ク
アイ デア
引き 起こし
コミ カライズ
メン タリー
ブラ ディ
アルバ イト
カル シウム
バイ アス
トリ プル
190 2
AR D
スーパー マーケット
シェ ン
ディー ラー
クリ エイト
oc al
188 5
フレ ッシュ
グレ ゴ
ペン シル
フラ ッグ
スケ ジュール
av a
コロ ナ
Pro t
デイ ビ
Bl ack
支払 う
Pl anner
カタ カナ
生み 出す
あき ら
よし もと
プラン ト
黄色 い
モニ ター
ドロ ップ
明る い
フット サル
ivers ary
スキ ル
ブース ター
エージェ ンシー
コンサル タント
カザ ルス
Met ro
リュウジン オー
手伝 い
PAS MO
リプ リー
モザイ ク
" .
2 30
4 000
9 50
A i
C K
C ode
F O
G U
H Y
M K
M c
P A
P E
S N
S W
S e
T o
T EC
T rans
W in
b in
l in
m et
m ax
p ar
x t
ü r
い た
お じ
お っ
お ま
が き
け ど
さ す
て れ
ど ころ
ひ がし
ま き
わ たし
ア トラン
ウ ラン
エ リー
エ キス
オ ナ
オ マ
カ 国
カ ート
カ ンド
ギ タ
コ マ
ゴ シック
ス ネ
ダ ール
ダ ース
チ ネン
ッ セル
ト ス
ド リー
ド メイン
ニ ク
ニ スト
ネ ク
ノ ブ
ハ ミ
ハ イン
ハ ット
バ ール
ヒ ート
ビ クトリー
ビ ジュアル
フ ュ
ベ ール
メ リ
メ リー
モ ジュ
モ ビル
ラ フ
ラ ック
リ グ
ル ・
レ ード
ロ ッテ
ワ ット
三 光
下 山
下 総
不 当
世 田谷
並 べ
久 留
交 易
佐 竹
信 州
信 者
先 天
全 車
公 布
公 平
内 戦
内 線
写 本
列 伝
勝 っ
単 一
厚 い
参 拝
反 転
反 逆
台 地
台 数
同 国
名 作
名 づけ
吸 蔵
告 白
告 知
咲 く
国 府
基 金
夏 休み
外 さ
外 来
大 東
大 王
大 町
天 竜
失 調
奪 い
奪 う
奴 隷
好 ま
婚 姻
宇 佐
宇 和
寸 前
小 樽
小 池
就 く
常 勤
干 渉
平 等
建 っ
強 盗
後 世
急 遽
愛 好
戸 田
打 刀
抗 議
担 保
探 索
揃 っ
換 える
操 車
政 宗
数 式
新 座
日 清
時 空
曲 面
最 長
東 上
枠 組み
栗 原
根 室
格 差
桃 子
桜 宮
欠 損
歓 迎
殺 虫
民 宿
水 没
泰 盛
流 入
流 派
浮 上
混 ぜ
焼 け
照 射
爆 笑
物 品
特 権
発 砲
白 川
皇 太子
着 ぐるみ
砲 身
移 る
紅 葉
組 ま
緩 やか
脅 迫
自 生
若 宮
荷 役
菅 野
萎 縮
藤 崎
西 山
要 し
覆 う
見 舞わ
角 屋
負 い
車 軸
農 薬
近 似
追 わ
通 販
運 ば
運 ぶ
遭 難
量 子
門 下
閉 塞
開 削
闘 志
阪 和
防 護
阿 嘉
集 まり
青 柳
青 少年
領 地
高 温
黒 色
19 2
リー ガ
ラン カ
ディ ン
an o
15 7
プロ フェ
フィ ラ
14 4
es e
取り 戻す
it h
27 5
mm er
フェ ミニ
ro w
ブル ース
プレ ックス
イル カ
チェ リー
スク リーン
グラ ビア
マー シャル
チーム メイト
バル カン
ヴァ ージ
テン シ
ヴェ ン
ファイ ター
em a
ハイ ブリ
ハー フ
Th om
バン ダイ
ディー プ
Ch ar
トロ イ
ワン ダー
188 3
ET C
勝ち 点
オフ セット
スタン ダード
呼び 出し
ナイ フ
モー リ
LO T
カメラ マン
つく し
UN D
サブ ロー
まち づくり
Cl ass
Con t
As s
手が ける
おも しろ
過ご す
bo x
ハッ ピー
ホイ ール
オイ ラー
sn RNA
CP U
Ed ition
ヴァイ オリン
Ge ode
hy de
カウン ター
パロ ディ
カウ ボーイ
テクノ ロジー
望ま しい
mir al
大い に
Os aka
ゴキ ブリ
インパ クト
ハイブリ ッド
( -
A u
A v
B ank
C or
D C
D IS
E ar
I t
K ey
M i
M AC
M ID
P art
P FF
P NR
R ad
S a
S EX
V IE
W RC
b um
g o
k s
m a
m s
n er
r on
s ub
あ す
い や
え りか
お さ
か ご
く わ
こ ま
せ よ
っ 子
と 畜
ね がい
の く
ひ ょう
び ょう
ふ り
ほ むら
ゆ い
ろ く
ア ラン
イ ソ
エ ネ
エ バ
エ ント
カ シ
カ テー
ガ キ
コ フィン
サ バ
サ ルト
サ ザン
サ ウルス
ジ ング
ス ラム
セ ッション
ゾ イド
タ リング
ダ ック
テ ーション
デ リ
ナ ウ
ナ ポ
ネ ラ
ネ ヴィル
ノ イド
パ ント
ビ ークル
フ ン
フ ルーツ
ブ ール
プ チ
ヘ ー
ベ ータ
ホ ルム
ポ ポ
ミ ク
ミ ヤ
ミ レ
ヨ コ
ラ ラ
リ ャ
レ ア
レ ポーター
ロ ッ
一 条
上 層
上 回る
下 ろ
下 請
不 二
両 手
中 之
中 堅
中 旬
予 告
五 木
亜 科
亡 き
人 権
他 者
付 番
仙 石
仮 想
伊 豆
伏 せ
会 い
体 格
体 色
侵 害
修 験
側 近
傾 斜
元 来
先 代
先 物
公 使
公 団
兼 務
円 形
再 興
出 自
分 断
別 々
利 き
刻 ま
剣 士
割 れ
勇 士
動 点
動 かす
勧 誘
包 ま
千 穂
単 于
厚 く
原 型
及 ぼす
友 部
口 調
史 跡
各 所
吊 り
同 駅
吸 気
呈 し
喫 茶
回 帰
国 公
地 盤
堀 江
外 野
大 久保
媒 体
字 体
官 位
寄 贈
寸 法
導 く
就 役
屋 上
履 歴
山 上
山 間
巡 る
常 連
幅 広い
平 坦
幸 田
広 げる
廃 船
形 容
彩 都
往 来
意 気
愛 宕
慶 太
打 っ
打 つ
投 球
抜 擢
抽 象
拉 致
指 標
振 り返
掌 握
排 泄
掘 り
掲 示
救 済
新 選
旅 館
星 ヶ丘
時 々
智 和
智 子
最 短
有 数
服 用
末 端
村 立
東 亜
東 大
松 原
松 永
架 線
柔 軟
栄 え
極 東
武 人
比 奈
気 候
気 分
気 絶
水 力
江 東
海 運
浸 透
渋 川
減 圧
測 量
激 闘
火 器
無 数
焼 香
片 仮名
犯 し
獣 王
玉 川
王 妃
現 職
球 面
用 地
疑 い
白 滝
監 禁
盧 植
着 け
着 色
破 棄
社 家
祀 る
神 聖
秘 奥
種 子
穏 やか
突 起
端 部
竹 田
素 直
自 信
若 しくは
莉 子
行 先
西 宮
詰 める
話 さ
語 幹
調 節
豊 川
負 債
足 袋
辞 退
農 民
込 める
近 辺
達 人
遠 い
都 立
酸 性
野 心
鈴 村
開 口
阿 蘇
除 け
除 外
階 数
隠 さ
顕 彰
食 糧
飲 ん
馬 術
高 額
高 かっ
魔 神
魚 雷
鳴 き
20 3
11 7
ディ ラン
リア ス
ファ レンス
16 5
つい に
or g
or ph
シャ フト
13 00
al e
サイ バー
サイ コロ
シュ ウ
セン サー
取り 組み
オー ガ
27 00
フェ ラー
コー ダー
ジェ フ
アー サー
アー バン
フラン チェ
ジン マー
et su
スー パ
バイ エルン
ou nd
US D
ユニ オン
ウォ ーム
ur al
スカ ート
189 3
打ち 上げ
アド バイス
ペン タ
ess ion
RO M
vol ution
AD E
TR PG
マンド リン
ドゥ ー
ハート フォード
ペル シア
メガ ネ
おか げ
モニ カ
プラット ホーム
PD P
シネ マ
不可 欠
FI FA
ノミ ネート
シド ニー
ドキュ メンタリー
レイン ボー
Wal es
セール ス
コーポ レーション
パシ フィック
Will iam
オリー ブ
ソム リエ
Sim on
ハーヴェ イ
久留 米
カテー テル
ナポ レオン
中之 島
B our
C A
D o
G irl
H Q
I l
J r
J am
K U
M AR
N a
N et
P OS
R A
S ol
T P
T om
T ok
b u
b ack
d a
k y
k in
m i
n al
n ot
r el
s ite
v on
v ice
y r
y uk
с к
い しか
お 前
か き
か げ
け んど
そ ちら
た どり
つ ね
に ほん
ね こ
の ぞ
は な
ひ き
ひ まわり
ふ そう
ほ の
ほ り
ま とっ
ら わ
わ から
わ かっ
ア ワード
イ ラー
ウ エ
オ ハ
オ ファー
カ ゲ
カ メ
ク リーン
ク ローン
グ レー
ゲ ージ
コ ペン
サ タ
ザ ール
シ ブ
ソ ール
ゾ ル
タ バ
ダ スト
ツ ッ
テ ッ
ド ブ
ナ ント
ノ ウ
ハ ロー
ハ ワード
バ マ
ビ ッチ
ブ ーム
ブ リン
ヘ ルス
マ ート
ム シ
メ ソ
メ ド
ユ ン
ラ ド
リ ヒ
リ ッヒ
レ ポ
レ ラ
・ ア
一 生
一 瞬
三 和
三 谷
下 がる
久 米
乗 馬
井 田
交 野
京 葉
人 名
人 称
仕 える
以 南
任 せ
会 う
伝 播
低 速
体 勢
停 泊
充 分
先 述
全 滅
八 十
冠 し
冥 界
出 せ
出 札
利 便
劉 邦
勝 つ
北 川
占 有
原 動
原 案
厳 しく
去 り
及 ん
反 し
反 論
叙 せ
向 島
器 官
報 復
増 やし
壊 さ
外 道
多 野
夜 空
大 仏
大 垣
大 塚
大 火
大 竹
大 路
太 傅
太 政
学 士
宇 島
実 写
実 子
客 観
寄 与
寄 せる
封 入
小 柄
小 浜
尤 度
尼 子
山 内
常 時
常 設
幅 員
幸 福
広 瀬
店 長
弁 当
意 義
成 熟
我 が
戦 記
手 数
手 足
承 諾
抽 選
招 か
招 き
持 株
挟 ま
挿 絵
掛 かる
採 取
探 知
揃 え
支 える
救 う
教 諭
斉 藤
新 発
新 興
書 物
最 悪
望 ん
木 版
本 種
杉 並
来 場
柏 崎
校 名
榴 弾
欲 望
正 室
正 解
水 田
永 嘉
池 上
没 後
流 す
浦 安
添 え
無 声
無 形
爆 破
爆 風
片 腕
獲 物
現 道
田 尻
男 の子
留 守
異 母
白 河
白 波
直 樹
相 場
真 似
知 れ
短 絡
砲 兵
破 産
破 裂
神 谷
競 輪
竹 中
笑 っ
築 港
篠 原
織 物
美 味
美 穂
美 和子
群 れ
耐 性
肯 定
背 後
臨 海
自 立
興 奮
荒 木
荘 川
螺 旋
襲 っ
西 川
見 れ
解 け
赴 任
越 前
転 入
転 身
軽 便
軽 巡
輝 い
逃 げる
進 路
適 性
重 点
鉱 物
銘 柄
鍛 え
鑑 賞
閉 校
降 ろし
陽 子
陽 性
隔 週
預 け
額 面
飛 ぶ
高 価
高 座
魂 魄
イン ス
12 9
11 6
18 4
18 62
コン チネン
バー スト
en g
ロー グ
シャ ワー
ステ ー
ステ ファ
13 3
キャ ピ
マン ウェ
ルー カス
フォ ート
オー レ
コー プ
ニュー ジャージー
ブル ック
ブル ガール
デザ ート
il le
ブラ ッディ
アルバ ニア
スー プ
プラ ハ
ファイ ブ
いわ ば
ST A
切り 離
ハー ツ
ハー ゲン
ad em
ベン ゾ
生き がい
ow n
187 9
ナン センス
ul l
ユー ザ
188 1
188 4
タイム ズ
フレ ット
ap p
op p
エア リー
SH OW
フォー カス
ヒー ローズ
スピ ル
クロス オーバー
きっ ぷ
ニコ ライ
アンド ロイド
サラ リーマン
サブ タイトル
ヒル ズ
アント ニ
MA X
スライ ス
マツ ダ
SO D
盛り 込ま
調べ る
めぐ っ
Am er
みち のく
ヴォル フ
インテ ーク
エレクト ロ
佐久 間
コミュニケーション ズ
飛ば さ
飛ば す
シェイ ファー
由紀 江
市町村 道
カテゴ リー
LG MD
メア リー
きわ めて
なじ み
アガ トン
Hen ry
マテ リアル
シャッ フル
おま け
コペン ハーゲン
新発 田
コンチネン タル
3 70
A BS
A ust
B AN
B BC
C AME
D ist
D ream
E V
F re
F NN
K K
L i
M a
M IN
N I
P L
P W
P o
S o
S al
S TORY
V I
W W
W rest
X R
Y E
c an
c ent
d oc
h er
k i
l i
n um
p ol
t v
u ro
w ork
о в
あ お
あ ま
い ざ
お それ
く じ
げ き
こ なす
さ し
さ り
さ つき
さ やか
す す
た た
つ くり
と ある
な ぁ
な ろう
ほ く
わ か
ア ツ
イ ノベ
ウ オ
エ ックス
エ リック
オ ズ
オ モ
カ ロ
カ ミュ
カ ヴァー
ガ ニ
キ ヤ
キ ョウ
コ リン
ゴ ード
ゴ ダール
サ ード
シ ード
ス ミ
セ サリー
タ ツ
タ スク
チ レン
ッ タイ
ト ガ
ド ズル
ナ リ
ナ リー
ニ アン
ニ ズム
ネ コ
ネ ディ
ノ ット
ハ ツ
ハ ナ
ハ ブ
バ ルーン
パ ティ
パ レード
ビ リー
ビ アン
ピ ッチ
プ ソン
ポ スター
マ ヨ
マ ント
マ リオ
ミ ント
モ ント
モ ニー
ヨ ウ
ラ ウ
リ ブ
リ ウム
レ ズ
ワ ク
ワ ンド
ヴ ン
・ シュ
一 平
三 上
三 塁
三 振
上 旬
上 泉
上 郷
下 面
不 幸
両 分
両 立
並 列
中 線
主 砲
亀 井
事 柄
事 案
二 子
互 換
介 護
他 国
付 着
以 北
以 西
仲 良く
任 期
佐 々
佐 倉
体 型
促 す
信 越
修 業
入 浴
入 賞
公 明
公 正
内 藤
処 方
出 納
初 版
別 表
利 息
制 し
劣 る
効 力
勘 違い
北 上
北 岸
北 村
北 端
医 者
十 郎
博 覧
参 画
反 則
反 抗
反 省
吉 見
同 義
名 残
吐 き
向 い
周 南
呪 文
嘉 永
噴 火
四 十
四 条
団 子
土 日
城 端
執 り
塚 山
塩 尻
増 築
変 貌
大 伴
大 公
大 坂
大 師
大 成
天 井
奏 者
奪 っ
好 む
宍 戸
実 体
宦 官
寄 っ
寒 冷
寛 文
対 等
尚 書
山 川
山 門
工 具
帰 宅
平 凡
平 家
年 始
弁 慶
役 人
必 死
快 適
怪 人
怪 物
情 熱
戦 役
抜 か
担 任
招 聘
据 え
撃 っ
政 務
故 意
敦 賀
文 様
文 芸
新 作
新 造
方 形
方 正
日 米
早 乙女
昇 降
有 界
朝 比奈
本 紀
東 端
桃 山
業 者
極 楽
標 本
機 長
水 木
汎 用
汲 み
決 闘
決 まる
泉 北
海 底
港 外
満 点
激 突
点 数
焼 酎
熊 谷
燃 え
狙 い
玄 武
生 没年
産 駒
由 美
番 手
異 性
病 死
病 理
発 火
発 進
登 頂
皇 族
直 流
県 営
矛 盾
知 能
石 見
碧 南
神 沢
立 案
篠 田
純 水
紫 外
結 集
絞 り
織 り
纏 っ
美 華
美 しく
職 種
能 動
脱 落
膨 張
舞 岡
芝 山
芳 香
藤 堂
蜘 蛛
襲 来
見 つける
覚 える
解 約
計 量
設 ける
誤 差
豆 腐
豪 雨
貼 ら
賃 金
足 立
車 道
軽 い
輝 く
退 学
速 力
鉱 業
鋭 い
鍵 盤
鎌 ヶ谷
長 島
阿 賀
陣 営
離 れる
頼 朝
頼 近
飛 鳥
馬 喰
高 まっ
髪 型
20 5
から っぽ
イン バータ
スト レス
ラン ニング
12 8
18 50
ディ アン
バー ミン
ロー バー
レー ジ
アル ケン
アル カリ
or ies
シャ ンス
サー ガ
13 2
キャ サ
カー ター
ic ial
es ter
チャ ネル
el ia
フォ ックス
オー シャンス
ウェ ールズ
フェ ース
アン チ
アー チ
IC E
us s
AN N
アク セサリー
トリ オ
un e
ST R
ハー ベ
ハー モニカ
In stit
78 3
AS O
生き 返
生き 残っ
AM A
ダン ジョン
セル フ
188 7
フレ ア
og raph
使い 手
プライ ド
グラン デ
ID OL
フォー ラム
追い 込ま
スピ リッツ
フィン ガー
とり わけ
プラス チック
繰り 出す
SU G
ウィリアム ズ
過ぎ る
マリ リン
チャンピオン シップ
つなが り
ゲル マ
おこ なっ
ファンタ ジア
Or ch
アレク サンダー
ide o
Sc i
アウ グ
スリ ム
Car l
Ste phan
ヴォル ガ
みな と
TI ME
ジャス ミン
エンジニア リング
アリスト テレス
シャイ ニング
カプ セル
あえ て
リト アニア
ウィキ ペ
間に 合わ
あだ 名
久里 浜
TEC H
ツッ コミ
CAME LOT
イノベ ーション
オーシャンス プリング
' 、
B as
C J
C ross
D on
F ri
J I
J AS
K ING
N K
N Y
P O
P IEC
R ol
S yn
S oft
T X
W S
b or
b ur
f o
f un
l ine
n g
p re
p ut
r en
s y
s et
s um
u de
w ell
w ard
þ ri
い な
い ら
う り
が み
ち こ
つ とめ
で しょう
ふ たり
み たい
む ね
も はや
れ れ
わ さ
ア グ
ア ズ
ア リア
ア コース
イ ヤ
ウ ッ
エ ゴ
オ ッ
オ タク
カ ッ
グ ルス
コ ラム
サ ク
サ ロン
シ ベ
ジ オン
ス ガ
セ フ
セ カンド
ゼ ウス
ソ ス
ソ ワ
ソ ーム
タ リア
チ オ
ツ ク
ト ミー
ニ チ
ニ ッシュ
ノ フ
ハ リー
ハ ッシュ
バ エ
バ ブル
バ レル
バ ナナ
ヒ ラ
ビ ラ
ピ アニ
ブ ス
ブ ラー
ブ ロン
ブ ロード
ヘ イ
ホ ロ
ホ ット
ホ ース
ホ ラー
ミ ッチ
モ テ
ユ タ
ラ ダ
ラ ッピング
リ ミ
リ コール
リ バース
レ ネ
一 塁
一 層
一 言
三 原
上 司
不 利
与 党
世 論
丸 紅
乱 入
交 え
人 妻
人 衆
今 治
仕 方
会 っ
体 積
何 故
俸 給
倉 吉
個 性
傍 ら
元 老
先 取
先 立ち
先 駆け
光 寺
光 源
全 曲
全 焼
公 用
公 道
内 装
内 野
冷 凍
判 例
別 府
刺 さ
刻 印
前 縁
前 進
劉 備
功 労
加 わる
千 里
原 発
厩 舎
取 れる
古 紙
叫 び
台 頭
吉 原
告 げる
商 売
商 社
器 用
在 任
培 養
外 装
夜 行
大 別
天 宮
天 河
奇 妙
奉 仕
奥 羽
字 幕
宗 家
定 価
実 習
宮 里
家 政
寄 港
密 か
密 閉
小 西
少 尉
居 留
山 野
島 崎
島 本
川 上
巧 み
差 異
幕 僚
年 上
庶 民
引 か
弾 き
影 武者
従 軍
御 堂
復 員
志 願
感 動
慣 例
戦 法
抹 殺
指 向
採 択
接 点
握 っ
携 わっ
摂 政
擁 する
支 柱
改 変
放 ち
文 禄
日 吉
曲 げ
月 光
木 田
本 文
林 業
柏 原
桜 木
検 知
楽 譜
楽 しみ
構 文
模 型
機 材
正 治
武 雄
毒 性
民 衆
水 分
水 原
水 源
水 鳥
永 寿
江 古田
決 断
決 算
法 門
注 射
津 島
浮 か
海 面
涼 子
深 草
清 原
溶 け
溶 液
潜 入
烏 丸
無 罪
片 町
犯 行
理 工
琵 琶
瑠 璃
用 法
田 代
甲 状
異 例
異 能
疑 似
益 城
真 岡
眠 り
石 北
神 崎
移 築
突 っ
米 子
納 め
素 早く
索 道
累 計
経 っ
緑 井
繁 栄
義 理
聴 く
腕 前
自 国
自 爆
色 々
花 咲
苦 労
苦 戦
英 介
菩 薩
落 葉
蓄 え
蛋 白
行 え
裏 切り
補 修
補 正
西 北西
視 力
視 界
許 容
語 学
講 義
警 報
議 事
議 院
谷 口
豊 前
越 中
辞 職
農 地
辺 り
通 す
通 直
通 訳
連 ね
連 敗
選 任
那 覇
部 族
鎮 圧
長 門
降 っ
隷 下
集 まる
離 陸
音 節
音 素
風 力
飼 い
香 住
鳥 居
20 2
イン フォ
12 7
コン ダ
コン ド
コン ペ
コン スタン
シャ イン
受け 入れる
サー キット
ステ イ
フィ ガロ
14 1
ic an
チャ ンス
リン パ
シュ トゥ
24 0
24 6
オー ダー
アイ ランド
アー キ
アニ マル
チェ スター
引き 換え
引き 起こす
クロ ロ
コミ ケ
デル フィア
知ら さ
プラ グ
TO P
un n
組み 込み
いわ き
ボー グ
BC H
34 2
ベン ダー
ベン ソン
AS S
ation s
行き 違い
188 6
打ち 切り
イー グルス
Re g
ニック ネーム
呼び かけ
ab il
フラ ット
スケ ール
建て 替え
ヤマ ハ
イレ ブン
ニコ チン
バッ ファ
アンド リュー
ソング ライター
ネー ズ
クライ スラー
満た し
落と さ
やり 取り
sh ell
Pr ess
かわ さ
New s
南北 朝
亡く し
次い で
いろ いろ
あさ ひ
れん じ
ond on
ヘリ ウム
ジェイ アール
ハード ウェア
キャッチ フレーズ
Ad miral
インディ ゴ
ナック ル
カザ フ
アンダー ソン
ブライ アン
Tr in
ドキュ メント
カテゴ リ
ボト リング
上手 く
osp ital
vi ew
Christ ian
ロバ キア
Ann iversary
GALAX YZ
グスタ フ
プログラ ミング
日の 出
バイアス ロン
ギタ リスト
モジュ ラー
フィラ デルフィア
ミレ ニア
Bour ne
いしか わ
バーミン ガム
ハーベ スター
SUG OCA
PIEC E
アコース ティック
A O
B u
B ORN
C L
C an
C oun
D a
E ast
F W
G erman
I U
I g
J E
J e
J ava
L ondon
M ax
N G
P SP
P ART
P ubl
R T
R EC
R ich
S ing
T EN
X yst
] )
c es
d es
f l
f in
g t
g re
m ag
m RNA
p rec
s ol
t or
w eb
あ ず
あ つ
あ ずみ
う どん
か わり
が かり
こ つ
ご み
さ よ
し の
す く
そ り
つ う
づ ける
と く
の 中
ぱ い
ひ め
ぶ き
ぶ る
ゆ で
ゆ っくり
よ こ
よ み
ア ダム
エ ナ
エ ントリー
オ オ
オ ノ
カ デン
カ ッター
カ ッタ
ガ オ
キ ムラ
ギ ミック
ク リスト
ゲ ス
コ ・
サ ント
サ ターン
ザ ム
シ スト
ス パーク
ス キン
ス プリン
セ クター
セ リエ
タ タール
ダ ッ
デ シュ
ト マス
ド ナルド
ナ サン
ナ チュ
ニ カ
ネ プ
ハ ウンド
パ ット
パ ワード
ヒ ドロ
ビ バッタ
ピ ル
ブ イ
ヘ ド
ホ モ
マ クロ
ミ ェ
ミ エ
ミ ト
ム ル
ム ビア
モ ト
リ ヤ
リ ッジ
ロ スト
ロ ヴァ
ワ ディス
一 因
丈 夫
三 宅
三 宮
三 波
下 方
下 がり
両 端
両 腕
主 権
之 介
乳 児
予 讃
五 山
井 伊
井 口
京 田辺
今 夜
仕 上げ
仕 切り
付 随
代 官
代 役
仲 介
伍 長
伝 授
体 罰
供 述
信 条
備 中
傭 兵
充 て
入 選
八 戸
公 卿
公 職
内 山
円 錐
処 罰
凶 暴
出 所
分 間
初 日
別 途
制 圧
劇 的
加 わり
勘 定
匈 奴
化 け
北 斉
半 古
協 賛
南 朝
原 本
原 産
参 事
反 する
受 注
可 変
合 奏
同 業
同 窓
向 こう
和 彦
哨 戒
商 会
喜 び
土 器
型 式
増 進
壊 し
声 明
多 重
大 小
大 根
太 后
奥 州
妖 精
婚 約
嫡 男
安 く
室 蘭
家 具
家 屋
家 紋
密 着
将 校
小 字
小 板
小 笠原
少 量
居 城
届 か
属 す
島 原
川 西
工 藤
巻 く
平 原
平 仮名
広 め
広 州
弱 く
強 行
強 豪
強 かっ
志 向
怪 力
成 形
折 れ
折 返
持 分
捉 える
採 掘
推 計
握 り
揺 れ
撮 り
支 障
放 電
政 界
数 量
文 科
斜 め
於 い
施 策
日 豊
日 テレ
明 記
星 奈
書 紀
曽 根
木 幡
本 屋
板 垣
林 道
栄 町
栗 野
楕 円
欠 場
欠 番
欲 求
残 虐
毎 時
民 放
江 南
決 済
治 め
注 釈
洞 窟
流 体
浅 井
清 涼
港 口
潤 滑
点 検
無 名
熱 い
理 学
甘 い
生 態
生 身
用 心
男 児
略 し
盗 賊
相 武
矢 作
砂 糖
砕 氷
砲 弾
硬 式
秋 山
突 如
立 方
竜 童
童 話
竹 内
管 弦
粉 末
紀 州
紀 行
結 末
総 武
縦 貫
義 太夫
羽 生
老 中
自 慢
自 走
自 重
致 死傷
舗 装
著 し
蒲 郡
藤 子
血 漿
西 端
西 線
見 かけ
親 子
観 戦
解 く
訴 える
読 書
調 和
豊 北
足 り
軽 く
迅 速
追 っ
送 付
送 迎
通 用
造 営
遅 く
遊 園
運 び
適 正
那 須
配 送
重 い
重 なっ
門 司
閣 僚
闘 龍
附 近
陥 落
集 英
霊 場
音 域
題 し
風 呂
飛 翔
香 奈
馬 込
馬 鹿
騎 乗
高 城
高 津
高 瀬
高 まり
鶴 瓶
麻 衣
黒 人
黒 岩
19 1
ター ニュ
イン ピー
ング ラ
スト リー
ラン ダム
00 00
ティ マ
15 4
15 6
バー ニング
アル ド
アル ゼン
受け 付け
受け 継が
ジャ ングル
al a
14 8
ラー フ
ラー ビー
リン ゴ
ルー ニャ
el s
ジョ ウン
フォ ルト
ウェ ハー
フェ ルス
ウン テン
コー ディ
サン ズ
サン シャイン
アン ス
ジェ リア
プレ ゼン
ダイ オ
引き 分け
40 9
ウィ ッチ
シン プル
ヴィ ア
ヴィ ス
St udio
ER U
カン ファレンス
いわ て
ir st
AS A
スティ ング
189 0
os a
くる くる
ベース ボール
チャー リー
ul ar
ファー ラービー
トー マス
クレ タ
富士 見
チョ ーラ
グレ ル
An al
ID O
フラ ップ
RO LL
ザン リュウジン
ME D
ナム コ
コロ ムビア
IP v
Pro ject
グリ コ
ニャ ック
ect ion
Sp ort
っぽ ん
カタ ルーニャ
ord er
おお さか
チャンピオン ズ
もたら さ
マラ ヤ
az z
ug h
リク エスト
GO LD
引っ 越し
iel d
ばら つき
めぐ み
めぐ り
キック ボクシング
Col le
サスペ ン
明日 香
rit er
アポ ジンマー
port ed
センチ メートル
fer ence
おと な
きょ く
ral ia
シム ズ
パウ ロ
テュ ルク
アルマ ニャック
イケ メン
ストライ カー
Ac adem
ビザン ティン
RU IDO
Spec ial
パヴ ロヴァ
間違 え
Mich a
ぬい ぐるみ
宇和 島
不二 雄
Tok yo
アントニ オ
Aust ralia
キャサ リン
ピアニ スト
桜木 町
ミレニア ム
Rich ard
Xyst icus
さよ なら
ワディス ワフ
インピー ダンス
アルゼン チン
A lex
B U
B f
B est
D es
F D
F OR
G C
G Q
G S
H M
H ist
J ECT
L o
L iv
M al
M em
P e
P ort
R ain
S i
S il
S UN
T N
T u
T ime
Y U
b t
b it
c ar
d r
g ar
m y
t etsu
y ou
う ん
か 国
が け
き た
き ち
く さ
く す
じ っ
た ろう
つ ぶ
の ぼ
は つ
ひ ど
ふ さわ
ぼ ん
め ざ
や き
ゆ り
ん じ
ア ビ
ア ミン
ア ピール
イ ェ
ウ ラ
エ タ
カ ヤ
カ リス
カ ントリー
カ インズ
キ ラ
キ ノコ
ク ェ
ケ 谷
ケ バエ
コ ルド
ゴ ニア
ゴ スラ
サ マー
ジ ミ
ス カン
ス ナック
ゾ ロ
ダ ス
ッ チャ
テ ラン
デ ム
ト ーン
ド ソン
ナ ミ
ニ カル
ネ ーション
ノ 井
バ ネ
バ ングラ
パ パ
ヒ ゲ
ピ オ
ピ ウス
ベ ゴニア
ベ テラン
ペ リー
ホ リ
ホ ークス
ホ フマン
ボ ム
ポ テ
ミ ミ
メ ーション
ヨ ハ
ラ ット
リ イ
リ コ
リ ッド
レ ター
レ ジャー
ロ ド
ロ ル
ロ イト
ワ イルド
ン ・
ヴ ワディスワフ
一 撃
上 溝
下 賜
不 変
世 の中
並 木
中 途
事 象
五 輪
亜 種
交 わし
付 録
任 官
伏 羲
休 校
但 馬
低 迷
保 っ
保 線
備 考
入 所
八 百
公 営
公 爵
公 言
内 陸
再 帰
出 陣
出 せる
分 身
刑 罰
判 別
別 称
加 計
匂 い
包 囲
十 和田
千 住
半 期
半 減
卑 怯
博 し
即 ち
却 下
反 米
召 集
合 法
同 作
同 心
同 曲
命 中
商 船
営 ん
因 ん
図 り
国 宝
国 産
土 産
在 職
地 表
地 金
基 板
増 備
増 殖
壬 生
売 れ
外 出
多 大
多 彩
多 種
大 内
大 崎
大 里
天 龍
奈 緒
好 物
好 評
孤 独
学 研
守 ら
定 住
宮 本
宮 津
寺 田
射 殺
小 出
小 沢
巡 査
左 腕
帯 刀
幣 舞
平 地
平 板
座 っ
廉 価
延 べ
延 喜
弱 体
強 烈
当 たら
後 続
志 村
悲 しみ
情 景
手 形
打 た
払 う
挑 発
捕 食
採 ら
携 わる
摂 津
擁 護
擬 似
改 宗
故 人
教 区
教 材
文 太
斬 る
断 片
日 活
明 子
景 気
暗 い
更 生
書 院
未 遂
本 土
本 堂
本 誌
杉 内
杉 山
東 明
架 け
架 かる
柏 葉
森 山
極 め
楽 園
楽 しい
権 威
正 門
武 帝
氏 名
気 体
水 槽
汲 む
河 北
波 長
注 入
派 手
流 さ
浄 化
浜 町
清 掃
清 算
湿 地
滅 ぼし
炎 上
無 償
牡 丹
特 産
狩 猟
独 奏
狭 く
狭 義
生 計
産 生
田 無
異 星
疑 惑
目 線
直 さ
直 下
県 民
真 剣
知 人
知 多
知 恵
石 灰
砲 塔
破 れ
硫 酸
確 信
祖 先
祭 祀
種 族
空 手
突 撃
笠 間
答 申
築 く
系 図
細 かく
組 成
線 形
縦 走
羽 島
翌 朝
習 慣
肖 像
肥 薩
肩 甲
肺 炎
胆 汁
腐 食
自 発
芝 居
若 狭
苫 小牧
茶 色
草 原
華 麗
落 合
藤 岡
藩 領
複 素
西 ドイツ
親 交
訂 正
記 入
訳 さ
詳 しい
語 派
調 印
豪 族
貯 水
賛 同
贈 ら
赤 く
軽 度
轟 沈
返 済
迫 っ
退 け
退 院
速 い
速 く
配 分
配 車
酒 井
醤 油
釈 迦
金 利
金 子
金 色
釜 山
鉄 砲
長 田
長 調
長 谷
門 前
間 違っ
阿 波
院 長
陸 前
陸 地
陸 奥
電 界
靖 之
面 々
革 新
頂 上
風 雲
食 材
飲 ま
飽 和
駆 除
驚 い
高 千穂
鬼 怒
鬼 頭
魔 術
イン ガ
イン サート
18 60
18 48
ディ ーン
コン シュー
ファ クト
バー テン
レー タ
プロ ミス
16 8
ステ ッカー
13 4
13 7
17 3
17 6
キャ ッシュ
25 1
at us
チャ ップ
is ion
クラ ウン
ジョ ナサン
レン ツェ
26 0
スペ クト
コー タ
アン ナ
ジェ ノ
アイ ヌ
st er
アー セ
ブル ゴー
いっ たん
チェ ル
引き 継ぐ
クト ビバッタ
ウィ ンド
ig roup
ニア ・
カル チャー
バイ ザー
いく ら
合わ さ
トリ ビュ
St r
ER ATION
さん ま
US A
ワー ズ
エル フ
ファイ アー
入り 口
組み 合わせる
ハー スト
AT A
AT E
iv al
AS E
クリ ントン
はじ めて
ユー ゴスラ
AP P
マス コミ
ers on
バラ ック
フレ ンド
op is
付き 合っ
OS S
AK E
パラ ダイス
An g
ストロ ング
ID A
IT ION
ess age
オブ ジェクト
ワイ ヤ
サラ ダ
振り 回さ
フォル ダ
フロ リ
ヘン リク
ガル ズル
iss ion
グリ ップ
プレー ヤー
MO VIE
リッチ モンド
知り 合っ
パーソナリティ ー
Cl ub
リット ル
MP a
おお むね
ang u
まさ に
チュー ブ
ポリ シー
シグ ナル
クー デター
シュー ティング
セー ブ
bo ard
コック ピット
フィル ター
マニ ホールド
ラグ ナ
とど め
tr ol
ぐち り
たけ し
Mon ey
振る 舞い
インテ リ
MV P
エステ ル
モレ ネ
アテ ナイ
ミド ルトン
インスト ール
sem igroup
アサ ヒ
ハロ ウィン
PRO JECT
マカ オ
ケンタ ッキー
GEN ERATION
リナ ロール
ヘッ ダ
ホルン フェルス
ミシ ガン
htt p
sup ported
max Code
ハミ ルトン
ヴァージ ョン
Thom as
びょう いん
サバ クトビバッタ
フランチェ スカ
Wrest ling
Instit ute
Stephan opis
オーシャンスプリング ス
シベ リア
コンダ クター
Trin ity
ナチュ ラル
ミェ シュ
サスペン ション
カリス マ
バングラ デシュ
ブルゴー ニュ
トリビュ ート
ユーゴスラ ビア
1 200
4 90
6 000
A ug
B ro
B ill
B ack
B att
C OR
C BR
D L
D T
D el
F in
H ill
H ospital
I o
I MO
J o
J ST
K a
K ing
L W
L ab
L ASH
M M
M edia
P an
P al
P re
V i
Z E
c le
c am
d o
g ra
k t
l ight
m od
v id
þ a
々 線
い づ
う け
う じ
か が
か ぜ
か たち
か おる
き 出し
こ っ
こ なし
こ もり
さ ぎ
そ っくり
ぞ く
た ば
つ り
と こ
な め
ぱ ら
ひ る
び ん
べ え
も や
わ す
ア ット
イ ワ
ウ ザ
エ ヌ
エ ・
オ ワ
オ ホー
カ ズ
カ セ
ガ ガ
ギ ッテ
ク ツ
グ ー
ゴ ット
シ ノ
シ エラ
ジ ーン
ソ ナル
ツ イ
デ イズ
ニ ム
バ ッグ
パ ルス
ヒ ント
プ ラー
ヘ ブライ
ベ リンダ
ボ イラー
マ ドン
ミ スター
モ ・
ユ ナイ
レ プ
レ アン
レ ッツ
レ トロ
ン フ
ヶ 崎
一 元
一 様
一 派
三 味
上 州
下 さ
下 降
下 院
不 審
与 一
中 東
中 流
乗 入れ
乱 れ
予 言
争 う
二 宮
井 沢
交 替
以 東
仲 裁
伊 佐
体 温
供 する
係 員
保 谷
値 下げ
備 前
優 子
先 駆
入 植
入 道
全 会
全 幅
全 集
八 荒
共 謀
再 発
冗 談
冷 房
処 女
出 家
出 題
分 社
分 立
刈 り
初 音
創 世
劣 性
努 め
動 か
勝 者
勤 め
北 周
友 好
収 束
収 める
古 今
召 し
同 値
同 族
同 条
向 井
吸 血
吾 一
告 発
商 科
問 う
噴 出
団 治
囲 む
囲 碁
土 砂
在 り
坂 田
坂 道
城 山
基 調
堤 防
境 川
墓 所
増 刊
増 結
壊 れ
大 介
大 作
大 江
大 湊
如 く
娯 楽
嫌 悪
子 女
子 守
子 役
子 連れ
安 土
完 璧
宗 派
定 番
実 科
宿 命
密 集
富 岡
富 豪
対 岸
対 比
専 業
射 出
小 鉄
小 金井
尻 尾
尾 崎
山 林
岩 波
崩 御
川 原
巡 礼
工 夫
市 中
希 少
帝 都
帷 子
平 壌
平 氏
年 少
幼 生
待 っ
従 え
徘 徊
御 調
復 刻
微 妙
心 身
応 え
忠 吉
忠 誠
恩 恵
惹 か
成 型
成 年
所 見
手 配
手 間
打 倒
技 師
抗 体
抽 出
招 く
挑 み
接 地
摂 関
改 める
教 義
断 っ
断 面
新 妻
新 居
施 す
春 団治
晒 さ
暴 れ
書 面
服 部
朝 臣
木 島
本 四
本 気
東 和
東 大阪
林 野
柳 津
桜 井
構 える
機 密
欠 陥
正 徳
武 力
殴 り
殿 堂
水 着
江 ノ
治 世
沼 津
洋 楽
浪 速
液 晶
減 っ
満 ち
演 義
濃 い
火 事
点 火
点 灯
片 山
物 産
特 攻
特 記
献 上
王 位
王 立
理 性
生 母
由 佳
甲 種
町 長
留 まっ
疎 開
疲 労
痕 跡
発 熱
白 髪
相 関
矢 野
石 器
石 狩
硬 貨
祝 福
神 殿
秋 葉
移 送
突 厥
童 謡
筋 炎
粛 清
糖 尿
紀 伊
素 晴
紫 色
細 長い
総 監
美 浜
羽 越
羽 瀬川
耐 震
聴 い
脱 水
脱 線
臨 ん
自 機
舞 う
艦 名
良 かっ
花 嫁
草 加
荘 園
萩 原
蓄 積
藤 本
蜀 漢
表 せる
衰 え
裕 子
補 完
複 製
複 々線
西 田
西 郷
見 込み
見 込ま
親 戚
親 しく
観 覧
解 き
解 明
話 者
誇 っ
課 税
論 じ
講 釈
警 部
豊 平
赴 い
車 輌
軽 装
迎 角
近 縁
迫 ら
追 撃
送 電
途 絶え
通 年
速 報
遡 る
遺 作
酒 場
里 道
重 き
重 症
重 臣
金 種
金 貨
銃 弾
鋼 鉄
鍛 冶
鎮 座
開 戦
開 票
開 花
限 る
除 隊
隆 行
隠 居
雑 貨
静 子
面 白
頼 み
養 父
首 席
香 料
騒 音
骨 折
鹿 の子
黄 体
齋 藤
20 8
スト ー
12 4
12 6
er r
er ry
18 5
ディ スカ
ディ ストリ
ティ エ
ティ ッシュ
on y
ロー ブ
16 4
ンド ラ
17 5
キャ ニオン
フィ レンツェ
al k
カー プ
サイ ボーグ
es is
リン ピック
ルー シ
シュ ア
パー シー
パー ソナル
ジョ セフ
取り 出し
取り 扱っ
取り 組む
22 7
27 0
サン フランシスコ
ジェ ーン
re w
フラン ソワ
アニ エス
IC K
チェ ロ
クロ ン
ポー カー
スク リュー
ウィ ング
ウィ スプ
デル タ
バル ド
マイ ニング
ヴァ ール
AN GE
ou gh
カイ ドウ
ヴェ ス
スーパー マン
ST ER
ot o
ウォ ーカー
ad o
78 7
AS KA
クリ ニック
189 4
SP LASH
はじ まり
ミュー ズ
り返 す
キャン セル
チー ズ
AC T
HE ART
掛け 声
Al t
パラ リンピック
国内 外
SH IN
呼び 名
書き 下ろし
スケ ー
追い 詰める
たく さん
ワイ ナリー
クリス ティアン
トレ セン
ik o
our nal
pr int
ダウン タウン
たま ご
ne y
もら え
飛び 降り
当て は
繰り 上げ
ひろ し
まつ わる
ちょう ど
支払 わ
IE S
テク チャ
Mus ik
ast er
クイ ジナ
テイ ラー
ウィン ター
IG HT
マグ マ
af f
IV AL
天王 寺
おこ し
あさ しお
ツィ オ
モニ ウム
ピーター ズ
試み る
テロ ップ
エッ セイ
AA A
スティー ヴン
トライ アル
ツイン ビー
System s
ユリ ウス
NP O
エンター テインメント
でん き
繰り返 さ
WE B
アイス ランド
イスラ ーム
閉じ 込め
トランス ミッション
Ro y
ココ ナッツ
インスト ゥル
ビリ ヤード
Open Doc
ドクター ジーカンズ
Dis c
Rob ert
Pet er
カジ ノ
目論 む
聞こ える
高井 戸
イシ ガメ
ドミニ オン
麻里 奈
ゴウ リュウガン
御殿 場
ヒュ ーム
Rad io
サルト ル
ヨコ ハマ
yuk ih
スミ 子
アーキ テクチャ
カデン ツァ
ふさわ しい
アーセ ナル
ユナイ テッド
クイジナ ート
2 18
3 25
5 40
8 50
A ut
B it
B us
B ig
C AMP
F e
F est
G RO
G HQ
H A
H or
H ol
H un
I m
J SM
J azz
K P
L V
L ist
M el
M ay
M os
N B
N AC
O EM
P OR
P RE
R I
R R
R AD
R ail
S K
T W
T y
T our
Z one
b s
c in
c al
d ra
e e
f ul
f ile
n ess
o ok
p os
s ec
t u
v ersion
w in
w ay
z elia
い ずみ
い じめ
え び
え ろ
お し
お むつ
が な
き く
く ち
ぐ れ
ぐ らい
し げる
じ ま
ず く
そ ら
そ ごう
ち り
つ ば
の こ
の ん
は く
は ち
は ま
ば あ
び き
ふ と
ま ね
ま とも
み の
み なす
よ ら
ら ぎ
ア ヌ
イ ブン
ウ シ
エ コ
オ セ
オ ト
カ チ
カ ネ
ガ ミ
キ ンス
ギ ロ
ク ローズ
グ ン
グ ロス
ケ ーン
ケ ネディ
ゲ オル
サ レス
サ ミット
サ ントリー
ザ ス
ス チ
ス プラ
ス ロープ
ズ ボン
ソ フィア
ソ リューション
ゾ ナ
ッ ガー
ッ キリ
デ ール
デ パート
ド ム
ド リック
ナ ノ
ニ ナ
ノ ラ
ノ ソラ
ハ ッチ
バ ト
バ ッド
パ ズル
ヒ カリ
ヒ バリ
ビ ート
フ ッ
ブ タ
ブ ッ
ブ ロー
プ ジョー
ヘ キシ
ベ ツ
ベ ニ
マ ール
マ ティ
ョ ー
ヨ リ
ラ ベル
ラ ッキー
リ ハ
リ バ
リ バー
レ サス
ロ サ
ヴ リア
ヶ 国
・ ス
・ アル
一 夜
一 説
一 転
上 尾
上 屋
上 川
下 士
下 層
両 開き
中 年
中 頃
主 将
主 席
主 翼
了 承
亜 目
交 配
亮 平
人 体
仕 立て
仙 人
代 わる
伐 採
休 業
伸 ば
体 質
供 与
修 士
健 太
優 しく
兄 貴
先 発
克 也
免 れ
入 会
入 換
全 編
全 通
八 景
共 著
兵 力
内 包
内 外
凝 集
出 番
出 かけ
初 心
到 来
制 止
前 向き
剥 奪
副 官
加 古川
動 い
動 的
勝 田
包 み
包 括
包 装
十 勝
千 秋
協 奏
南 米
博 徒
印 字
即 座
即 興
原 告
原 始
双 対
台 場
右 翼
合 作
周 圏
命 じる
問 屋
喋 る
嘔 吐
因 む
地 価
地 底
坂 上
増 資
多 気
大 友
大 国
大 沢
大 砲
天 魔
失 点
失 禁
奈 子
奉 納
奥 義
嫌 う
学 部
宅 地
守 口
安 達
安 部
官 吏
宮 澤
宿 毛
寄 進
察 知
専 ら
専 念
尊 重
小 豆
尾 根
尿 道
履 修
山 村
山 浦
岩 崎
岩 槻
岩 瀬
崇 拝
川 柳
州 道
巡 り
巻 い
年 中
廃 藩
弥 彦
強 大
強 襲
律 令
得 宗
得 票
思 え
愛 車
成 員
手 動
抗 力
抜 群
指 数
振 ら
捧 げ
採 集
推 古
擁 立
放 し
政 雄
救 わ
敗 者
教 導
敢 行
散 乱
整 形
文 蔵
斑 点
斬 撃
新 潮
新 編
新 車
旅 立ち
日 数
明 言
明 かし
明 かさ
普 代
暮 れ
替 わっ
月 面
有 る
有 蓋
本 書
本 殿
東 邦
枚 数
柏 木
柳 瀬
校 地
桐 生
桑 原
桟 橋
業 種
樽 床
次 ぎ
止 まっ
正 宗
武 川
殺 す
民 謡
気 味
気 づき
水 面
池 下
没 落
洋 画
洲 本
活 劇
活 字
派 出
浩 治
浮 かぶ
深 川
渭 州
溺 れ
滑 車
漫 才
激 減
濡 れ
無 機
猟 兵
獣 類
王 族
現 世
理 系
琴 平
生 殖
田 口
番 外
病 床
白 鷺
益 田
盗 み
目 の
相 性
矢 吹
短 剣
石 原
石 橋
石 碑
石 神
研 二
硝 酸
碑 文
祈 り
祈 願
祥 子
私 設
種 々
積 ん
空 爆
窒 素
笑 う
筑 紫
築 き
篠 山
簡 素
純 度
細 く
組 員
絵 師
総 裁
総 計
総 長
総 集
縄 文
美 園
考 察
聖 母
肩 書き
能 登
脊 椎
膨 ら
芽 室
若 年
苦 しい
莫 大
菩 提
蔵 人
表 向き
被 っ
西 成
見 事
見 出し
視 線
評 議
諦 め
赤 松
越 谷
跳 躍
車 輪
軍 需
軽 井沢
近 位
近 づい
透 過
通 例
造 語
道 府
道 東
遥 か
遭 っ
遷 移
遺 構
都 会
酒 屋
里 庄
重 度
野 望
鉄 工
開 院
関 口
防 災
阿 倍
院 本
陰 陽
雅 子
雇 っ
電 線
静 止
音 痴
順 調
類 型
風 船
風 貌
飾 る
高 尾
高 川
高 梁
魚 類
鳩 山
鳳 凰
麻 薬
この 世
スト レイ
スト リング
ラン サー
11 8
18 43
18 59
18 52
ディ ッチ
ディ アナ
ディ ビジョン
ショ ーン
on ia
コン コルド
ファ ンド
ファ ブリ
なく なり
en v
アル キ
ar p
サー ジ
サー ジェント
17 1
17 00
キャ ス
ジャ ミン
14 5
ホーム ズ
at s
at ive
チャ ック
ルー フ
エン クロー
is on
is ter
クラ ーク
クラ ッシュ
取り 壊さ
オー ブン
it ar
ナー ゼ
23 9
アン モニウム
アイ オワ
st ar
アー ン
プレ ッサー
いっ ぱい
IC HI
IS H
as is
ig o
知ら せ
ブラ ウザ
et t
バル セロ
バイ バル
シン ロン
ヴィ チ
AN A
トン プソン
ビル ド
乗り 出し
ボール ヒーローズ
AR E
ユニ フォーム
ST AGE
ハイ ウェイ
ハイ ビジョン
ハー ブ
まる で
AT T
ひと め
ir d
In n
クス ピア
ベン ゼン
ベン ジャミン
クリ ッター
im al
メロ ディー
187 7
バラ ッカ
300 1
シル フ
ak i
チョ ン
エレ メント
ミン クス
CO M
CO MB
イー グル
ID E
est ra
ブン デス
RE AM
YO U
186 3
カラー リング
BO O
LO G
TR A
アンド レ
man aca
Ar ch
アス リート
デュ ラン
ip p
シャー マン
ミュ ン
land i
コント ローラー
Ser ver
Ser vice
しょ く
ヤン キース
オーバー フロー
コス モ
ヘル メット
Su mmer
大野 城
マグ ネ
スライ ム
見つ かる
セミ ナー
NN N
アリ ゾナ
ah i
sk i
ear ch
とど まら
スティー ブン
BR T
セラ ミック
ふた たび
タック ル
コラボ レーション
シェイ クスピア
カツ ラ
ボウ リング
オレ ゴン
Mic ro
XX X
アテ ネ
スプリング ス
Af zelia
メタ リック
シクロ ヘキシ
Ele ct
ニシ キ
Ind ia
スコット ランド
Fr am
メモ リアル
メト ヘモグロビン
デラ ックス
Techn ology
ヴォー カル
クリエイ ティブ
アトラン タ
フェミニ スト
フェラー リ
オーレ リア
生き返 ら
Sci ence
abil ity
バーテン ダー
フロリ ダ
Aug ust
オホー ツク
マドン ナ
秋葉 原
インストゥル メンタル
yukih iro
ギロ チン
スチ ール
ヴリア ミー
エンクロー ジャー
バルセロ ナ
COMB AT
ブンデス リーガ
. "
1 100
A ct
B re
B AM
D eb
F i
G roup
H i
H y
H ello
H ouse
I r
J T
J u
J an
J AM
K n
L eg
M or
M at
N IGHT
O asis
P Z
P ol
P ower
R ed
R IP
S l
S y
S ON
S ant
T ra
T CP
T mar
V O
Y S
Z O
b j
b et
c us
f r
f on
f act
f ace
h enn
k w
m ol
n ew
p ing
v o
v al
w a
y le
é s
あ か
い たる
か ま
か め
ご っこ
さ だ
ざ け
そ ん
た かし
だ め
ち え
な な
に っぽん
ね ね
の せ
は た
ひ い
ひ で
び れ
ふ み
べ し
ぽ ー
ま しく
ま しょう
み らい
み ゆき
ら っ
り く
わ ん
ア タ
ア ベ
ア ロー
イ ノ
イ ニング
エ ラー
エ ッジ
オ チ
カ 月
キ ドゥ
ケ リー
コ イル
コ ムー
コ マーシャル
ゴ イ
サ サ
サ ライ
シ ラ
シ ニア
シ ズム
ジ モン
ス タイ
ス ロバキア
セ ッツ
セ クション
ゼ ーション
ゼ ピン
ソ プラ
ゾ ール
タ オル
ダ ウ
ダ ッチ
ダ ニー
チ ナ
チ カット
デ アル
デ トロ
デ マンド
ト キ
ト ール
ド ッグ
ナ ガ
ナ バ
ニ エ
ネ ッティ
ハ ク
ハ チ
ハ ーン
バ ウ
パ ワ
ヒ ョウ
ヒ マラヤ
ビ キ
ピ ャ
フ レイ
ベ キ
ベ ロ
ペ ペ
ペ リア
ペ ダル
ボ ケ
ボ コ
ボ ット
ボ ロー
ボ ストン
マ シーン
マ ウンテン
ミ サ
ミ ート
ミ ラル
ミ ノル
メ ダ
メ レン
モ ナ
モ ット
モ ダン
ヨ スガ
ラ ビット
リ ム
リ リ
リ サイクル
ル ナ
ル ファ
レ ジスタ
レ ジェン
ロ ップ
ロ ッキー
一 星
三 川
上 る
上 腕
上 院
下 水
下 伊那
不 便
不 倫
不 時
中 身
予 め
五 稜
京 北
京 橋
仕 掛ける
任 ぜ
休 戦
会 派
伝 馬
体 長
個 室
健 一
健 在
元 号
光 景
全 廃
八 丁
公 称
六 十
共 立
冷 酷
冷 たい
出 航
出 入口
初 恋
別 冊
別 荘
制 空
前 行
力 士
劣 勢
動 態
動 輪
勤 める
化 石
卑 弥
南 武
卵 白
参 詣
収 縮
叙 位
口 座
司 祭
各 部
合 間
同 乗
同 性
同 郡
名 声
含 み
和 光
唱 える
回 線
因 坊
因 子
国 名
国 税
地 味
基 部
増 す
夏 樹
多 賀
夜 中
大 洲
大 まか
天 智
天 草
失 速
奨 学
女 児
姉 弟
委 ね
嫉 妬
子 息
子 爵
学 説
孫 権
安 井
安 佐
安 曇
官 設
定 常
定 頼
実 名
宮 原
家 畜
対 談
導 か
小 隊
小 鳩
少 々
少 な
山 道
岡 部
岩 田
島 内
崩 し
崩 落
左 折
帆 走
希 釈
広 電
店 頭
座 右
弓 道
強 硬
役 満
征 伐
後 発
後 縁
後 裔
心 斎
必 然
志 度
恐 ろ
感 知
慢 性
戦 災
手 稲
手 順
手 掛ける
扮 し
抱 える
拷 問
持 田
挙 句
捕 え
捕 まえ
授 け
排 斥
掘 削
採 石
推 し
揚 羽
揶 揄
携 行
撃 つ
撃 退
播 但
敬 意
新 入
新 鎌ヶ谷
日 大
日 系
日 経
明 徳
曳 馬
更 なる
最 盛
最 速
月 経
月 間
有 能
木 場
木 本
本 因坊
村 長
東 旭川
東 久留米
柳 生
根 尾
椎 名
検 面
極 小
武 豊
気 温
沈 め
没 し
河 田
油 津
治 癒
治 郎
浅 口
海 側
消 す
深 め
源 流
潮 来
無 水
爆 薬
片 方
片 面
牝 馬
王 太子
球 状
産 出
異 形
異 物
痛 め
登 校
白 金
皮 肉
皮 切り
目 当て
直 人
直 方
直 面
真 弓
真 相
着 脱
矢 印
知 見
短 大
硬 化
祀 ら
神 事
神 秘
空 知
等 々
等 式
築 城
築 造
簡 便
簡 略
精 力
精 霊
紅 白
紋 章
細 川
繊 細
繋 がり
美 樹
美 紀
習 い
翔 一
胆 管
能 勢
船 内
船 団
艦 載
良 木
花 輪
若 き
萌 え
血 糖
衣 服
表 裏
褒 章
要 所
見 通し
規 程
親 兵
観 念
解 任
誘 い
誘 惑
誘 発
請 負
諜 報
諸 侯
諸 説
謙 信
賀 茂
足 元
車 輛
軍 勢
軍 縮
転 倒
農 産
迂 回
近 海
迫 る
追 尾
逓 信
通 い
逸 話
遊 ん
達 郎
部 内
都 区
都 道府
配 管
重 宝
鉄 心
銀 山
鋼 製
錬 金
鏡 筒
閣 議
防 除
阿 弥
院 宮
陰 謀
隣 人
集 結
離 散
青 梅
青 田
音 便
順 子
頒 布
風 俗
風 車
飛 ん
飼 料
館 林
饗 宴
驚 異
高 射
高 石
高 裁
魔 力
鯰 田
鳥 類
鳴 門
麻 生
黒 幕
イン プ
ラン ダー
ラン ナー
ード ル
18 54
18 53
ディ ナ
in ter
in ess
ファ ント
レー サー
アル メ
30 10
16 2
シャ ク
17 2
フィ ッシャー
フィ ニッシュ
at es
ic t
サイ レント
es o
チャ カ
とも さ
シュ テッ
エン キドゥ
el d
セン チュ
取り 込み
28 7
28 9
it ch
ウェ イト
23 5
23 00
ベル デ
ダイ ア
チェ ット
引き 継ぎ
シア ス
クト リ
as on
デル モンテ
ニー チェ
ig a
マー ズ
タン ゴ
カル ロ
マイ スター
ビュー ティ
ヴィ ー
ヴァ ロワ
ジョン ソン
レス ポンス
トラ ウマ
パン ツ
ハン マド
ゴン サレス
ビー ズ
id a
エル サ
IN VE
ジア ゼピン
ST MENT
マル クス
ec k
Th is
ウォ ーク
ウォ ッチ
オリ エン
ur i
ur t
189 2
行き 来
ギャ ル
ギャ ップ
ピン チ
oc ol
カリ ックス
トロ リー
トロ ッコ
ラル フ
188 2
トー ゴ
トー スト
フレ ックス
og le
イント ロン
クレ ディ
チョ ーク
アド ミラル
グラン ト
アフ ガニ
ew ork
Re ference
ブン ブン
ブレ ット
ミニ ゲーム
作り 上げ
しゃ べ
なん ば
やま ぐち
メイ キング
72 20
AG A
ケー キ
all y
io us
オル レアン
無く なっ
デイ ブ
デイ リー
デイ ヴィッド
ボル テッカ
デュ エット
繰り 下げ
スイ ート
ニン ジン
sh p
BE AT
埋め 込み
int osh
切っ 掛け
NE O
チュー セッツ
ハウ ゼン
En g
ゲル マン
ミドル ウェア
シロ ップ
Inter net
AY A
話し 合い
プロダ クツ
いか なる
れん 坊
Mac intosh
セー フ
五十 嵐
アシ スト
ハリ ケーン
コネ チカット
メカ ニズム
買い 取り
ステン レス
セレ クション
Gu itar
とど まっ
ウォル ツ
cl ass
ech o
Comp any
str u
インディ アン
Go ogle
レッ スン
Ber nd
可愛 い
mus ic
ミラ クル
成り 立つ
エルン スト
ノベ ライズ
アレクサンド ロフ
BL ADE
多々 良
マサ チューセッツ
Nor th
こだ わり
テュー ヌ
ボディー ガード
貼り 付け
oci ation
スプライ シング
コロン ビア
カレン ダー
イリ ノイ
ペンシル ベニア
デイビ ース
Trans m
鳴き 声
Jam es
サタ デー
ベンゾ ジアゼピン
マヨ ネーズ
アウグ スト
REC OR
ネプ テューヌ
グリコ カリックス
コンシュー マー
Batt le
新居 浜
ディストリ ビュー
RAD IO
シクロヘキシ ミド
Fram ework
Tmar us
コムー ネ
ソプラ ノ
デトロ イト
ピャ スト
卑弥 呼
シュテッ テン
センチュ リー
INVE STMENT
アフガニ スタン
" 、
' -
) ;
1 19
3 11
4 70
5 30
B D
B ea
B eg
C our
D F
E uro
G B
G ut
G III
G HT
H ome
H APP
I FR
L et
L PG
M in
M ex
N OT
O ut
P at
P ark
R X
S iss
S AGA
T J
T i
T AT
T op
T SU
U l
U FC
V ar
V II
V ideo
W OW
X P
Z IP
^ {
b ach
g u
h p
i ed
j a
k o
k it
l ove
p art
p ubl
t ime
z a
z y
þ i
þ r
е в
い し
い そ
い こう
う み
お ろ
か せ
く み
ぐ り
こ ころ
し し
す っきり
そ ろ
た から
た より
だ す
だ ち
ち ゅ
づ か
づ らい
て く
ど っ
は っ
ば ね
ひ な
ぴ あ
ぶ っ
ぶ れ
ぶ くろ
ぷ り
ま ご
も た
や み
ら ぶ
ア コ
ア ビス
ア ールズ
ィ ー
イ ク
イ モ
イ デアル
ウ ヰ
エ ター
エ ーション
エ ミリ
オ ウ
オ ックス
オ ットー
カ ルト
カ セット
カ ッコ
ガ ッツ
キ ティ
キ プロ
ギ ーク
ケ 浦
ゲ リラ
コ アラ
ゴ ジラ
サ ヨ
シ コ
シ ジミ
ジ ス
ジ ・
ス メ
ス ワ
ス テレ
ス ウィ
ス ピー
ス チュ
ス ブルク
ズ ーム
ゼ リー
タ チ
タ ップ
タ カラ
ッ ケ
ッ セ
ッ ショナル
ツ キ
ツ ネ
ツ ル
テ ラス
デ ックス
デ フォルト
ト ート
ト レス
ド ック
ニ ヒ
ネ グリ
ノ キ
ノ イズ
ハ メ
ハ ンス
バ ナ
バ ルト
パ ニック
パ チス
パ ディッチ
ビ ウス
ピ ロ
ピ ート
ブ ナ
ヘ キサ
ペ ロ
ボ ウル
ボ リューション
ポ パディッチ
マ ト
マ スタ
マ ッド
マ フィア
ミ キ
ミ ノ
ム ズ
ム スリム
メ ロン
モ ジュール
ヤ ブ
ユ スティ
ラ ヴ
ラ ール
ラ ング
ラ ファ
リ リア
リ ヨン
レ ポート
ロ ジ
ロ ラン
ロ ビー
ロ メロ
ロ ビン
ワ ト
ワ ラ
ヵ 月
ー バー
一 応
一 意
一 等
三 橋
三 陸
上 越
上 里
下 北
下 町
下 げる
下 諏訪
中 佐
中 外
中 空
之 内
亀 茲
了 解
人 道
会 戦
低 圧
例 え
価 額
信 じる
修 二
倒 壊
偉 人
健 全
偽 造
備 わっ
催 眠
傷 害
元 和
光 源氏
光 が丘
入 国
全 額
八 郎
兵 舎
冊 子
再 婚
凶 悪
出 展
出 庫
出 羽
分 家
刑 法
制 式
前 漢
前 玉
前 記
加 害
加 治
勤 労
匹 敵
千 林
南 極
南 町
即 日
卵 割
参 り
及 ぼし
反 復
収 蔵
古 童
可 換
可 視
台 東
各 局
吸 入
吾 妻
啓 蒙
囚 人
回 す
固 い
国 主
坂 出
埋 める
執 念
堆 積
塩 酸
墓 石
壁 面
壊 死
士 族
変 種
外 壁
大 事
大 同
大 瀧
大 矢
大 胆
天 衣
太 伯
奮 闘
如 月
始 末
始 祖
嫌 っ
学 力
学 派
宍 粟
宗 谷
定 か
定 年
客 数
家 電
宿 坊
宿 舎
寛 政
小 名
小 銃
居 候
屈 指
届 く
岡 倉
岩 見
左 岸
幌 筵
平 定
平 沼
幸 子
幽 霊
広 範
庇 護
座 面
弘 仁
弘 文
張 ら
強 引
弾 圧
弾 道
当 面
後 援
従 前
従 兄弟
微 小
徳 山
忠 別
念 頭
怡 渓
悩 まさ
意 欲
所 長
手 元
打 点
投 じ
折 返し
抜 粋
抹 消
担 い
指 針
挟 み
授 かっ
描 画
援 護
摂 食
撤 廃
擁 し
攘 夷
支 局
放 た
敗 走
教 訓
整 合
敷 き
新 曲
日 誌
旧 線
明 和
明 示
暖 房
暴 れん坊
曲 がっ
替 わる
有 り
有 志
本 尊
本 戦
本 松
本 稿
東 芝
東 郷
松 戸
柔 術
格 上げ
桂 川
梁 山
森 本
楽 しん
様 態
正 一
正 和
歩 ん
殺 傷
気 質
水 冷
水 橋
水 辺
法 典
波 照
洋 式
洋 紙
浦 賀
浩 一
浪 人
浮 世
海 中
減 り
溶 岩
滝 沢
滝 澤
漁 船
演 目
漬 け
漸 近
潰 瘍
無 傷
無 駄
煙 突
照 度
熟 練
熱 中
燃 費
爆 死
特 筆
特 色
独 学
猪 俣
猶 予
理 恵
琴 塚
瑞 鶴
生 ん
留 まり
疾 風
発 案
発 煙
発 送
白 粉
直 子
直 進
相 原
省 エネ
眠 っ
知 名
知 性
砂 川
祖 国
神 名
神 器
神 威
秀 喜
稚 内
稼 い
窮 地
竜 崎
竜 王
竹 本
等 価
精 進
素 人
細 部
紳 士
終 える
組 頭
経 理
給 付
給 料
絶 た
絶 命
置 県
罰 金
義 経
羽 根
老 舗
聖 子
聴 取
肥 大
肥 後
脱 臼
臆 病
臭 い
至 り
致 命
船 員
芭 蕉
芳 野
芸 備
苗 代
若 江
英 名
英 郎
荷 重
葛 南
葬 ら
薬 局
行 幸
行 程
行 進
行 こう
袖 ケ浦
装 填
裏 手
西 欧
解 か
訳 語
証 書
説 い
講 和
講 堂
責 め
起 業
超 過
足 寄
路 地
転 属
辛 島
農 作
近 傍
迷 惑
追 悼
退 場
送 受信
途 上
速 乾
連 発
連 鎖
進 軍
逸 脱
運 ん
過 度
道 中
選 曲
邸 宅
部 局
酒 造
酔 っ
酢 酸
酷 似
醍 醐
野 口
金 光
鉱 区
銃 撃
鑑 別
鑑 定
開 会
闘 い
限 っ
陥 る
随 一
随 時
電 極
電 球
霊 園
霊 的
響 き
須 佐
頼 り
頼 綱
食 物
飼 っ
香 取
香 美
駅 中
髑 髏
高 砂
麻 美
黒 木
20 4
10 000
ラン チャー
er o
ティ ーク
ライ ム
in s
in es
リア クター
コン バータ
コン バイン
コン プレックス
ロー レンツ
プロ ット
アル ミニ
アル キル
アル ビレ
16 3
16 6
受け 止め
サー ン
サー バー
サー カス
タイ マー
ステ ータ
キャ ッツ
フィ ード
ジャ ク
ジャ マン
ジャ ネイ
al th
14 6
14 7
カー ソル
チャ オ
レイ ノル
シュ ウォルツ
ol l
ジョ ッキー
ドラ イン
28 0
フェ チ
ジェ ンス
ブル ターニュ
イト ー
IC A
引き ず
引き 取ら
コミ ケット
ニア ヌス
タン ガ
タン デム
マイ カ
マイ ヤ
バイ ブル
ac ter
ヴィ クト
パン ク
ジュ エリー
St age
id d
パイ ア
もっ ぱら
イベ リア
リオ ール
ソフト ボール
生き 残る
AM O
クリ ップ
行き 止まり
ビア ス
トロ ール
37 2
とう きょう
フレ デリック
ブリ ザード
らし き
チョ コレ
ri pt
Al bum
ゴー タ
ソー ダ
ソー プ
パラ ソル
ab al
ブレ ム
なん て
ill er
京阪 神
ワイ ヤー
ガイ ドライン
ine a
インタ フェース
言い 渡さ
ik e
ik i
グリ ム
デュ ゴミ
繰り 広げる
だい がく
いき なり
スマ イル
Di re
Pr esents
ver y
テク ニカル
吉野 町
Op er
con t
サム ライ
Un ix
トウ キョウ
end er
GP z
亡く なる
申し 入れ
申し 立て
MI LE
ッコ ウ
ちょ ん
アミ ティエ
兼ね る
レンタ イン
ep p
ポル カ
フライ ヤー
ハッ キング
Or z
ウィル ソン
UC K
UC LA
sk y
Gl ob
ロマン ス
払い 下げ
DM M
こん にち
Bo ok
ネック レス
ひら がな
ジャイ アント
hy dro
楽し める
カウン ティ
ホウ ボウ
空き 地
DX G
Res earch
DAY S
ty pe
津田 沼
osp eso
rad iko
Comm un
ぴょん ぴょん
クワ ッド
聞こ え
ファミ コン
コンビニ エンス
アング ロ
もて なし
パナ マ
sel f
po int
サンディ エゴ
ハイン リヒ
フュ ンフ
プロフェ ッショナル
トロイ ア
Av ahi
Girl s
インス リン
ステファ ノ
キャピ タル
Amer ican
ヴォルフ スブルク
WW F
tv k
さつき 野
キヤ ノン
ゴード ン
コンド リア
コンペ ティ
ミト コンドリア
ダイオ ード
Sport s
Micha el
たば こ
たまご っち
Fest ival
阿倍 野
BAM BOO
ヨスガ ノソラ
Bernd t
RECOR DS
Siss y
TAT ERU
ウヰ スキー
キプロ ス
サヨ ナラ
ステレ オ
パチス ロ
ユスティ ニアヌス
波照 間
アルミニ ウム
アルビレ ックス
ステータ ス
ジャネイ ロ
レイノル ズ
チョコレ ート
デュゴミ エ
フュンフ シュテッテン
" ,
2 25
3 40
4 11
5 12
6 40
7 000
9 14
9 000
A ICHI
B en
B AR
B its
C a
C AR
C IT
C up
D an
D ec
D REAM
E nd
F u
F ac
F NS
F lex
F irst
F ield
G al
G PS
G CC
G ame
H all
H IG
H af
H app
I K
J CT
J ür
J ournal
K ar
K BS
L act
M F
M ed
M ad
N av
O l
P T
R om
S and
S ING
S gt
S MILE
U YA
V ersion
W ol
W EC
W ond
Z epp
b all
e f
e z
f ly
h om
h ot
i j
i en
i or
l ag
l ib
m p
m on
m ot
p H
p p
s i
s o
s yn
s ystem
t able
v el
w h
x x
y e
é n
а н
и й
и ч
о л
о с
々 しい
あ う
い さ
う し
う っかり
お ぎ
お に
お は
か から
き げん
く ず
こ え
こ し
こ む
さ ぬき
じ い
じ けん
す う
せ っ
た こ
ち ば
つ 国
て は
ど る
ど ろ
の 毛
ひ さ
ひ ゃく
ぶ どう
ぼ さ
み せ
め き
め ちゃ
も ろ
ゃ っ
よ ば
わ う
わ だ
ア イン
ア スティ
ア ッカ
イ ザ
イ ヌ
イ ース
ゥ イ
ウ イン
ウ ラー
エ ポ
エ フェ
オ ウム
オ プト
オ バマ
カ バ
カ ント
カ ウル
ガ ・
ガ ールズ
ク ボ
ク チャ
ク ブラ
グ モン
コ メ
サ カ
サ ト
サ ビ
サ ヤ
サ ング
サ ケット
サ ラーフ
シ エ
シ ティー
ジ ロー
ス クラ
ス イー
ス ピア
ス ッキリ
ゼ リア
ソ ナー
タ ネ
ダ ロス
チ カ
チ リ
チ キン
ツ キー
テ リア
デ スト
デ ストロ
デ ジャネイロ
ト ク
ト ゲ
ト レイ
ド ックス
ド バイ
ド レッ
ナ ガラ
ニ コン
ハ ボ
ハ イト
バ ロック
バ レンタイン
パ ブ
ビ スタ
ビ ッド
ビ ニル
ピ ッ
ピ エール
ブ ト
プ シ
ヘ ビ
ベ ネ
ベ ビー
ペ ス
ペ スト
ホ ップ
ボ ラ
ボ ギー
ボ ゥイ
ミ ネラル
モ ーリー
ヨ ル
ヨ ール
ラ ーム
ラ シア
リ ケ
リ ズ
リ ベ
リ タイ
リ ターン
リ ミックス
レ ク
レ ナ
ロ ーム
ロ ース
ロ イス
ン マー
ヶ 瀬
・ カ
・ ハカイダー
・ トゥ
一 徹
一 騎
七 宝
三 郷
上 皮
上 がら
下 す
下 る
下 館
不 服
不 通
世 襲
両 局
両 目
両 駅
並 河
中 宮
中 谷
中 道
中 つ国
主 君
主 軸
乙 飛
乳 液
些 細
亜 鉛
人 脈
今 年
今 週
付 す
伝 送
伴 わ
伺 える
伽 羅
位 数
何 事
余 剰
作 風
使 徒
保 養
信 任
信 彦
修 得
側 室
優 し
優 作
先 立っ
入 庫
公 達
内 定
円 谷
再 選
写 し
刀 剣
分 館
初 佳
別 人
動 かし
化 身
北 朝
千 光寺
南 京
南 南
占 拠
印 旛
原 紙
厳 格
取 ろう
句 麗
只 見
可 児
含 有
和 文
哲 也
喪 主
嘉 穂
嘉 靖
回 生
団 結
固 める
国 々
国 人
土 屋
地 主
地 層
城 南
基 山
堀 留
場 内
声 楽
外 す
外 傷
夢 見
大 神
大 祭
大 連
大 隈
大 五郎
天 和
天 理
太 い
太 く
太 鼓
奪 還
好 調
子 分
学 歴
官 公
宝 字
宝 物
宝 石
実 数
実 権
客 演
宰 府
宴 会
宿 禰
寄 席
寄 附
富 良
富 裕
寒 川
寺 家
小 口
小 麦
小 早川
居 る
屋 内
属 さ
山 名
山 線
山 鹿
岳 彦
岸 田
川 辺
巡 っ
巡 航
巣 穴
帰 属
平 時
平 陽
年 長
座 り
廊 下
強 要
強 風
後 円
後 進
御 座
徳 間
心 筋
志 し
志 内
性 交
恋 心
悩 ん
悪 意
戦 中
手 塚
手 帳
手 作り
手 すり
投 げる
抗 原
折 り返す
捨 てる
採 っ
採 り
探 求
提 起
援 軍
搬 入
摂 社
撃 た
撤 回
操 ら
擬 人
救 っ
救 護
救 難
数 千
整 え
敷 か
文 政
文 春
新 年
新 鋭
日 刊
日 高
旧 姓
星 間
普 遍
暴 動
曳 索
曳 野
月 形
朝 夕
木 戸
本 家
本 能
李 雲
条 項
東 証
東 浜町
松 前
柳 田
栄 誉
栗 東
極 度
極 秘
歌 わ
歌 曲
歌 志内
正 書
気 仙
気 配
気 付い
気 付か
水 俣
水 口
水 銀
永 谷
汚 物
没 収
没 する
法 制
泣 い
泥 棒
洗 濯
浜 村
海 苔
消 息
液 漏れ
深 溝
清 盛
測 度
湖 畔
滝 野川
漂 流
漂 着
漏 らし
漢 文
澄 子
澤 田
激 化
無 蓋
爆 雷
牧 野
特 訓
狙 撃
甘 楽
産 む
用 量
田 川
田 積
甲 冑
申 出
界 面
異 教
異 方
疑 わ
病 棟
発 想
発 端
登 り
白 井
白 人
白 山
白 鳥
白 黒
皇 太后
目 録
目 立っ
省 三
県 境
真 紀
眺 め
着 目
知 覚
短 調
石 材
石 津
磨 き
礼 拝
神 女
祭 礼
祭 神
福 原
秀 樹
移 民
税 制
空 い
立 証
筑 摩
箱 館
築 か
粘 着
粘 膜
紅 茶
納 税
細 島
終 始
終 わら
組 長
統 率
続 投
線 内
線 香
繋 ぐ
羅 紗
羽 曳野
翔 太
耕 作
聞 かさ
職 場
背 負っ
胞 子
脱 獄
脱 穀
航 洋
艦 首
良 子
花 園
花 澤
若 桜
英 数
草 子
落 雷
葉 山
蒲 田
薔 薇
藤 村
藤 林
融 解
血 圧
行 違い
術 師
街 区
被 弾
装 薬
裏 面
裕 福
裕 香
製 法
製 菓
西 原
西 尾
見 かける
視 野
親 和
許 す
試 し
語 彙
語 群
請 願
譲 っ
護 身
豪 快
財 界
赤 点
赴 く
足 し
跳 ね
軍 備
転 位
転 居
輝 き
農 耕
返 却
逃 れる
通 町
通 航
速 やか
遊 ぶ
過 失
過 酷
道 徳
達 也
遠 江
郡 内
部 会
郷 村
金 髪
銃 口
銚 子
鎌 ケ谷
長 津田
門 人
開 国
間 柄
闘 う
阿 佐
阿 漕
院 内
陥 り
陰 性
陶 芸
隆 盛
随 所
隼 人
雅 彦
雇 い
雑 役
電 報
面 白い
預 金
預 かり
領 事
領 空
頼 ま
頼 ん
風 土
飛 地
飛 躍
飾 ら
香 織
香 菜
駐 留
騒 ぎ
高 句麗
鹿 本
麻 子
黒 字
から くり
10 6
18 1
18 2
18 46
ティ ム
ティ ラ
ショ ク
in i
in k
15 3
15 9
ファ ス
ファ リス
なく し
en a
ロー リング
プロ ペラ
プロ パティ
30 9
ar i
ar ius
or ge
おい しい
受け 取る
サー ベル
フィ ネッティ
ジャ ーク
サイ ユ
チャ ント
チャ イズ
ルー マニア
el ess
クラ シ
ol e
ジョ ル
取り 込ん
スペ リア
フェ スタ
コー スト
サン ブル
ニュー ロン
ニュー メキシコ
アイ ナ
アイ ディア
50 1
re p
フラン チャイ
フラン チャイズ
IC MP
ダイ ハツ
引き 受ける
引き 取っ
クロ ム
クロ ック
スク ウェア
am s
持ち 込ま
il a
タン カー
ブラ スト
et y
カル ボ
マイ ズ
バイ オリン
ヴィ ッチ
プラ トン
ing er
トラ ベル
AN B
AN CE
60 1
ポン ポン
トリ ガー
St re
St ri
乗り 越え
乗り 継ぎ
ヴェ スペリア
38 0
ST V
ST AND
ST IVAL
em ber
ハー ベスト
バン コク
オリ ックス
リオ デジャネイロ
ファン ネル
ad er
一人 娘
クリ ック
スカ パー
スティ ン
らか い
はじ まる
ナン パ
ビア デス
Ch ina
Ch ild
46 4
ユー ラシア
ジャン ヌ
ラル ド
トラン ク
トラン パス
トー タル
バラ ード
いい ち
打ち 出し
ov a
クレ ア
ak u
富士 川
グレ ナ
ニッ ケル
CO MP
ドラゴン ズ
ind igo
AK I
シャン カール
パラ シュート
ian a
ist a
Re volution
Re NY
PS D
SH I
フラ グメント
RE E
ピック アップ
いち ろう
モー ツァ
ill a
CH O
eb ook
ドライ ビング
av en
ハウス ドルフ
コロ ラド
ガイ ア
トレ イン
フロ ア
ネー ミング
ギル ハカイダー
クライ マックス
pr ess
たま に
教え 子
MO OD
結び つい
飛び 出し
デュ ッセル
ッター ハイム
Bl ood
コレ クタ
land s
スマ ホ
春日 野
メル バ
Sp ace
モノ クロ
ドリ ル
ヘル ツェ
パッ シブ
サム イ
ED ITION
De ar
グレイ シー
割り 当てる
エー テル
yn a
En gl
ハンド ボール
重ね る
ber t
トレー ラー
駆け つけ
ケイ 素
ホイ ッグ
ウィル クス
働き かけ
He in
He art
ネイ サン
AND AL
Pa ul
ガイド ブック
ディレ クトリ
マニ ラ
Gu inea
ヨー カ
プロト タイプ
IB M
pher e
トマ ホーク
str um
CR OSS
att ice
Japan ese
アセ チル
ジャス ダック
スロー ガン
加賀 田
マド リード
FE STIVAL
アレクサンド ル
LT D
レジ デンス
天平 宝字
わが まま
クランク シャフト
うつ 病
尽く し
ギブ ソン
ポニー テール
ミカ エル
クリー ク
GY PS
ww w
ボリ ビア
Dav id
SQ L
メリー ランド
Ass ociation
DIS C
振り返 っ
切り離 さ
num ber
汲み 取り
ミッチ ェル
インフォ メーション
シュトゥ ッターハイム
ASS Y
クリスト ファー
Academ y
十和田 湖
angu age
インテリ ジェンス
Bill board
Io T
Roy al
ゲオル ク
フッ 化
ストリング ス
アルキ ビアデス
ミノル タ
メレン ゲ
アルメ ニア
Transm ission
Beg onia
IFR S
WOW OW
オックス フォード
ジャク ソン
チャオ プラ
Orz abal
こんにち は
コンペティ ション
Happ y
Jür g
クブラ ト
富良 野
デュッセル ドルフ
ヘルツェ ゴ
2 12
2 11
2 21
3 14
7 62
8 70
8 80
A t
A re
A ST
B a
C W
C X
C r
C al
C ir
C ity
E v
E MI
F rag
G ro
G am
G od
G SG
H a
H ot
H AM
H ow
I Q
I v
J UN
K AD
M IS
M il
M AT
M ass
N ic
N ational
N FL
P K
P M
P v
P AR
P ur
P LAN
P ons
R em
R CC
R ock
R KB
S an
T M
T ex
T AKU
T AYA
V ir
V HS
W ER
X F
Y our
Y ah
Y ear
Z A
Z e
b ar
c ore
c orr
e in
f ol
g an
i N
j o
k es
l im
m o
m or
m ix
n s
s m
s ospeso
t ain
u i
u le
w ill
y t
z u
} }
ã o
í a
あ げる
あ がり
あ ちこ
い の
い えき
う っ
お んな
が たり
き よ
ぎ ん
ぐ っ
し る
す ご
す し
た に
だ れ
ち か
と れる
な せ
ね ずみ
は せ
ば る
ば れ
ぱ ん
ひ た
ひ ゃっ
ふ らわ
ぶ ま
ま ゆ
も る
よ ん
る い
ア マン
ア クロス
イ ナ
エ アー
エ ーター
エ チル
エ ニックス
オ シ
オ ・
カ サ
カ ミー
カ スティー
カ シアス
ガ ルト
キ ラー
ク ォ
ク レー
グ ァ
グ ノー
グ ライダー
ケ ツ
ケ ルト
ケ チャップ
コ ッ
コ パ
コ ラー
コ ロシア
コ コロ
コ ノミ
ゴ ンドラ
サ ガ
サ テ
サ ポーター
シ ーク
シ トラス
ジ ーク
ス パル
ス ベルグ
ス プリント
セ ネ
セ ブ
セ クシー
タ モリ
チ キ
チ ウム
チ ベット
ッ シング
ツ ボ
テ ネ
ド レス
ド レイン
ナ ール
ニ カイ
ネ パール
ノ ア
ノ リ
ハ ング
ハ ノー
ハ ドソン
バ ラン
バ レン
パ トロール
ヒ ップ
ヒ ッタイ
ビ ナ
ピ ラー
ベ ジ
ベ リ
ペ イント
ペ プチ
ペ デスト
ホ リエ
ボ レス
ポ ロ
マ ヤ
マ キシ
マ リーン
マ キア
マ ドール
マ レンヌ
ミ ズ
ミ ッ
ム スク
ム ハンマド
メ サ
メ スト
メ ート
モ リー
ラ ナ
ラ ピ
ラ クタ
リ ・
リ ップ
リ サイ
ル プ
ル ル
ル ビー
レ ッジ
ロ レン
ロ ジャー
ワ ニ
ワ ール
ワ ース
ン サー
一 子
一 端
一 筋
一 行
七 夕
三 條
上 石津
下 向
下 呂
下 目
下 限
不 滅
中 井
中 庭
中 里
中 高
丸 太
乃 木
久 居
久 美子
乱 数
五 条
交 感
京 極
人 情
仁 鶴
今 市
付 さ
付 し
代 位
代 金
仮 装
任 那
休 演
休 館
伝 導
低 床
余 地
作 ろう
使 者
供 さ
依 然
侯 爵
係 留
保 ち
信 販
停 電
優 れる
元 祖
児 玉
入 札
入 港
全 角
共 学
円 唇
円 楽
再 戦
再 構
冷 蔵
出 勤
出 水
分 国
分 署
利 害
前 編
前 衛
前 輪
剥 離
助 演
労 務
北 町
千 歳
卑 劣
協 調
南 丹
南 光
南 国
原 点
原 爆
厳 原
去 ら
参 勤
参 道
及 ば
反 響
収 監
叔 母
取 次
取 消
叙 事
口 上
口 語
古 事
古 来
司 る
吉 備
同 上
同 誌
同 軸
君 臨
否 認
呈 する
呑 み
周 顗
和 音
咎 め
商 法
商 用
営 団
嗜 好
嘆 願
囃 子
国 政
圧 迫
在 庫
地 質
坂 井
城 北
堀 金
報 知
増 田
壁 画
士 林
売 っ
外 周
大 差
大 敗
大 空
大 館
太 公
夫 差
失 踪
奈 美
奪 取
好 感
嫡 流
学 芸
孫 子
宅 配
宇 部
宗 像
官 庁
官 舎
宝 飾
実 地
実 情
実 物
宮 中
寄 る
対 地
対 外
対 艦
小 数
小 栗
小 此
小 郡
少 額
就 学
居 酒屋
履 帯
岩 野
工 大
工 法
左 京
巨 額
布 告
帝 位
常 陽
年 下
年 内
年 号
年 月
幸 村
幼 なじみ
広 隆
座 位
建 つ
引 火
当 り
往 時
征 討
待 遇
後 楽
後 編
御 厨
応 永
念 願
思 惑
急 逝
恭 介
悪 役
悪 用
惨 敗
愛 染
慰 霊
戦 わ
戸 惑
抱 か
拍 子
招 集
拠 れ
指 輪
挑 ん
挽 き
捕 物
捕 鯨
掛 かっ
掛 かり
探 査
提 言
換 算
握 る
撒 き
撤 収
教 学
教 官
教 派
散 っ
敬 愛
敵 機
文 系
断 ら
断 続
新 庄
新 疆
新 見
新 館
方 位
施 錠
日 暮
日 替わり
旺 盛
明 星
映 し
服 役
朗 読
望 月
木 野
本 庁
杉 原
杉 本
村 域
来 航
東 名
東 ドイツ
松 下
松 代
松 坂
松 浦
板 野
林 家
柳 ヶ瀬
桑 田
桜 台
梅 林
梅 鉢
梱 包
森 川
椎 津
模 倣
模 索
横 田
橙 色
機 内
橿 原
櫻 井
止 まら
武 闘
歩 み
段 差
殿 中
水 軍
求 刑
河 和
法 科
泥 遊び
注 ぐ
洋 一
津 川
流 路
浅 越
海 原
海 沼
消 耗
深 谷
清 和
清 国
清 楚
清 武
済 ま
減 る
渡 船
湯 沢
湾 曲
満 期
満 載
滅 ぼす
滝 原
漁 業
漁 港
漏 洩
潜 在
澱 粉
激 励
濃 く
濱 田
災 い
無 期
無 菌
焼 い
特 製
犬 山
狙 わ
独 裁
独 身
狭 隘
猪 苗代
生 後
生 麦
用 水
町 立
画 質
畠 山
異 色
異 議
発 振
白 紙
白 銀
百 科
直 ぐ
相 沢
省 令
真 珠
眼 筋
着 物
矢 口
破 片
祝 い
神 官
神 山
神 明
神 職
福 本
秀 夫
秒 間
秘 匿
移 す
稲 葉
空 洞
空 白
窒 化
立 派
立 花
笑 劇
等 しく
答 える
策 略
粘 性
粟 国
納 付
納 品
納 得
紫 陽
終 末
結 核
結 界
給 油
継 体
継 電
綴 り
編 著
緩 急
繋 い
美 作
群 島
義 弘
翁 島
翻 弄
老 婆
耕 地
聖 地
聖 者
肝 付
育 つ
自 我
舎 弟
良 平
花 壇
苗 字
若 林
若 頭
苦 情
苦 しめ
荒 廃
菅 生
菊 地
葉 書
著 しい
葛 城
蔵 書
薙 刀
蜂 起
血 中
血 性
血 清
行 徳
装 輪
裏 側
裾 野
要 約
要 衝
見 受け
誠 実
説 く
謹 慎
議 定
谷 戸
谷 村
豚 肉
貞 観
賞 賛
赤 城
赤 羽
赤 ちゃん
越 す
踏 ん
転 戦
載 っ
農 学
辺 境
辿 り
追 浜
退 官
送 還
通 告
連 射
連 用
連 なる
進 ま
過 激
違 和
邦 題
部 署
都 留
配 偶
酪 農
里 子
里 見
重 油
野 党
野 郎
金 八
金 剛
金 斗
金 星
金 賞
金 持ち
鉄 骨
鉾 田
銀 色
鋳 鉄
開 講
防 犯
阿 久
陳 情
隣 り
雌 雄
難 い
難 航
電 位
青 空
静 脈
面 接
頭 取
頴 娃
顕 微
食 肉
首 長
香 芝
駅 伝
驚 く
高 師
髪 の毛
鮮 やか
鳩 間
鳴 る
鳴 らす
麻 呂
黒 子
20 9
イン テル
イン トロ
18 18
18 35
18 47
でき れ
ライ ツ
ライ ザー
in ce
コン サ
バー ズ
en ge
プロ トン
or us
シャ ッター
タイ タン
17 7
17 9
キャ スク
キャ ベツ
フィ ット
ジャ ム
ジャ ッジ
マン ハッ
14 3
at o
at ch
ラー レン
スタ シー
ルー ズ
シュ ガー
エン ブレム
24 5
24 8
スター リング
パー ソン
ジョ イ
ジョ ブ
ジョ ニー
ジョ ースター
ドラ コ
なお かつ
取り 込ま
フォ ト
フォ ール
オー シャン
オー ディオ
26 2
スペ ンサー
フェ ス
コー ネ
サン ス
アン デル
アン ソロ
アン ソニー
アン サンブル
st d
st i
st and
アー ツ
アー ノ
プレ ハブ
ion e
アニ ソン
ch lor
モン マス
ダイ エー
ダイ ダロス
引き 出し
引き 出す
シア ・
付け 替え
ポー タ
コミ カル
40 6
IS P
ウィ ズ
グラ フィー
持ち 上げ
il is
ブラ スター
シン デ
シン フォ
and er
シングル ス
トラ ルファ
om o
テン ポ
ed ited
St an
St enz
さん ふらわ
キング ス
ワー ナー
IN AL
カン ナム
組み 合わさ
ot er
Th arp
シェ フ
AT S
um e
um p
um en
タイプ ライター
ir eless
オリ ニスト
In strum
ベン ジ
ベン ガル
ちゃ っ
生き 延び
AM D
AM I
クリ ティ
スカ ラ
パス カル
はじ める
EN D
36 5
キャン ディ
キャン バー
og e
思い 出し
思い 込ん
ちゃん と
スキー ヤー
ダル ク
ダル マ
OS AKA
クレ ーム
ストラ クター
ak er
グレ イン
たっ た
リティ ー
パラ ジウム
ウェー ブ
ian o
ねじ れ
LE AG
57 2
SH IB
呼び 出さ
フォー ミュ
ab y
フラ ワー
ヴォ イ
追い かけ
追い 込ん
RE BORN
作り 出し
アレ ッポ
ヤマ ログ
グル コース
メイ ベル
av e
サラ ワク
宇治 田原
つく っ
Sh ell
インタ ラク
無く なり
qu es
結び 目
ip es
ob ile
Bl ue
パル マ
ボス ニア・
支払 っ
マスター ズ
春日 部
マリア ナ
相模 湖
埋め 込ま
KO H
和歌 子
wit ch
コル ネ
マリ オン
たか お
ang er
セイ フ
グレイ ハウンド
チュー ニング
コーラ ボト
アーティ ファクト
クリア ー
スライ ド
la w
Con trol
おこ なう
差し 替え
ber g
ドラム ス
セミ ファイナル
盛り 込ん
MT U
iz ard
おも に
900 1
bo ok
メカ トロ
メカ ニック
OK AWA
Ver lag
エク ソン
エク スタシー
Ph il
イエ メン
セレ モニー
ジェイ ムズ
エディ ン
MG B
エッ チャント
スリ ランカ
フー ズ
IB F
ジェーム ス
イースト ウッド
アジ ール
インディ アナ
エンター プライ
マク ラーレン
CE O
マルコ フ
ポスト ハーベスト
立た さ
かぶ っ
ラーズ ジャパン
レディ ース
馴染 み
QU AKE
サンタ フェ
サンタ マリア
ライブラ リー
っぱ い
オカ ルト
帯び る
IM AP
レジ ス
フィリップ ス
JAL C
ラバ ウル
アバ ガ
ストック ホルム
Off ice
モロ コシ
襲い かかる
NC AA
カジ ミェシュ
カウント ダウン
尽く す
相応 しい
サプライ ズ
oid es
cap ability
コング スベルグ
ジャイアン ツ
MEGA QUAKE
VV V
グレゴ リー
Prot ocol
スネ ーク
Cor por
下ろ さ
オーガ ニック
ペンタ ックス
のぞ き
ノウ ハウ
エレクトロ ニクス
can to
タツ ミ
Orch estra
bur g
Publ ish
エナ ジー
スプリン ガー
ダッ フィー
409 15
tetsu ya
ひど く
コータ レン
Media GX
cam in
カセ グレン
Bus iness
GRO UP
オセ アニア
スプラ ッシュ
ファブリ ツィオ
ミュン ヘン
Deb ut
ボロー ニャ
レジスタ ンス
恐ろ しい
等々 力
エルサ レム
トロリー バス
LPG A
NOT TV
Ti ara
TSU TAYA
Lact arius
アッカ ド
エポ ック
スイー ツ
デストロ イヤー
リタイ ア
官公 庁
モーツァ ルト
Engl ish
GYPS IES
ヘルツェゴ ビナ
KAD OKAWA
Yah oo
あちこ ち
コロシア ム
サテ ライト
テネ シー
ニカイ ア
ヒッタイ ト
ペデスト リアン
ボレス ワフ
ロレン ソ
小此 木
紫陽 花
マンハッ タン
アンソロ ジー
トラルファ マドール
Stenz l
さんふらわ あ
Tharp yna
Instrum ental
LEAG UE
インタラク ティブ
ボスニア・ ヘルツェゴビナ
コーラボト ラーズジャパン
3 22
4 10
4 15
4 26
5 22
5 28
5 70
7 30
= "
A W
A ward
B el
B ol
B ra
B ut
B LU
B eat
C HE
C IA
C ult
D N
D P
D u
D EC
D ov
D ie
E MD
F AN
F UN
G L
G a
G BS
G ard
H H
H aj
I VE
I TV
J K
J S
J OK
J ose
L C
L il
L im
L ET
L ast
M r
M ET
M AG
M BA
M SC
M ail
N ov
N ACK
O h
O k
O ly
O VER
P le
P AT
P op
R n
R IS
R un
R os
S n
S w
S BS
S id
S un
S ub
T T
T AKA
T orr
U RE
U HF
V s
V ocal
W N
W AR
W ireless
X box
Y ork
b at
c u
c or
d B
e um
f e
f ession
h am
i i
i et
k ey
m er
m essage
n y
s l
t re
t ec
u z
u ch
w as
ä r
а р
т о
ا ل
あ しら
い で
お およそ
か や
き ちん
く し
く ろし
ぐ ら
こ ぎ
こ め
し っ
し な
し む
し める
じ ろう
そ ー
た な
つ ぼ
つ まみ
と ろ
と なり
な ご
に ゅう
ね ぇ
の き
の っ
は み
は まか
び わ
ほ たる
ぽ ん
ま ろ
ま くっ
み か
や わ
ゆ か
よ かっ
り え
り 物
わ き
ん 中
ん 坊
ア デ
ア セン
ア スキー
ア ネックス
ア ヴァール
ウ スト
ウ エイト
エ マ
エ リュ
オ ベ
カ ニ
カ ノ
カ ビ
ガ レット
キ ナ
キ ッズ
ギ ニア
ク ィ
グ グ
グ チ
グ マ
グ ・
グ リン
ケ ラ
ケ ビン
コ ブ
コ ラ
コ ルト
コ メン
コ モリ
サ シ
サ ーム
サ ディ
サ カキ
シ ズ
ジ ロ
ジ ーター
ス モ
ス ニー
ス レッド
ス ナイ
ズ レ
セ ク
セ ダン
セ グメント
ソ ート
ソ ルト
ゾ リン
タ ゴ
タ ヌ
タ ニア
ダ グラス
ダ マスカ
チ ビ
ッ ピ
テ ラー
テ ージ
テ ナー
デ ト
デ ント
デ リカ
デ フォル
デ メリット
ナ ース
ナ ポリ
ニ アー
ニ チン
ネ バー
ハ サ
ハ ヤ
ハ ール
ハ ヤシ
バ オ
バ テ
バ ド
バ ックス
パ レット
ヒ デ
ヒ ン
ヒ スパ
ビ クター
ビ ーンズ
ピ カ
ピ ザ
フ ラー
フ ライト
ブ ート
ブ レス
ヘ ヴィ
ペ ラー
ペ ルー
ボ ヘ
ポ ケ
ポ テン
マ ギー
マ ズル
ミ リオン
ミ ズー
メ ラン
メ ーター
モ ットー
ヨ ロイ
リ フ
リ ボ
リ マン
リ ピン
リ ビア
リ バイバル
リ チウム
ル ポ
レ ・
レ アル
ロ ニ
ロ ケーション
ヶ 条
・ バ
・ ロ
一 命
一 新
万 人
万 能
三 沢
上 っ
上 町
上 皇
上 がれ
下 京
下 地
下 痢
下 野
下 がっ
下 さい
不 法
両 編
両 足
中 和
中 略
丸 亀
久 し
久 下
久 之
之 城
乏 しい
乗 じ
乱 用
争 っ
事 変
二 本松
五 男
井 戸
交 じり
人 力
今 野
仏 閣
仕 入れ
仕 切る
休 息
低 かっ
余 市
作 並
佩 用
併 記
使 役
依 拠
促 し
俊 平
倒 せ
倣 っ
偽 装
催 奇
傷 つけ
儒 学
償 い
優 性
光 沢
光 電
入 間
全 盛
全 英
全 裸
全 話
全 高
八 丈
公 儀
公 示
共 々
共 感
兵 員
兵 装
円 盤
円 筒
凄 まじ
准 将
出 兵
出 島
刃 物
分 枝
分 流
切 替
列 強
別 個
別 当
利 夫
刷 新
剣 客
創 出
加 圧
加 減
劣 ら
劣 化
励 まし
労 連
動 け
動 揺
勝 敗
北 極
区 切ら
十 條
半 径
半 角
南 信
南 アルプス
危 ぶま
厚 木
原 村
厳 重
双 葉
受 理
受 益
受 給
叙 任
口 頭
古 巣
台 所
台 枠
史 記
叶 える
号 俸
号 数
各 務
吉 宗
吉 祥
同 化
同 好
同 県
同 調
名 曲
向 ける
和 夫
和 賀
哲 郎
唐 津
商 工業
喚 起
喜 ん
嗣 子
囚 われ
四 方
四 條
因 縁
困 惑
国 定
園 田
坂 下
埋 立
埠 頭
執 着
堀 切
塗 料
塩 津
士 別
士 気
壮 大
声 問
壱 岐
売 春
変 則
多 田
夜 野
大 便
大 帝
大 木
大 槻
大 海
大 雨
天 尾
天 武
天 津
如 何
妖 魔
妥 当
妻 子
嫌 気
宇 多野
安 い
官 民
官 邸
定 式
定 説
宝 永
宝 さがし
実 父
客 員
宮 川
宮 之城
家 中
容 赦
宿 場
寛 治
対 義
専 任
導 い
小 串
局 長
届 い
屋 代
岡 野
川 田
州 都
巨 匠
巫 女
希 子
常 盤
年 々
幸 町
店 員
廃 部
延 宝
弁 済
弁 論
式 内
式 場
弱 者
役 立つ
待 つ
後 見
後 頭
従 わ
従 属
御 津
徴 候
徴 兵
心 地
心 情
忠 義
怒 っ
思 案
愛 さ
態 勢
慕 わ
慣 性
憎 悪
憑 依
懇 願
懲 戒
我 孫子
戦 乱
戦 果
戦 機
所 定
手 旗
手 柄
手 入れ
打 診
押 収
拓 郎
拮 抗
振 っ
振 付
排 尿
接 着
掴 み
撮 っ
放 物
放 課
教 職
敬 之
数 える
整 っ
文 武
文 脈
断 ち
新 世
新 宮
新 種
方 臘
旋 律
日 出
日 没
日 帰り
旧 社
旧 約
昇 叙
明 晰
時 速
晴 一
晶 子
暗 刻
書 庫
書 式
書 道
曹 洞
曾 孫
最 良
月 夜野
有 意
期 成
木 製
未 明
末 広
末 梢
本 島
本 性
本 機
本 法
本 番
村 井
村 人
村 田
東 横
東 金
枢 密
査 察
根 源
格 段
桂 台
検 事
榊 原
権 現
橋 立
機 嫌
武 芸
死 因
残 党
残 念
殖 産
殲 滅
気 づい
水 色
江 守
沙 汰
法 師
法 度
注 記
洋 子
派 閥
浅 田
浜 坂
海 老
消 毒
淡 黄
混 沌
清 朝
渓 谷
減 量
減 額
減 らす
渡 河
渡 米
渥 美
温 和
源 泉
溶 かし
滅 多
漁 師
激 戦
濃 縮
炭 礦
無 力
無 尽
無 敵
無 色
熱 狂
爆 沈
特 大
特 捜
特 派
特 種
特 進
独 り
王 女
生 い
生 む
産 交
産 物
略 さ
略 号
疫 病
病 状
癒 し
発 刊
発 酵
登 っ
登 攀
登 里
皇 位
皇 室
直 盛
真 上
真 人
真 言
真 ん中
瞬 時
短 波
石 室
石 棺
砲 艦
破 ら
硬 い
磁 場
社 債
社 屋
社 殿
神 将
神 楽
禁 忌
福 建
私 市
稼 ぐ
立 像
立 教
算 数
節 税
節 約
篠 ノ井
素 手
素 顔
素 早い
経 つ
絞 っ
絡 ん
絵 図
絵 葉書
総 評
総 当たり
線 区
編 み
緩 衝
緯 度
罹 患
美 佐
美 保
美 津
美 香
美 智子
美 登里
群 衆
羽 後
翔 鶴
聴 き
肉 食
脅 かす
脇 坂
腋 窩
腎 臓
腐 敗
膀 胱
臨 む
臨 界
自 粛
致 死
興 産
舞 子
船 場
船 津
艦 内
色 素
花 弁
花 言葉
若 く
若 尾
若 葉
苦 痛
苦 しん
英 知
英 訳
茂 田
茅 野
茶 室
草 津
荊 州
華 やか
菱 川
著 述
葛 藤
蒸 留
蘇 我
虞 仲
蛭 子
被 服
被 爆
被 疑
裁 量
補 う
補 習
製 鉄
西 京
西 友
見 立て
見 なす
見 返り
見 逃し
規 律
規 約
視 察
視 認
角 田
解 い
解 像
解 錠
解 雇
解 離
試 行
誌 面
誓 い
語 頭
読 ま
調 音
論 点
諮 問
諸 葛
講 じ
谷 町
谷 間
豊 中
豊 浦
豪 将
豪 邸
財 布
貧 困
貯 め
貸 金
費 やし
貼 っ
賢 一
赤 井
赤 木
赤 ん坊
足 場
足 跡
踊 る
蹴 っ
転 移
軽 油
輝 度
辞 め
返 事
退 却
送 球
途 切れ
逝 去
造 詣
連 日
連 銭
進 捗
遂 げる
遊 歩
過 大
遠 山
遠 州
遮 蔽
遺 言
郡 司
部 落
都 子
都 賀
重 心
重 なり
野 手
野 良
針 葉
鎖 鎌
鏡 島
長 老
長 靴
長 髪
開 園
開 祖
開 ける
間 奏
関 越
闘 術
防 弾
阿 南
阿 武
降 雨
除 か
隣 国
雅 功
集 電
雑 音
離 島
電 信
電 荷
霊 力
面 する
音 色
項 羽
須 藤
頼 っ
額 田
風 味
風 圧
風 林
風 速
飛 騨
食 味
養 蚕
騒 擾
驚 き
麻 田
黄 門
黎 明
黒 く
黒 門
黒 髪
龍 神
20 22
リー ディング
イン ダスト
もの がたり
スト ロー
er ing
er gy
18 00
18 42
ディ ック
ディ ナー
ディ オン
ライ ク
ライ ガー
an e
15 92
コン セント
コン タクト
ファ ラ
ファ ウスト
バー ミング
ロー ラン
バス ターズ
プロ グレ
アル カ
アル テ
アル スター
アル テン
アル ジェリア
30 1
30 6
16 1
16 7
16 9
16 30
ar u
or s
シャ ア
シャ ス
シャ シー
受け 取っ
ステ ッド
ステ ッキ
17 4
17 8
17 30
フィ ッシュ
ジャ ガイ
ジャ コウ
al d
マン チェスター
14 2
25 6
ラー ゼ
レイ ベル
シュ レー
エン カ
エン ヤ
エン ペラー
el a
el ect
is a
is ual
取り 外し
22 2
フォ レスト
レン ガ
レン チ
26 4
26 5
26 6
26 7
26 9
23 1
スペ ック
コー マン
コー ディング
サン プ
サン スポ
アイ ゼン
st ream
なが わ
50 5
フラン シス
いっ しょ
th y
le g
ダイ ビング
引き 寄せ
クロ ノ
クロ ード
まり な
こう いち
システム ズ
am an
ウィ ザード
グラ ード
持ち 込ん
il m
et er
スー ザン
カル ロス
シン キ
ヴィ オラ
デン ブルク
トラ ップ
パン フレット
テン プル
St ream
ビル ディング
乗り 込ん
id ay
US EN
エル タ
IN C
プレイ オフ
ON D
ハイ マー
ハイ テク
マル タ
ec ot
ハー プ
ag o
ag on
ボー イズ
ひと み
ir th
ter s
立ち 上がり
アップ ロード
AL K
ut sch
やす み
OC AL
フリー ト
メロ ドラマ
くる み
大和 高田
ミュー ザ
44 4
ワーク ショップ
キャン ベル
もと より
イタ リアン
バラ ク
ell ig
かい どう
シル ク
チュ ウ
ノー ザン
エア ゾル
アド マイヤ
チン ギス
バック アップ
kg f
PC B
LE S
Re b
ペン ギン
ニュ ート
ドー ピング
ub er
モー ラ
eb a
SS L
巻き 付け
落ち 着い
if ic
if ication
ケー プ
メッ キ
サラ ミ
ゴル ゴ
読み 取り
978 48
Pro du
フロ ート
Sh e
言い 渡し
デジ モン
トゥ ー
もら える
あい だ
デュ オ
ソナ タ
ひろ み
ゆう ばり
いき もの
SU V
スマ トラ
投げ つけ
メル ケル
ash i
アウト レット
モノ レール
Pr olog
モーター ボート
ヤン キー
コス モス
ヘル マン
Mus eum
テイ オー
テイ メント
Cl ip
con f
トウ モロコシ
降り る
DE AD
コンパクト ハウスドルフ
ヒュー ズ
yn am
ex p
sp l
SC ANDAL
az ine
見つ め
SO UND
トレー ナー
スイッチ バック
マッ サージ
五十 崎
ep t
引っ 張り
ハリ ソン
ond a
Or der
SE AMO
ブー メラン
ウー マン
MG C
エンド ウ
Ad v
フー リエ
めい じ
振る う
アーム ストロング
ガウ ザー
CR S
aw a
ヴァイ オリニスト
Ge orge
ock s
CT C
でん しゃ
クルー ザー
コット レル
カスタ マイズ
NET CON
GIR L
てい りゅう
ガリ ウム
JU MP
かね て
ストリ ップ
ジェン ダー
ふじ た
返り 討ち
Gre en
Gre at
ミラ ノ
Af ter
For ce
Mo oter
Man ual
Val ley
りか ご
ジョチ ウルス
サウ ジア
嵯峨 野
Rob ot
オキシ リピン
ッディ ーン
見積 もり
anc ed
テュー ダー
リアー ノ
リウス ・
form ation
Fran k
オク サ
ヤク ザ
スギ ナ
フュー チャー
リッシュ モン
タム ロン
フロン ティア
苦し む
インジェ クション
ヴィト シャ
SN CM
met e
オマ ハ
Class ic
下ろ す
Net work
タバ コ
メソ ッド
すす め
モント リオール
fun ction
sy nd
þri ð
浮か び
カザフ スタン
Je an
Anal ys
Hist ory
Liv ing
ロイト ナント
ウィンド ウ
Pan ama
素晴 らしい
Aut om
dra um
伸ば す
ひい ては
アベ ニュー
パワ フル
推し 進め
シャク ティ
"、 "
下北 沢
岩見 沢
Fac ebook
hot aru
おに ぎり
おは よう
サング ラス
ドレッ シング
リベ ラル
フランチャイ ジー
グレナ デン
MOOD YZ
TAKU YA
ひた すら
カスティー リャ
シーク レット
スパル タ
ペプチ ド
マリーン ズ
マキア レイベル
リサイ タル
乃木 坂
シンデ レラ
スカラ シップ
フォーミュ ラ
メカトロ ニクス
エディン バラ
VVV F
Dov ecot
Haj ime
JOK ER
Ok ano
Oly mp
きちん と
くろし お
はまか ぜ
スニー カー
ダマスカ ス
デフォル メ
ミズー リ
バーミング ハム
ジャガイ モ
NETCON F
) "
- 「
0 25
2 15
3 20
3 30
4 40
4 38
5 31
5 60
5 35
5 43
6 70
A VE
B Y
B on
B ER
B LO
B ib
B ALL
C I
C OC
C tr
D V
D Y
D om
D HC
D ance
E r
F o
F ab
F ore
G II
G AR
G ov
H W
H ay
H IT
J H
J ul
J ust
K in
K on
K it
K AN
K YO
K ICK
L R
L Z
L og
M is
M OR
M OS
M art
M ix
O ver
O ld
O FF
P B
P ent
P ear
P OW
R F
R M
R V
R a
R iver
S NS
S qu
S oci
S witch
T B
T D
T Y
T ran
T ama
V III
V OCAL
W O
W BA
_ {
b ow
b ash
c er
c ed
c ess
d el
d is
d ell
e u
f u
f an
f re
f ect
g ent
h u
h al
h igh
j i
l on
m al
m il
m ents
m ile
n am
r ica
s ï
s ia
s ur
s op
t op
u ya
w ind
y u
þ air
あ おい
い とう
い たっ
い かん
い しゃ
か ち
か の
か ながわ
が かっ
き し
き ゃ
け っ
こ み
ざ き
し あわせ
せ れ
そ び
た また
つ ま
つ ら
つ ん
つ くる
つ かさ
と び
と れ
と 殺
な ぞ
な れる
に い
に ゃ
ぬ ま
の ぶ
の め
は ぎ
は たら
ひ だ
ぴ っ
ふ な
べ ん
ぺ い
み お
も み
や れ
や ろう
ゆ りかご
よ け
り 出し
り 込ん
わ ざわ
ん ぼ
ア オ
ア ネ
ア ノ
ア バン
ア オイ
ア ッパー
イ ネ
イ ロ
エ コー
エ チレン
オ ア
オ ヤ
オ ールド
カ エ
カ ザン
カ ローラ
ガ ッ
ガ マ
ガ ング
キ ・
キ スカ
キ エフ
ギ ング
ギ ルド
ク マ
ク ン
ク シマ
グ ルー
ケ ベック
コ イ
コ サ
コ ソ
コ スタ
コ ールド
ゴ エ
ゴ ッ
サ リ
サ ラン
サ タン
サ ルーン
サ プレッサー
ザ ック
ジ アン
ス パン
ス ワン
ス イング
ス ムー
ズ ビル
ゼ フ
ゾ ーラ
タ レ
タ ブー
ダ ・
ダ ート
チ アニ
ッ シー
デ ロ
ト ローチ
ド レ
ド クロ
ド ローン
ナ マ
ニ セ
ニ ・
ニ ース
ネ スト
ノ ム
ハ ギ
ハ イツ
ハ ングル
バ サ
バ バ
パ レス
パ ブロ
ヒ ガシ
ビ ゲ
ビ ロク
ピ エ
ピ レ
ピ スト
ピ チュ
ブ リオ
プ ッシュ
ヘ キ
ヘ ックス
ヘ ッジ
ベ タ
ペ ナル
ホ セ
ホ ッパー
ポ ピュ
マ メ
マ ック
マ ローン
ミ ハ
ム ン
ム ゾン
メ ック
モ ツ
モ ネ
モ ドキ
ヤ ギ
ユ ビキ
ラ シ
ラ バー
ラ ビア
ラ チェット
リ ンド
リ ザー
リ ダン
リ ントン
ル ース
レ ジェ
レ ディー
レ クリ
レ ディス
レ フェリー
・ パ
一 変
一 大
一 掃
一 朗
一 杯
一 柳
一 関
七 星
七 瀬
七 飯
万 博
三 ノ
三 池
三 石
三 隅
上 条
上 水
上 洛
上 向き
上 回っ
下 っ
下 付
下 回る
不 況
不 調
与 謝
世 羅
両 市
両 面
中 町
丸 く
丸 井
丸 光
乗 船
乗 艦
乙 姫
乳 酸
乳 首
予 知
予 科
争 奪
二 元
互 角
亡 人
京 セラ
人 文
仕 上がっ
他 界
代 え
休 刊
伝 習
伝 道
伯 父
伸 縮
似 顔
例 年
例 題
侍 従
係 争
俊 明
信 奉
修 羅
修 飾
個 展
個 所
倍 数
倒 れる
倶 利
停 滞
催 さ
優 遇
元 服
先 鋒
克 夫
克 彦
免 職
入 局
入 校
八 坂
公 主
公 理
公 論
共 栄
兼 用
内 宮
内 村
内 燃
内 転
冬 馬
冷 え
冷 気
出 火
出 回っ
分 屯
初 速
利 子
刺 客
刻 み
前 戦
剣 聖
割 賦
創 価
劇 作
力 丸
労 使
効 く
勇 敢
動 弁
募 金
勾 践
北 家
北 島
北 線
北 行
北 秋田
医 院
半 蔵
即 時
原 岩
反 り
取 調
古 山
古 河
古 町
可 汗
台 本
史 実
右 岸
右 折
各 類
合 名
合 図
同 町
名 和
名 家
名 山
名 神
名 越
名 馬
呪 い
和 風
咲 い
哲 夫
問 答
啓 発
善 良
喫 煙
営 林
噛 み
回 顧
因 み
因 果
囲 ん
国 旗
地 先
地 平
地 権
地 番
地 御前
均 衡
城 跡
基 い
基 督
堂 々
堕 落
塩 原
塩 浜
売 ら
変 態
外 れる
多 年
多 度
多 治
多 良
夜 明け
大 兄
大 声
大 夫
大 工
大 映
大 柄
大 樹
大 泊
大 浦
大 腿
大 観
大 門
大 黒
大 通り
天 台
太 師
奇 数
奇 襲
奈 義
奉 公
奔 走
奪 回
字 母
孤 児
宇 野
守 谷
安 心
安 置
宛 て
宝 島
実 弟
実 線
宣 告
宮 田
宰 相
家 光
密 輸
寒 河
寵 愛
対 人
対 子
小 便
小 次郎
居 士
展 覧
属 名
履 行
山 塊
山 岸
山 東
山 根
島 民
嶺 北
川 合
川 面
工 務
工 区
左 目
左 舷
市 域
市 外
帝 政
常 総
常 駐
干 し
平 井
平 屋
平 山
平 生
年 限
床 下
度 数
度 重なる
庶 子
康 平
廃 さ
廃 れ
強 み
強 敵
弾 く
後 免
後 悔
後 身
微 笑
微 細
徳 田
心 肺
心 霊
忍 び
応 力
思 春
恐 慌
悩 む
悪 性
情 け
意 地
感 嘆
感 想
慣 用
慣 行
憎 しみ
懸 け
成 都
我 部
戒 律
或 いは
所 々
扇 谷
手 牌
手 腕
手 袋
手 助け
手 渡し
払 っ
技 研
投 合
折 衷
押 さえ
拍 車
拡 充
持 て
指 南
挟 撃
捕 球
捧 げる
採 算
揺 れる
支 区
改 元
改 易
改 番
攻 勢
攻 防
教 場
散 ら
散 策
文 教
断 層
新 版
新 製
新 進
方 谷
既 製
既 設
日 和
旦 那
旧 式
昇 圧
明 朝
明 神
昏 睡
昨 年
是 非
昼 寝
景 勝
暗 示
有 価
有 吉
有 望
有 様
服 従
望 み
木 内
木 石
未 熟
未 亡人
本 省
本 隊
朱 雀
東 岸
東 灘
東 興
東 都
果 樹
枝 分かれ
栄 光
校 内
校 庭
校 旗
校 章
桃 太郎
棄 権
棋 院
棒 線
棟 梁
植 草
検 収
検 地
検 車
極 限
構 わ
橋 脚
欠 乏
欠 如
欠 かせ
次 兄
止 まる
正 午
死 な
死 闘
残 高
母 子
比 し
気 づく
水 引
水 流
水 爆
水 谷
氷 河
永 享
永 山
永 正
氾 濫
求 婚
汚 れ
汽 車
沈 着
沙 季
河 辺
泉 町
法 縁
注 い
洗 剤
洗 練
洗 足
津 幡
流 線
流 量
浅 い
浅 間
浅 香
浮 舟
浮 遊
浮 かん
消 臭
液 化
深 井
深 める
減 らし
渡 月
港 内
港 北
港 町
準 ずる
溜 まり
溢 れる
滅 ぼさ
漢 方
潮 流
濃 厚
濫 用
火 星
炎 魔
点 滅
父 子
爽 やか
牛 乳
牽 制
猿 橋
王 家
王 寺
現 し
現 す
現 われ
球 体
理 子
瑞 穂
生 業
生 田
生 食
田 島
田 邊
田 野
町 民
略 する
疲 弊
症 例
発 情
白 兎
盃 口
盗 ん
盗 難
監 察
目 玉
直 属
直 訳
相 似
真 白
真 菜
眼 瞼
着 発
着 うた
砂 町
破 局
磯 原
礎 石
祝 う
神 道
祭 壇
秀 で
租 税
称 え
称 賛
移 駐
積 ま
穢 れ
空 戦
突 進
竜 夫
竜 巻
競 う
笹 子
筐 体
納 車
純 子
紳 助
終 止
絵 柄
絶 大
綺 麗
綾 子
綾 部
縁 起
縄 張り
縦 断
繁 忙
繋 ぎ
罰 則
美 代
羽 化
羽 田
翼 弦
耐 える
脊 髄
脚 部
脛 骨
脱 皮
脱 衣
自 力
自 律
至 近
興 商
舎 人
航 法
船 首
艦 上
良 き
良 心
色 気
芦 屋
花 奈
若 山
苦 悩
英 米
茶 湯
草 地
草 壁
荒 井
華 族
董 卓
薬 用
虚 偽
蛇 田
血 栓
衆 院
街 路
街 頭
衣 類
表 れ
袁 紹
装 い
裏 腹
複 葉
西 国
西 園
西 明石
見 い
見 川
見 物
見 分け
見 送ら
見 分ける
見 習い
規 範
親 密
親 指
親 方
解 結
解 読
計 器
託 し
診 察
誘 わ
調 布
謀 反
謎 解き
謳 わ
警 護
譲 葉
豊 後
貞 治
貧 しい
貴 子
貸 与
貼 る
賛 否
赤 堀
赤 外
走 ら
路 盤
跳 馬
身 柄
身 近
軌 跡
転 職
軽 視
辛 子
農 協
農 場
近 現代
返 さ
迫 害
迷 子
退 屈
逃 避
逆 手
逆 襲
通 夜
通 康
通 説
進 撃
進 駐
遅 ら
遊 女
道 管
道 のり
達 夫
遠 心
遠 慮
遣 わし
遭 う
選 帝
那 珂
郡 庁
郷 里
都 護
配 当
重 く
重 篤
野 沢
金 村
鉄 球
鉄 路
銃 身
銭 湯
長 久
長 寿
長 身
開 場
間 口
関 根
関 門
闘 殿
降 し
陣 地
陸 戦
陸 橋
隔 て
隕 石
隠 岐
霧 島
青 龍
静 香
面 影
音 波
順 天
頑 固
領 内
領 海
頭 上
頸 城
頸 部
頻 発
顆 粒
顔 立ち
願 う
食 性
馬 主
馬 路
馬 身
駅 数
騙 し
骨 法
高 倉
高 円
高 台
高 騰
高 まる
魔 人
魔 界
鯖 江
鳴 く
鴨 緑
鶴 岡
鶴 舞
麗 水
麻 酔
黙 認
龍 也
こと ば
ター レ
10 67
スト ・
スト レーション
また がっ
また がる
ラン ティス
あっ さり
18 10
18 45
18 55
18 51
ディ ブ
ディ ッシュ
ティ ル
ティ シズム
ライ ナ
in st
in us
リア ット
コン バート
コン ティオ
バー ター
ロー ランド
プロ キシ
アル ベルト
30 5
16 35
ar ch
or a
or o
シャ ーク
サー ズ
サー レス
ステ ロン
17 11
al s
マン ダー
14 9
14 001
25 2
at ic
ic le
サイ モン
チャ ル
レイ プ
レイ ザー
スタ ミナ
エン リル
24 4
取り 立て
取り 出す
取り 上げる
取り 消し
it z
27 4
ナー ガ
23 2
mm el
フェ ノ
フェ ロ
アン ズ
アン カー
29 0
ジェ スト
トル ネード
50 2
50 7
re g
ro me
ブル ドン
プレ ッシャー
th at
ch e
le d
モン ゾーラ
引き 込み
ポー ラ
クト ゥ
メン テック
IS E
ウィ ック
デル ラント
入れ 替わり
マー ティン
マー ガレット
カル チョ
バイ タル
ヴィ ジー
and o
ing u
om y
60 3
ポン キ
ーロ ン
ジュ エル
ジュ リアーノ
ジュ ヴィジー
トリ エ
St ud
ビル ス
ビル マ
ハン カチ
ゴン ザ
ゴン サーレス
id ae
US T
AR U
エル ・
un a
un o
un ct
カン ザス
48 9
ユニ ーク
ST UD
切り 札
切り 替える
ハー バード
Th or
ボー イング
33 4
リオ ット
ad e
ジー タ
ut ical
55 9
ur ing
AS IA
クリ ムゾン
スカ ラー
フリー マン
プリ タ
SP OR
ウル リッヒ
キシ ド
ph a
ダン シング
Ch all
ul a
カリ ブ
OR IG
セル ジオ
セル ゲイ
47 3
フレ ッド
キュ ア
キュ ゥ
キュ ーム
op en
打ち 切ら
クレ ード
ロード スター
チョ コ
プライ ス
ゴー レム
56 5
パラ レル
パラ ドックス
ist r
呼び 寄せ
フラ チアニ
作り 出す
RO OM
ます ます
ニュ アンス
メラ ニン
なん か
ドー レ
ドー シス
186 4
ティー ナ
けん じ
CH AGE
メイ ヨー
AG S
ie f
ie ve
コロ ニー
サラ サラ
置き 換
置き 換える
まと まっ
つく ら
トレ ンド
ネー デルラント
インタ プリタ
ガル ビルス
オート マ
our ce
デイ ヴィス
サブ ロウ
シャー プ
ジョージ ア
ブラック ジャック
ブロ ッコ
yst er
ダーク ネス
プリン ストン
かわ し
仮名 遣い
テイ ク
コカ イン
ウィン ブルドン
con du
ang a
武蔵 野
ust er
ペル ジン
河内 長野
end ed
マイル ド
プラン ニング
亡く なり
MI X
待ち 伏せ
アダ パ
おこ なわ
DO HC
セー ラー
uk u
アシ ドーシス
手が かり
フランク リン
FR ET
iz e
iz on
おも て
とら える
ハリ ウッド
ブック レット
se ason
借り る
ルン ルン
買い 物
He alth
GM LS
Sm D
アキ ラ
ウー ヴェ
エディ タ
和田 山
イカ ネ
ソル ジャー
Bo ard
エド ウィン
ベート ー
カンパ ネラ
天神 橋
ルイ ジ
シリン ダ
富田 林
Be e
ポップ ス
FI RE
みや こ
グロー ブ
チップ ス
ギャン ブラー
クレイ ジー
捕ら える
捕ら われ
アセ タール
アポ ロ
じん じゃ
田舎 町
YZ F
レンジャー ズ
Ber lin
きれ い
ヴェル ディ
JU JU
Gre y
市町村 長
ミッド ナイト
さわ やか
っぱ なし
Val a
テュ ルプ
ルク セン
貸し 出し
rag on
FU JI
ベー シスト
ガシ ラ
コク ピット
モロ ッコ
トレード マーク
締め く
ほっ か
ほっ かいどう
リラ ックス
Int ellig
アルティメット リュウケンドー
わい せつ
クア トロ
くま もと
譲り 受け
マグナ リュウガンオー
フュー ジョン
ホッ ケー
パナ ソニック
グラフィ ックス
苦し める
やむ なく
シェン ヌ
Prot ection
デイビ ッド
ネク スト
宇佐 美
MID I
ドブ 板
レポ ント
スピル バーグ
Dist ance
KK T
オモ イカネ
カロ ライナ
Fri ed
Soft Bank
オッ パイ
Max well
あず さ
ロスト ヘックス
アルド ステロン
Port able
Rain bow
ポテ リウム
ヨハ ネ
maxCode Bits
Hor izon
Mos ix
Ty pe
おし え
ロサ ・
目の 当たり
ストレイ テナー
Sant a
レジェン ディア
安曇 野
心斎 橋
Bea ut
Cour t
Euro pe
Mex ico
publ ic
エター ニア
スメ タナ
ワト ソン
Wond er
クボ タ
モノクロ ーム
Hein rich
チャオプラ ヤ
Frag ment
すご い
日暮 里
コンサ ドーレ
アンデル セン
ポータ ブル
Stan ley
SHIB UYA
セイフ ティー
MAG IC
エリュ クシマ
サーム コック
ジーター ズビル
バド ミントン
ボヘ ミア
ポケ モン
ポテン シャル
各務 原
吉祥 寺
四條 畷
アルテン ブルク
サウジア ラビア
オクサ ネン
mete o
ロイトナント ・
BLO OD
Ctr l
Mis umen
POW ER
たまた ま
わざわ ざ
スムー ズ
ビロク シ
ポピュ ラー
ユビキ タス
倶利 伽羅
寒河 江
STUD IO
Chall enge
ブロッコ リー
エリュクシマ コス
" 」
) [
. .
3 13
3 21
4 20
4 18
4 27
5 78
5 80
5 90
6 20
6 10
6 30
9 54
A U
A th
A cc
B y
B IG
B UT
B ASE
C F
C Y
C u
C at
C re
C AP
C ath
C ym
D B
E L
F UCK
G AME
H B
H D
H o
H ir
H ERO
H onda
I d
I ME
J P
J ack
K M
K e
K IN
K ir
L M
L ar
L em
L ib
L anguage
M U
M en
M ov
M iss
M ath
N X
N i
N at
N ot
N MB
N WS
P ay
P ass
Q UE
R el
R as
R ON
R AM
R AB
S B
S am
S SH
S pr
S ky
T e
T or
T ro
T AC
T win
V W
V LS
V ista
V isual
W el
W IN
W WE
X I
] 。
b i
c ell
e th
f g
g irl
i as
i ra
k er
l n
l ot
l ong
m L
m d
m ic
m ac
n i
n ing
p b
p ath
r is
r ig
r ia
r ight
r ub
s in
t en
t ri
t urn
t ended
v ing
v ers
y th
z il
л е
о т
ы й
。 "
あ いは
あ やか
あ たか
あ たし
い じ
う さぎ
お ー
か しま
ぎ ょ
く き
く ぼ
く じゅう
こ り
こ まり
さ よう
ざ と
し ず
し つ
じ み
す え
す き
ず らし
た え
た むら
た たき
た ぶる
っ こい
つ らい
と まり
ど き
ね え
ね り
の 手
は ずれ
は なれ
は がき
ば い
ば く
ば な
ひ し
ひ たち
び ら
び り
ふ う
ぶ ら
ぶ つけ
ぶ つける
ぷ く
ぼ り
ぼ っち
ま う
ま な
み え
み ょう
み のり
み かん
み すず
む し
め で
め ぶき
や つ
や ん
ら え
れ よう
ア パ
ア ヤ
ア レン
ア セット
ア プラス
ア ロイ
ア スペクト
ア ミューズ
ア トリエ
イ ニ
イ ッチ
イ デオ
イ ヴァン
ゥ ー
ウ レ
エ ウ
エ グ
エ ズ
エ プ
エ ティー
エ ミュ
オ ーム
オ ニア
カ デ
カ ティ
カ リスト
カ ヌー
ガ ッタイ
キ レ
ギ ョ
ギ ガス
ク レーター
グ ヤ
グ アム
ゲ ラ
ゲ イン
ゲ イル
ゲ ナーゼ
コ ヴェ
コ ナン
コ ッキ
コ ショウ
コ ハク
ゴ ス
ゴ ロ
サ ツ
サ ボ
サ ロ
サ ックス
サ ミュ
ザ ビ
ザ ウラー
シ チ
シ ト
シ バ
シ ロー
ジ マ
ジ ミー
ス ロ
ス ランプ
ズ リ
ズ カップ
ズ ボーン
セ キ
セ ージ
ソ ノ
ソ リ
ソ コロ
ゾ ウ
タ ハ
タ リアン
タ ミア
タ ロット
ダ メ
ダ ラス
ダ グモ
チ ゲン
チ ルド
ッ ソ
ッ ペン
ッ スル
ツ ォ
ツ モ
テ ア
テ ハ
デ ワ
デ モン
デ スク
デ ヴィッド
デ マイスター
ト リー
ド ジ
ド ロン
ナ シ
ニ ッツ
ヌ ケ
ネ マ
ネ ーター
ハ リス
バ タ
バ ター
バ シー
バ ッジ
バ キューム
パ イン
パ イド
パ ネス
パ キスタン
ヒ ール
ビ デンス
ピ ド
ピ リオ
ピ グモン
フ ク
フ セ
フ サイ
フ ペルジン
ブ リア
ブ タン
ブ レース
プ ソ
プ ルト
ヘ ロ
ベ ッカー
ベ カラ
ペ イン
ペ テル
ペ トロ
ホ ス
ホ フ
ボ ジア
ポ ット
ポ リエ
ポ タミア
マ シ
マ チ
マ イン
マ スト
マ ナー
マ ルト
マ ジェ
マ ミー
ミ イラ
ミ スティック
ム ・
ム ック
メ ク
メ ビウス
モ ニア
モ リアー
ヤ オ
ユ ズ
ラ ミ
ラ ート
ラ マー
ラ ゴン
リ ド
リ ノ
リ リー
リ ベンジ
ル リ
ル ード
ル ガー
レ ナー
レ ックス
レ ッグ
レ キシ
レ ノン
レ パント
ロ ブ
ロ リ
ロ ギー
ロ ッカー
ロ ペス
ヴ イ
ヶ 原
ヶ 岳
ヶ 根
・ デ・
一 団
一 揆
一 橋
一 群
一 葉
一 途
丁 稚
万 里
三 千
三 崎
三 星
三 遊
上 官
上 段
上 表
上 益城
下 肢
不 仲
不 眠
不 祥
両 線
並 走
串 木野
主 屋
主 観
久 御
亀 甲
五 百
井 村
交 わす
人 柄
仁 和
今 泉
今 津
仕 込み
付 託
仮 駅
仲 村
休 養
伝 来
伝 言
佐 田
佐 和子
体 現
体 節
体 表
作 れ
作 為
佳 山
併 置
供 養
侮 辱
侵 さ
修 司
修 学
借 用
偏 差
停 戦
傷 つい
僭 主
儒 教
償 還
優 良
優 雅
優 駿
儲 け
元 請
充 満
先 制
先 史
光 圀
入 省
入 谷
全 土
八 千代
公 子
公 孫
公 害
共 作
共 編
共 訳
共 闘
兼 山
内 地
内 科
内 膜
内 訳
円 柱
円 陣
再 三
写 っ
凝 固
処 する
出 挙
刀 工
分 譲
分 院
切 欠
切 れる
初 年
判 官
別 所
別 れる
刺 す
前 川
割 譲
助 成
勅 令
勝 久
勝 目
北 茨城
十 王
十 津川
千 手
協 約
南 陽
南 有馬
単 相
単 身
印 西
印 鑑
参 列
反 感
収 まっ
取 付
取 組
受 審
叙 す
口 数
叫 ぶ
史 郎
各 回
各 線
各 自
各 話
合 志
合 気
合 致
同 会
同 伴
同 区
名 人
名 代
名 城
名 簿
呆 れ
呉 服
周 山
周 防
和 式
和 睦
和 親
咲 か
唐 辛子
喰 い
嘉 納
嘉 門
器 物
四 元
四 川
固 形
国 別
国 営
国 公立
園 長
土 塁
土 手
圧 勝
地 雷
坂 北
城 攻め
執 っ
基 底
基 質
堀 田
塗 ら
塗 布
塩 水
塩 釜
増 減
声 門
売 る
変 装
夕 食
外 戚
外 相
外 縁
多 忙
多 面
大 庭
大 滝
大 磯
大 邱
天 日
天 災
夭 折
失 脚
奔 放
女 将
女 房
好 戦
始 点
嫁 い
嫌 わ
嫡 子
子 弟
宇 賀
宇 連
完 工
宗 我部
宛 先
宝 暦
実 話
客 船
家 元
家 老
容 認
富 永
寛 容
対 向
専 売
小 作
小 室
少 林
就 き
尾 翼
屋 号
履 い
履 く
山 南
山 奥
山 西
岩 倉
岩 本
峡 谷
島 々
島 村
川 尻
川 瀬
巻 末
布 教
師 弟
帯 広
帰 投
帳 合
幕 下
干 支
平 年
平 林
平 穏
幻 覚
幽 閉
座 る
廃 し
廃 仏
廃 墟
廃 案
建 ち
建 安
引 込
弦 楽
張 本
強 奪
強 酸
強 靭
形 勢
彫 金
彼 岸
後 尾
後 輪
徒 町
御 幸
御 徒町
心 影
必 修
志 望
志 水
忘 却
応 じる
怖 い
恐 らく
恒 久
恒 例
恵 一
悦 子
悪 党
悲 しい
感 受
感 心
慌 て
慶 大
懸 命
戸 数
手 先
手 裏
手 首
扮 する
抑 圧
抵 当
拼 音
拾 っ
持 参
持 朝
持 病
指 宿
挫 折
排 他
採 決
接 頭
掲 出
揃 える
握 手
損 金
摘 発
播 州
放 牧
放 題
散 々
散 在
散 歩
敬 遠
文 人
文 句
文 官
文 彦
文 枝
料 亭
斬 ら
新 任
新 婚
旋 風
既 成
日 報
日 成
日 用
旧 知
旧 称
明 文
明 瞭
星 系
景 正
智 頭
暗 く
暴 徒
暴 れる
曳 航
書 簡
月 例
有 っ
有 事
朝 夫
木 橋
未 定
末 盛
本 件
本 節
本 間
杉 田
材 質
松 風
果 物
架 設
柔 らかい
栄 子
格 下げ
桃 色
桜 川
梅 小路
梨 子
梶 原
棺 桶
検 挙
楽 しく
樟 蔭
模 範
欠 ける
次 作
次 女
欧 文
歌 声
歌 島
正 三
正 則
正 男
武 内
歪 み
死 骸
殊 勲
残 ら
残 忍
残 部
殺 到
殺 意
母 国
母 校
母 語
民 生
気 付き
水 質
江 湖
河 尻
波 動
泣 く
泳 い
洗 い
洗 脳
流 動
流 水
浮 力
浮 気
消 極
淳 一
清 春
減 点
渡 航
渡 邊
測 る
湯 玉
溢 れ
滅 び
潰 さ
潰 し
瀕 死
火 葬
炸 薬
烙 印
焚 く
無 二
無 害
熊 毛
熟 成
熱 意
燃 やし
爆 乳
片 岡
物 作り
特 使
犬 種
献 身
玄 室
率 先
王 英
王 莽
理 髪
瑞 宝
甌 海
生 け
生 還
生 ずる
産 休
由 緒
町 中
画 期
画 策
留 意
留 まる
異 様
異 論
畿 内
病 弱
病 的
発 令
登 用
白 羽
皆 殺し
目 安
目 蒲
目 立ち
直 也
直 行
県 北
真 也
真 澄
眼 帯
眼 球
矢 島
矢 理
矢 部
知 子
石 工
石 森
砕 く
社 交
神 仏
神 西
禁 固
禁 煙
禅 寺
福 利
秘 め
秘 伝
移 譲
税 金
税 込み
空 冷
空 挺
空 転
立 木
竹 富
笠 岡
笠 松
算 定
築 堤
粉 砕
精 油
純 一
素 朴
細 か
細 分
細 工
細 管
終 端
終 電
組 版
経 絡
結 託
給 食
絶 賛
緒 方
縦 横
織 布
纏 め
美 学
美 沙
群 生
羽 衣
翌 週
老 い
考 査
耐 冷
聖 護
職 工
脇 役
腐 れ
膵 臓
自 明
興 し
舌 骨
良 し
良 質
芝 生
花 隈
花 小金井
芳 賀
茨 木
草 野
荒 い
荒 れ
菜 摘
華 岡
蒸 し
蒸 発
蒼 龍
薄 れ
薨 去
藤 川
藩 政
融 和
血 縁
行 か
表 皮
表 書き
装 っ
裕 之
裸 足
西 河
西 町
西 経
西 魏
覆 い
見 城
見 知ら
見 出さ
観 艦
観 賞
触 り
言 明
討 つ
許 劭
証 人
試 薬
詫 び
誌 上
誘 爆
誤 認
説 話
読 切
課 長
請 け
謙 三
譲 ら
護 国
讃 え
讃 美
豊 玉
豊 見城
貝 塚
貧 乏
買 わ
賑 わい
賑 わう
購 買
贄 川
贈 り物
踏 む
軍 師
軍 曹
転 出
転 生
軽 快
軽 水
輪 廻
輸 液
輸 血
辞 さ
農 園
辻 野
近 親
返 っ
迷 彩
追 及
退 い
退 去
送 出
逆 さま
透 かし
逐 次
逢 い
連 打
連 行
遅 れる
遊 牧
道 会
遠 方
遡 っ
遵 守
部 将
部 数
郷 中
配 さ
配 向
配 電
酷 い
重 巡
重 工
野 原
野 呂
野 戦
野 瀬
金 魚
釧 網
銃 器
錠 剤
録 り
鍋 島
鍛 造
鐵 道
長 子
長 屋
長 宗我部
開 墾
開 山
闘 気
降 る
限 度
陶 片
陸 自
隆 史
隔 離
離 す
難 しかっ
霊 山
非 核
面 会
面 前
領 し
頼 む
題 名
飛 田
飛 龍
食 器
食 欲
飯 野
飼 わ
駆 り
高 久
高 地
高 官
高 市
高 所
高 月
高 畠
高 輪
魔 獣
鳥 山
鳴 神
鹿 角
麻 布
黒 沢
黒 石
から だ
リー バ
ター ゼ
イン ジ
イン フラ
イン デックス
もの まね
スト ク
er e
18 38
18 58
18 57
18 49
ディ ティ
ディ フェンダー
ティ ラー
ライ カ
ライ ス
ライ アン
コン ソール
バー ガー
ロー ター
ロー マン
レー ニン
プロ ピル
プロ ビデンス
アル ・
テレ フォン
16 02
ar agon
ンド ル
or th
受け 取り
受け 持つ
受け 継ぐ
ステ ンド
17 80
17 57
キャ ブ
キャ スティング
フィ ス
ジャ マイカ
al bum
25 8
at re
ラー ダ
カー ネル
シー ズ
シー レ
サイ パン
チャ ク
リン チ
レイ ト
およ ぶ
ルー キー
エン ジェ
el y
24 7
24 00
クラ ッキング
スター リン
ジョ シュ
フォ ア
フォ ロー
オー ネ
呼ば わり
27 7
ナー ゲル
フェ ルト
フェ レンツ
大き め
大き かっ
コー ティング
サン ク
サン キュー
アン ダ
アン テ
アン フ
アン ジェ
アン コール
29 4
ジェ ー
ゲーム ズ
アイ アン
ro om
ブル ノ
ベル ナール
th is
ch ar
引き 抜き
引き 起こさ
引き こもり
クロ ール
まり や
クト ップ
スク ーター
am i
am az
us e
グラ ナ
持ち 出し
持ち 込み
持ち 合わせ
持ち 込む
持ち 歩い
持ち 帰る
ニア ス
et ry
スー ダン
カル ニチン
アニメ イト
シン ク
シン クロ
シン ポジ
ドル ス
ヴァ リ
プラ ネット
起こ ら
トラ ム
トラ クション
AN G
om orph
デー モン
パン タ
テン ション
まっ すぐ
ポン ペ
ent o
テー ター
ジュ ラス
ソン ・
ライン ハルト
ハン ブルク
TO Y
id on
ヴェ ール
組合 せ
AR A
AR I
AR Y
ワー キング
35 4
35 5
35 9
出来 上がっ
ガー ズ
ファイ バー
アナ トリア
カン ボジア
プレイ ス
組み 込ん
38 2
マル ク
ハー バート
ot ima
んど う
んど ん
シェ リダン
ag ue
ag ement
リュ ック
ウォ ン
ウォ ルト
立ち 向かう
立ち 上げる
BC O
ad y
ジー ズ
ジー プ
ジャー ナル
34 1
34 9
テル ン
55 2
55 5
ur es
ur ia
ur ity
ベン ツ
一人 暮らし
ちゃ う
VE L
生き 物
AM ES
クリ フ
スカ リン
パス ワード
プリ ズム
39 4
果た せ
SP G
SP S
ベース ライン
チャー ジャー
キシ ダグモ
oc o
ph en
カップ ル
Ch e
Ch em
ごと く
37 1
ワン ダ
マス チゲン
トラン ペット
トー ニャ
47 6
バラ エティー
58 1
なさ い
キュ リ
ブリ テン
og en
使い 分ける
ノー ズ
富士 通
ri x
アド バイザー
カラ バ
カラ フル
グレ ブ
グレ ッグ
プライ バシー
かし ら
CO UN
CO OL
イー ズ
勝ち 馬
もう ける
PC I
ソー ラー
CM OS
56 7
ピア ス
伊勢 原
Re view
SH OP
呼び 出す
書き 込み
書き 換え
スケ ベ
追い 詰め
しゃ く
なか むら
ザン ダ
ドー ナツ
いち ばん
カナ ソラ
カナ ディアン
ニコ フ
バッ フル
BO OK
CH A
CH ANGE
eb all
ens e
落ち 込ん
ホー エン
ホー ミング
TR UE
AG ON
if t
ワイ ヤード
すれ 違い
ran k
ran o
置き 去り
コミュニ ティー
コール スロー
Pro fession
Pro meteo
ハカイダー ショット
ヘン リ
ブルー ノ
オル ガン
ik a
man n
ドゥ カティ
石川 島
トゥ ル
アス レ
アス ロック
アス ガルズル
たま しい
MO AB
デュ アル
デュ シェンヌ
繰り 出し
シャー シ
Co y
te in
ゆう こ
アカ ウント
コレ クター
WA BCO
OP EN
IR A
IR C
99 9
Di otima
Sp ot
モノ コック
FA O
Pr inc
しみ ず
デス クトップ
ate g
ant i
ant s
エスト ニア
MC L
パートナー ズ
con d
IG N
殺し 屋
De NA
De put
De utsch
Un ited
上野 原
グレイ ブ
トウ ペ
ミオ グロビン
end o
DE EP
けい さつ
ヒュー ネックス
祖父 母
送り 出し
逃げ 出す
ABC O
いか に
ちょ く
クー パー
ベイ シア
ish ed
アカデ ミア
カム イ
ツェ ル
かえ って
兼ね 合い
引っ 込み
とら え
ジストロ フィン
ハリ マン
ポル シェ
フライ デー
ハッ スル
ホイ ット
ミナ ミ
ネイ ション
スカイ ライン
フィル タリング
エディ ション
ern ment
Wor k
エッ シャー
吹き 替え
浴び せる
Comp act
-』 (
Bo y
りん かい
タナ ズボーン
みち る
トライ アンフ
さと み
BR ID
kW h
ハル カナソラ
ミリ タリー
すず らん
ツイン エッジ
マイケル ズ
スコア ラー
アジ ド
マルチ メディア
ミラー ジュ
エラ リイ
ホウ 素
NR S
タカ ヒロ
Ro ad
おと め
KA WA
コモ ディティ
air fo
パロ ディー
もも いろ
アリスト パネス
Af rica
みず ほ
カワ サキ
手伝 っ
UF O
he im
シオ ネー
モンテ カルロ
Ap ple
野々 村
Que en
コーポ レート
Gra mm
さつ ま
キサ シン
ザ・ ブレイ
ハロ ゲン
ハロ ルド
すみ れ
ワル ツ
Gr and
アバ ウト
無理 矢理
キッ コーマン
キム ・
ウルトラマン ギンガ
ジェネ レーション
ジェネ レーター
we et
ミツ コ
JC B
にち りん
Art s
GALAX Y
スプライ ス
ret urn
Techn ical
ele ase
グラフィ ティ
htt ps
trans l
ベラ ルーシ
百合 ヶ丘
インジェ クタ
なに わ
喜多 村
尽き る
浮き 彫り
FO MA
オナ ニー
ネク タイ
プロフェ ッサー
あす なろう
ヘー シオネー
ペンタ ゴン
Do S
POS IX
ск ий
ほの め
ウエ スタン
メソ ポタミア
メド レー
eng th
スピル バン
BAN G
MIN AMI
doc um
doc omo
アツ シ
CJ KV
Fri end
Syn ema
アズ ガルズル
ブロード ウェイ
ステイ シー
Ig G
web site
サント ス
ヒドロ キシ
Colle ge
Colle ction
めざ す
スカン ディナ
長谷 部
いづ る
レプ リカ
江ノ 島
SHIN Y
RI PS
のん びり
リハ ビリ
石神 井
Inn oc
マグネ シウム
Elect ric
ぽー たぶる
フレイ ム
メダ リスト
少な から
阿弥 陀
ファント ム
stru ction
ディストリビュー ション
HAPP Y
まご ころ
ヘキサ ゴン
マスタ リング
フィード バック
Glob al
hydro gen
DREAM S
HIG H
イース タン
堀留 町
rep eat
Stri p
PLAN ET
Rem ix
しる し
ハノー ファー
ベジ タリアン
ラクタ リウス・
chlor ide
oge ther
Corpor ation
Publish ing
Bra zil
Jose ph
コメン テーター
コモリ グモ
サカキ バラ
ジャコウ ソウ
synd rome
Soci ety
wind ow
つん く
レジェ ンド
レクリ エーション
高円 寺
ゴンザ レス
SPOR TS
condu ctor
ベートー ヴェン
ルイジ アナ
テュルプ ナーゲル
Fried rich
Misumen oides
あいは ら
あたか も
イデオ ロギー
ガッタイ ダー
コッキ ィ
デモン ストレーション
フサイ チ
モリアー ティ
レナー テ
レキシ ントン
三遊 亭
久御 山
聖護 院
シンポジ ウム
Deput y
ツインエッジ ゲキリュウケン
airfo il
ザ・ブレイ ダー
スカンディナ ヴィア
ラクタリウス・ インディゴ
! "
- ?
0 12
3 18
3 17
3 35
3 45
4 23
5 10
5 15
5 24
5 27
7 25
7 40
7 35
8 20
8 10
9 60
9 800
A pr
B M
B ot
B ay
B LE
B all
B ern
B ACK
C B
C le
C BS
C ou
C AT
C AS
C op
C ASO
C IRC
D at
D ou
D EN
D IO
D ragon
E E
E Y
E con
E ye
F K
F ro
F ut
F ight
F IR
F red
F ES
F ender
G ar
G un
G ot
G ET
G RE
G old
G ARD
G ATE
H U
H is
H IS
H and
H um
H ew
H arm
I MP
I MG
J D
J G
J ac
J NN
K i
K en
K ent
K AI
K orn
L ic
L ou
L IN
L izard
M ess
M ort
M ach
M obile
N u
N on
N el
N OR
N ik
O b
O f
O ak
P TA
P MID
R is
R BC
R ET
R ie
R uss
S X
S in
S at
S ME
S und
S QU
S ym
S weet
T er
T al
T BC
U K
U nd
V an
W est
W ith
W riter
X VS
Z X
Z Z
Z ONE
[ ]
] ,
b ank
b arm
c i
c at
c el
c ia
c ode
d en
d ig
d om
d ec
d ate
e h
f ut
f red
g es
h an
h ay
h af
j ung
k n
l ar
l at
l attice
l ength
m V
m en
m as
n m
n u
n av
n age
o om
r é
s an
s en
s al
s ion
s ign
s aman
t w
t ar
t ing
t arg
u ter
v an
v it
w eg
w are
y y
y an
y amaz
z o
á n
ó n
ö r
и н
к с
к ов
л ь
н о
∨ ,
『 "
あ ふ
あ んな
あ いち
い せ
い まだ
い ばら
い とこ
う そ
お ち
お び
お れ
か ぶり
か がく
が う
が さ
が す
く い
く ね
く しゃ
ぐ ん
け もの
こ じ
こ やま
さ さ
さ っ
さ おり
さ ほど
さ とう
さ かん
ざ ら
ざ り
し ち
し おり
す っかり
ず ん
ぜ い
そ な
た ず
つ む
つ ない
と し
と ば
と める
に し
に ょ
は ね
は さん
ば っ
ひ か
ひ ょ
ひ かり
び と
ふ ら
ぶ ち
ぷ ん
べ っ
べ つ
ほ えろ
ま こと
み き
み そ
も れ
や え
や なぎ
や なせ
ゆ ず
ゆ たか
よ ろ
り 出
る す
ア シュ
ア ックス
ア ネット
ア リング
ア ヴェ
ア トラクション
イ ジ
イ ッ
イ ム
イ アン
イ ースター
ウ タ
ウ ラジオ
ウ エア
ウ ロボ
エ メ
エ リス
エ ジン
エ イド
エ ボリューション
オ ニ
カ ポ
カ 所
カ イン
カ ラン
カ エル
カ ラス
カ スピ
カ オス
カ ヤク
ガ チ
ガ ット
ガ チャ
ガ ルー
ガ ルド
キ ズ
キ ヨ
キ リン
キ ョー
ギ フト
ギ アナ
ク ズ
ク ルト
ケ ガ
ケ ミ
ケ マル
ケ プラー
ゲ ゼル
コ ナ
コ ヤ
コ ーク
ゴ バルド
サ ド
サ ット
ザ シ
ザ ニア
ザ クション
ザ ダーク
ザ グレブ
シ タ
シ ミ
シ ーム
シ ヴァ
シ ロン
シ トロ
シ ビック
ス ム
ス パー
ス プレ
ズ マン
セ リー
セ リン
セ ヴェ
セ デス
ソ グ
ソ チ
ソ フ
ソ レ
ソ リッド
ソ ドム
ゾ フィー
タ ・
タ ブレット
ダ ビ
ダ ヴィ
ダ ミー
チ タ
チ タン
ッ ピー
ッ ティング
テ ・
テ レーズ
デ ェ
デ ッカー
デ ニス
デ コーダー
ト ック
ト カゲ
ド ス
ド 級
ド ーン
ド ロス
ド ールズ
ド ミナ
ド ナウ
ナ デ
ナ ター
ナ ート
ナ ンド
ニ クル
ニ ードル
ヌ ・
ヌ クレ
ネ フェル
ノ ックス
ハ エ
ハ ジ
ハ テ
ハ フ
ハ ント
ハ シリ
バ ップ
バ ニー
バ ンス
パ スタ
ビ ドル
ピ タ
ピ エロ
フ ルト
ブ ジェ
ブ ーン
ブ レッド
ブ チル
ブ エルタ
プ ファル
ベ オ
ベ リアル
ベ ジータ
ペ リ
ペ ッチ
ペ イト
ボ リー
ポ ッド
マ ゾ
マ ディ
マ イト
マ ッカー
マ インド
マ リーナ
ミ シュ
ミ シェル
ム ア
ム ス
ム ダ
ム チ
ム ード
ム キム
ム スカリン
メ グ
モ ワ
モ ッコウ
ャ ー
ヤ キ
ユ カ
ユ ージ
ユ グノー
ヨ ガリ
ラ ジャ
リ セ
リ ハー
リ フレ
リ ボーン
リ ファイン
リ フレッシュ
ル ック
レ コ
ロ ゥ
ロ コ
ロ メ
ロ ッキ
ワ タリ
ン テルン
ヴ ャ
・ オ
・ ナ
・ ポ
・ ジュ
・ リーグ
・ モー
・ デュ
一 ノ
一 同
一 味
一 室
一 律
一 成
一 日
七 十
万 治
三 共
三 岐
三 方
三 洋
三 笠
三 船
上 平
上 津
上 端
下 垂
下 段
下 着
下 向き
下 敷き
不 運
且 つ
両 肩
並 べる
中 尾
中 込
中 南部
主 戦
主 計
久 々
久 喜
久 高
乗 せる
也 佳
乱 闘
乳 剤
乳 業
事 物
五 穀
五 経
京 子
京 丹波
亮 太
人 命
人 的
仁 川
仕 上げる
仕 上がり
代 演
令 嬢
仲 代
任 天
任 せる
企 む
企 救
伝 記
伴 奏
似 る
低 地
低 温
低 音
住 職
住 之江
佐 渡
体 外
体 裁
体 当たり
何 れ
何 者
余 計
作 製
作 れる
俊 敏
俗 称
保 た
保 水
信 一
信 徒
信 念
値 段
偏 っ
健 司
側 壁
偽 札
傑 作
備 品
傷 跡
傷 つける
儀 礼
優 美
元 就
元 田
先 立つ
光 る
光 武
党 派
入 閣
全 景
八 頭
公 然
兵 団
具 現
内 乱
内 臓
円 滑
冠 する
凝 縮
出 川
出 そう
分 化
分 遣
別 種
制 動
前 山
前 翅
前 頭
前 駅
剛 性
加 勢
加 納
加 越
助 走
努 める
勅 撰
動 乱
勝 り
勾 当
化 す
化 成
北 炭
区 切り
医 大
千 日
南 漢
南 道
印 欧
厚 み
原 典
原 口
厭 わ
双 曲
収 拾
受 動
叢 書
古 文
古 流
右 上
右 派
右 目
右 舷
各 位
各 町
合 羽
合 資
吉 永
同 点
同 相
名 勝
向 く
否 決
吹 く
吹 替
周 産
呼 べる
和 久
咲 き
咽 頭
商 務
喉 頭
四 谷
困 窮
国 史
国 号
園 児
土 田
土 蔵
坪 井
城 内
城 郭
域 内
堀 之内
堪 能
塚 口
塩 川
墳 丘
外 字
外 輪
多 喜
多 糖
大 円
大 吉
大 家
大 志
大 林
大 永
大 群
大 袋
大 間
天 寧
太 守
失 望
失 神
奄 美
奇 形
奥 井
奥 戸
奥 書
好 奇
好 転
妙 高
妥 協
妹 尾
姉 崎
威 厳
威 圧
媒 介
子 犬
子 育て
孤 島
学 内
学 期
宇 陀
安 楽
安 永
宏 美
官 物
定 率
定 額
定 まる
宝 城
実 存
実 母
客 扱い
宮 古
家 主
家 宝
家 柄
寄 宿
寒 い
寛 子
寧 辺
寺 島
寺 町
対 角
射 影
将 兵
尋 ね
導 き
小 国
小 柳
小 海
小 鳥
小 中学
屈 辱
山 側
山 岡
山 越
岩 国
島 嶼
嶋 田
川 井
川 端
左 派
左 遷
巧 妙
巨 体
市 況
布 施
帝 産
席 上
帰 郷
帰 順
常 態
常 松
平 ら
幻 想
広 樹
庄 内
床 面
座 敷
康 成
康 範
廃 合
廃 園
建 久
引 継ぎ
弘 安
強 固
強 直
彫 像
役 名
彼 氏
往 年
往 還
後 端
従 兄
得 よう
御 嵩
御 幣
復 号
志 賀
忠 信
忠 岡
急 増
怪 談
恋 仲
恩 師
情 況
愛 子
愛 犬
慕 う
憤 慨
憲 兵
懇 談
戊 辰
戦 意
戦 績
戻 ら
戻 そう
房 総
所 得
手 下
手 札
手 軽
打 率
扱 える
承 太郎
投 影
投 獄
抗 弁
押 下
拓 哉
拠 出
拾 い
挙 動
挟 む
振 幅
掃 討
排 卵
接 合
接 眼
推 挙
揚 陸
支 那
改 姓
改 行
政 男
教 わっ
教 職員
敵 意
敵 艦
敷 い
文 壇
文 言
斬 首
新 党
新 旧
新 書
新 装
新 谷
新 開
新 鮮
旅 程
旗 揚げ
日 時
日 永
日 進
旧 事
旧 友
旧 名
早 々
早 世
旭 日
昇 る
明 生
星 座
昨 日
時 事
普 請
景 色
最 少
月 額
有 栖
有 楽
有 紀
有 識
朝 食
木 俣
未 然
末 尾
本 場
本 多
本 流
本 渡
本 願
村 名
村 営
条 虫
東 晋
東 浦
東 行
東 進
東 魏
東 日本橋
松 葉
林 間
枯 れ
染 織
柔 然
根 幹
桐 原
桓 武
桓 玄
桟 原
梗 塞
森 永
植 村
検 見川
極 上
楽 座
様 相
標 語
模 式
権 兵衛
横 紋
横 行
樫 原
機 運
機 首
欠 い
次 数
次 期
歌 集
歓 楽
止 む
正 利
正 史
正 平
正 弘
正 雄
武 井
武 官
武 徳
歯 車
殴 ら
段 原
殺 戮
殺 菌
気 化
気 学
気 球
気 づか
水 圧
水 島
水 沢
水 温
水 郷
氷 結
氷 雨
求 心
江 川
河 南
河 岸
河 村
河 谷
油 断
治 水
治 める
沿 う
泊 地
注 ぎ
泳 ぐ
洋 酒
洒 落
洛 陽
津 和
流 氷
浅 川
浜 口
浜 崎
海 事
海 山
海 産
海 路
海 防
浸 水
液 色
淘 汰
深 部
淳 子
清 滝
済 ん
溜 め
溺 愛
滝 川
滞 泊
漁 村
演 芸
漢 書
濱 名
灯 籠
炒 め
点 線
為 さ
烏 啼
無 地
無 法
煩 雑
熱 田
爛 漫
片 手
片 足
牛 山
特 段
特 約
特 装
特 長
犬 島
狂 っ
狂 気
狭 間
獣 医
獣 畜
甚 大
生 野
生 やし
産 み
用 達
由 貴
甲 飛
町 屋
画 僧
留 萌
略 奪
略 記
疑 う
病 態
痴 女
発 がん
白 く
白 毛
百 姓
皇 女
皇 親
皐 月
目 立た
盲 腸
直 感
直 江
直 美
直 近
相 殺
相 羽
省 吾
真 夏
真 宗
真 島
着 想
睦 月
知 県
石 山
石 松
石 燕
石 高
砂 利
砂 土
砂 浜
砂 撒き
砲 架
砲 火
砲 術
破 砕
破 門
硬 く
碁 聖
確 固
磁 器
磁 石
磯 城
磯 子
磯 部
神 流
福 地
福 澤
秀 忠
秋 月
稲 庭
究 明
突 か
端 野
競 泳
笹 森
筆 記
筑 肥
答 弁
節 子
簡 潔
精 華
精 製
糖 分
納 豆
素 質
細 身
終 焉
組 曲
結 束
絞 め
統 廃合
綬 章
総 量
線 名
練 り
縁 組
縁 取り
縛 り
縦 書き
繁 華
缶 詰
美 和
美 咲
義 元
義 家
羽 毛
羽 鳥
翼 面
老 化
老 齢
耐 熱
耶 輪
聖 徳
肉 弾
肢 体
肥 満
肩 書
育 てる
胚 乳
胸 鰭
脱 法
腕 力
臣 下
臣 従
自 伝
自 室
自 害
自 白
自 警
舞 踏
艦 戦
花 崗
英 樹
草 木
草 本
荒 尾
荒 涼
荷 台
菊 水
菜 々
葬 祭
蒲 原
藤 島
虎 太郎
蜜 蝋
融 点
血 球
血 筋
行 ない
術 科
衣 料
裂 け
裕 也
裕 二
製 本
製 陶
西 条
西 浦
西 濃
要 人
覆 刻
覆 面
覇 権
見 地
見 込ん
見 送り
見 送っ
覚 悟
親 権
親 水
親 父
親 衛
親 しい
観 る
詠 唱
試 技
試 算
認 許
誓 う
誘 う
語 句
読 め
課 さ
課 し
談 合
諸 語
講 道
谷 山
負 わ
貫 い
貫 く
貸 出
資 質
賜 っ
賢 正
質 権
賭 ける
赤 間
走 破
走 者
足 技
踊 っ
躊 躇
躍 り出
車 名
車 止め
転 作
転 勤
転 籍
軽 傷
辛 い
農 政
近 かっ
返 答
返 金
迷 い
追 従
追 討
退 き
退 化
逃 がし
通 ら
通 史
進 言
遊 覧
遊 離
道 灌
違 憲
遠 軽
遷 都
遺 し
邦 彦
邪 馬
部 活
部 類
郵 政
都 尉
都 島
都 電
配 し
配 ら
酵 母
野 鳥
針 山
鉱 夫
銃 剣
鋭 く
錯 体
録 画
鍾 馗
鎌 田
鑑 み
長 安
長 政
長 沢
長 町
門 院
閉 会
間 近
防 ぎ
阻 ま
降 ろ
陣 頭
陽 気
隆 起
隠 蔽
隧 道
雄 一郎
集 い
集 計
難 点
雨 林
雷 電
電 器
霊 前
霞 ヶ浦
青 戸
音 韻
須 原
頓 挫
領 有
頭 頂
風 潮
飛 天
飯 島
飲 用
養 女
館 内
首 謀
馬 番
駐 日
駿 府
骨 芽
高 位
高 熱
高 遠
鳥 刺し
鳴 沢
鶏 卵
麗 子
麾 下
黄 帝
黒 川
黒 羽
黒 谷
黒 部
黙 っ
リー チ
リー ル
リー フレット
イン ク
イン ザダーク
また ぐ
ラン チ
ラン ブル
ラン ゴバルド
られ れ
11 20
ード ラゴン
18 11
18 15
18 44
18 41
18 07
ディ ノ
ディ ・
ディ ショ
ディ フェンス
ティ カ
ティ ノ
ティ スト
ライ チ
ライ ジング
an ge
in er
in to
in cl
in na
15 54
15 72
リア ・
コン ゴ
コン ベン
コン スタント
コン ディショ
ファ ミン
なく す
ロー ソン
ロー レンス
ロー テーション
レー ナ
プロ ップ
プロ スタ
プロ メテ
アル ビ
アル ブ
アル ペン
アル フォン
30 2
テレ コム
16 12
16 94
ンド ラー
受け 継ぎ
13 1
17 16
17 50
17 83
キャ ッチャー
キャ ッスル
マン デー
マン スリー
ダー ゼ
25 5
ラー タ
カー テン
ic ode
es a
es h
es net
チャ ラ
チャ イルド
リン ズ
リン ゲン
スタ リオン
ルー タ
シュ カ
シュ トラ
エン テス
エン コーダー
24 1
24 3
クラ スタ
パー ン
取り 締
取り 残さ
22 9
フォ ルム
オー ブ
オー エン
it er
it ies
27 3
27 6
ウェ ット
ウェ ザー
キー パー
フェ イエ
フェ ノール
フェ ニル
オン ・
コー ニ
サン ザシ
ニュー ソス
たち ばな
トル キスタン
アイ ド
アイ ヒ
アイ ユー
st ories
50 3
アー レンス
アー チェリー
ブル マ
ベル ガー
th i
th ers
ion al
さら わ
ch o
ch t
ダイ バー
ダイ エット
ダイ ジェスト
引き 取り
引き 連れ
引き 渡し
引き 揚げ
付け 加え
ポー タル
コミ ッション
コミ ンテルン
40 1
40 7
IS S
考え れ
am b
am une
ウィ ルス
ニー ・
ネル ソン
グラ ファイト
持ち 上げる
持ち 帰っ
il s
マー リー
タン マ
et ing
アルバ ート
スー プレックス
マイ ヤー
マイ アミ
バイ キング
ビュー ティー
シン セ
ヴィ ヒ
ヴィ ラ
ヴィ ジョン
ヴァ ス
om ic
パン ・
パン ター
テン ダ
ジュ ウ
ジュ リア
ジュ ウシ
ジュ デェ
ed ition
St ut
St ory
St ille
St yle
カイ ラス
乗り 継ぐ
id ence
ra in
ヴェ ッキ
ワー プ
ワー プロ
エル ダー
IN AX
カン ダル
48 1
インター ホン
組み 込む
38 1
ハイ デ
ハイ キング
ハイ ロゥ
マル ティン
ハー モニー
ot a
キロ ワット
シェ ー
ag es
リュ ート
33 3
33 33
オリ オン
オリ エント
iv es
iv ate
立ち 入り
ジャー ニー
ほと り
ut ch
ベン ジル
80 6
プリ キュア
行き 詰
39 0
らか く
大和 郡山
SP A
ウル ティマ
下り る
CD I
ダン プ
ダイヤ ル
ッツ ァ
ッツ ェ
もと づく
トロ ント
マス コーニ
ジャン ソン
トラン ザクション
トー キョー
ap e
ap t
キュ ール
The atre
使い 分け
op er
op le
打ち 込ん
打ち 出さ
思い 込み
シル エット
チュ ン
ノー ベル
ノー マル
エア コン
ストラ ト
すぐ さま
ri b
ri an
アド バンス
エレ ベータ
クル ン
ニッ ション
CO ME
イー ディ
オペ レーター
ゴー グル
ドラゴン ボールヒーローズ
LI GHT
アフ マド
ind er
ソー ラ
An ne
An ti
スタン プ
ist ic
Re i
54 9
57 9
セント ジョン・
est a
ブレ ンド
ブレ ザー
ミニ チュア
RO BO
ナイ ジェリア
アレ キ
アレ ックス
186 1
49 3
カナ リア
モー タリ
ネットワーク ス
ct ic
わけ あり
巻き 鬚
巻き 込ん
AD F
av ex
AG OR
ケー タ
ケー タイ
サラ ブレッド
振り 子
振り 付け
ran ge
助け よう
読み 切り
978 40
ダンス インザダーク
Sh o
Sh in
オル ダ
UN G
UN IX
man tec
グリ ッド
無く なる
オス ロ
トゥ ール
アス フェ
結び 切り
かか わる
ヴァン パイア
ひろ しま
エス パー
ゆう ゆう
ニン ニク
sh ort
ヘッド ライト
ディオ ティマ
ディオ ニューソス
投げ つける
投げ 飛ばさ
ib uya
メル セデス
ブロ モ
っぽ く
モノ ラル
Pr ivate
プリン ター
かわ いい
仮名 交じり
UR A
UR L
エピ ローグ
クイ ック
Lu c
IG R
Un icode
あき た
ペル オキシ
チュー ン
チュー リップ
DE BUT
ぐる りん
けい こ
af e
sp ort
捨て 仮名
あと がき
OT A
Inter FM
小田 切
Con n
差し 込む
シュー メーカー
盛り 上がっ
盛り 上がる
かえ り
uk a
フランク フルト
FR P
iz ation
おも ちゃ
スル ホン
スル ファミン
ax y
しゅ く
しゅ ん
アリ ウス
コネ ン
スポン ジ
se ud
釣り 合い
DS M
エク ストラ
サンド イッチ
アム ール
アム ステル
積み 上げ
olog ical
バレ ッジ
ブー ツ
My self
マジ シャン
フィア ット
グラス ゴー
Le ague
とど まり
払い 戻し
エッ シェン
ヨー コ
浴び せ
ツァ ー
レコー ダー
会津 若松
ank a
MUS EU
りん ご
スキ ップ
タナ カ
つな ぎ
つな げる
マイクロ メートル
Col or
Ste fan
すず き
フリードリ ッヒ
レシ プロ
振る わ
Ex tended
Ge ograph
ブラン チ
併せ 持つ
Go od
イチ ゴ
ina e
ject ion
マネ ージ
ラジ エーター
RY U
Sou nd
ゲー メスト
di re
Ber ry
ヴェル サイユ
Res idence
由紀 夫
あや め
ser ies
Br and
GN U
みず き
ペイ アウト
折り 合い
he ad
ボラン チ
コンプ リート
Mo on
cy cl
gr am
カプ タハ
真っ 直ぐ
Cap tain
パシ フィ
フリ ゲート
ブレイ ニー
off icial
CON C
DA Q
Gr ac
sc ient
anc er
EU RO
Off icial
ドラッグ ストア
day s
イグ ナイター
イグ ニッション
タマ ゴ
真理 子
Song s
やさ しい
イブ キ
イブ ニング
ふん わり
コシ ヒカリ
延び る
ドット コム
パカ パカ
Har v
ピラ ミッド
ファル コン
comp le
ティアン ム
DR AGON
クック ルン
コフ スキー
ミシ シ
Sec urity
Tre at
trans fer
アストラ ポテリウム
ビレ ッジ
フロン ターレ
ルネ サンス
isch e
olic y
まみ れ
ピク チャー
グレゴ リオ
FO UR
HY PER
HY BRID
PE ACE
おっ とり
オマ ージュ
フェミニ ズム
モーリ シャス
サブロー ・ハカイダー
Ear th
Ear ly
It al
Key Studio
いや 〜
カシ オペ
ヘー ゲル
スーパ ードラゴン
ドゥー ラン
rel ay
タバ タ
ヘルス システム
メド ーン
opp ix
NI J
二子 玉川
執り 行わ
JAS DAQ
Rol and
þri þi
イヤ ホン
ニチ ロ
リミ テッド
Coun ty
TEN RYU
よみ うり
ストリー ミング
おとな しい
Alex ander
Des ign
Mem o
きた す
クェ ス
ヨハ ネス
ワイヤ レス
COR POR
Hill man
gra mm
イワ ヒバリ
召し 抱え
江ノ 電
ストー リーズ
ディスカ バリー
スケー プ
当ては まる
当ては まら
Hol iday
Hun ter
NAC A
Rail way
ガミ ラス
ノラ マ
膨ら み
アーン スト
August ine
Ju ice
Kn oppix
Mor esnet
Sy mantec
VO ICE
henn ar
かめ はめ
ひで お
ダウ ナー
都道府 県道
インプ ット
オリエン タル
bach a
おろ か
たから さがし
スウィ ンドン
タカラ トミー
ニヒ リズム
End point
トレイ ル
ピッ コロ
阿佐 ヶ谷
クラシ カル
Stre et
Child ren
アセチル コリン
Gam er
コラー ゲン
エンタープライ ズ
camin ar
BLU E
Ga N
Lim ited
MET AL
久之 浜
凄まじ い
インダスト リーズ
Adv anced
Kit aca
Pear l
sop rano
オヤ ジ
ピレ ネー
ペナル ティ
三ノ 輪
多治 見
ポンキ ッキ
open Mosix
Intellig ence
Fragment e
Cym bacha
Kir amune
rub ida
サミュ エル
スロ ベニア
ピリオ ド
プルト ニウム
ペテル ブルク
マジェ スティック
エンジェ リック
パンタ グラフ
Coy ori
Princ ess
Deutsch e
フサイチ コンコルド
GARD EN
Hew itt
Sund ay
SQU ARE
targ et
yamaz o
あふ れる
ウラジオ ストク
ウロボ ロス
エジン バラ
カヤク グリ
シロン スク
ナター シャ
ネフェル カプタハ
ハシリ グモ
プファル ツ
ムキム キ
リハー サル
ロッキ ード
千日 前
有栖 川
有楽 町
邪馬 台
incl ude
プロメテ ウス
アイユー ブ
アーレンス ホープ
ジュウシ マツ
ヴェッキ オ
モータリ ゼーション
アムステル ダム
エッシェン バッハ
MUSEU M
スーパードラゴン ボールヒーローズ
CORPOR ATION
' )
( );
) 、
, 「
0 13
0 67
1 2000
2 200
2 16
2 17
4 12
4 14
4 39
5 20
5 13
5 23
5 33
5 32
6 35
6 45
6 46
7 13
7 29
7 60
7 57
7 75
8 33
8 56
9 80
A E
A le
B or
B et
B and
B om
B AL
B ur
B ul
B ase
B rit
C ec
C RE
C WA
C ry
C ast
C ust
C ert
D ar
D est
D ANCE
D anger
D ynam
E ug
E ld
E du
E YE
E very
E OTA
F G
F V
F ar
F ed
F ER
F FC
F ound
F REE
G K
G on
G es
G ol
G AG
G ran
G ya
G aku
H of
H ell
H ans
H ugh
I a
I ATA
J un
J OR
J ET
K y
K al
K BC
L ag
L CD
L ill
L AND
L ock
L itt
L dB
M é
M er
M ir
M ak
M aj
M ello
M essage
M iller
M ike
N WA
N ath
N ina
N ASA
O A
O zy
P ON
P rec
P sy
P olicy
R S
R et
R ay
R AC
R und
R elease
S V
S z
S on
S IS
S us
S IN
S oc
S EC
S IV
S KE
T od
T un
T ay
T BA
T UR
T osh
T sub
U W
V OR
V ita
W ay
W ik
W HO
W USB
W ater
X A
X III
Y ME
Z AI
a o
a iga
b re
b as
b est
b ran
b ib
b ase
b ps
c d
c it
c ot
c ur
c ry
c ross
d t
d ing
d ia
d ist
d ie
f a
g a
g i
g s
g et
h or
h ill
h ard
h orn
i osa
k cal
l t
l as
l ive
m el
m it
m ake
n ight
o en
o it
o xy
p a
p al
p el
r ino
s a
s un
t k
t ax
t ough
v ent
w ir
x ml
{ \
é r
ð a
ü l
þ ann
А ле
о д
о р
с и
々 し
々 美
あ おり
あ がる
あ した
い り
う く
う め
う かが
え え
え み
お だ
お 伽
お しゃ
お まえ
お っぱい
か じ
か まり
か まっ
き ゅ
く つ
ぐ つ
け が
こ け
ご ろう
さ る
さ かい
さ さき
ざ く
ざ さ
ざ し
じ どう
す まし
ず かし
せ り
せ かい
そ よ
た がる
た なか
だ いいち
つ ぎ
つ ゆ
つ かい
づ ら
て っ
で しょ
ど ー
ど んどん
に ん
ぬ く
ね ぎ
ね つ
ひ く
ひ げ
ひ より
ひ ゅう
ふ ね
ふ わ
ふ とん
ふ つう
ふ ざけ
ぶ し
ぶ た
ぷ ら
ほ し
ぽ う
ま く
ま くり
ま ゆみ
ま ぐれ
み よう
み うら
み ゃく
む さし
め し
も ぎ
も じっ
や たら
や きゅう
ゆ び
よ せ
ら う
れ ろ
ろ っ
わ れる
わ ざと
ア ゴ
ア ザ
ア ホ
ア リカ
ア スペ
ア ブル
ア クロ
ア ブラ
ア ヴィ
ア トラス
ア コーディ
ア ゼリア
イ ユ
イ ヴ
イ スタン
イ ヌイ
ウ ジ
ウ プ
ウ メ
エ バー
エ スペ
エ スコ
エ ゼル
エ チオ
エ リオット
オ ース
オ ミング
オ オカ
オ メドーン
カ オ
カ ギ
カ ゼ
カ ミ
カ モ
カ リー
カ ストロ
カ スケ
カ ワイ
カ ピチュ
カ グヤ
ガ ナ
ガ ネ
ガ レ
ガ リオ
ガ トロ
ガ トー
ガ ティブ
キ ク
キ ビ
キ シン
キ ショット
キ ネマ
ギ ガ
ギ ク
ギ ム
ギ ラ
ク サ
ク ッ
ク フ
ク ティブ
グ ス
グ アイ
ケ シ
ケ ト
ケ ド
ゲ ール
ゲ ルド
コ オロ
ゴ リ
ゴ ック
ゴ リラ
サ ザ
サ クラスター
ザ ラ
ザ リー
シ メ
シ モ
シ ヤン
ジ ギ
ジ ク
ジ ノ
ジ メチル
ス フ
ス カー
ス カル
ス ループ
ス ロット
ス リット
ス モール
ス エズ
ス キュリ
ス ハフ
ズ ィ
セ ム
セ イド
ゼ ネ
ゼ ー
ゼ ヴェス
ソ ニ
ソ ックス
ソ リオ
ソ マリア
タ コ
タ ブ
タ ワ
タ ロウ
ダ リア
チ ト
ヂ オ
ヂ ストン
ッ ス
ッ シブ
ツ バ
ツ ポ
ツ ン
テ ツ
テ クター
テ トラ
テ ッサ
テ ボリ
デ カ
デ コ
デ ナ
デ ヒ
デ イト
デ ニング
デ ブリ
デ ロイト
デ カルト
デ ビッド
ト リン
ト ルー
ト ッド
ト シル
ト マリ
ド ラン
ド ラント
ド タバタ
ナ オ
ナ ッ
ナ ショ
ニ ラ
ニ ワ
ニ ーク
ニ バル
ニ オイ
ヌ ル
ネ ポ
ネ リ
ネ ント
ネ ガティブ
ノ ヴ
ノ ルド
ノ チョーラ
ハ ッカー
ハ プス
ハ ガキ
バ ツ
バ ビ
バ ッチ
バ ッカー
パ ード
パ ウサ
ヒ ム
ヒ ャ
ヒ カル
ヒ ョン
ビ ギ
ビ ブリオ
ピ コ
ピ ピ
フ タ
フ ・
フ ルー
フ リーズ
フ ライン
フ ラス
ブ ウ
ブ ダ
ブ チ
ブ ザー
ブ リーダー
プ タ
プ チャー
ヘ アー
ベ リウス
ペ ーター
ホ ダ
ホ ッグ
ホ ーリー
ホ ゼヴェス
ボ ッシュ
ボ リュ
ポ イ
ポ ス
ポ ッ
マ ウ
マ ロ
マ ング
マ サル
マ テイ
マ ザーズ
マ ージュ
マ ウリ
マ ノイド
マ フラー
ミ ャ
ミ トン
ミ ウム
ム カデ
モ ラス
モ ラル
モ ニュ
モ アーズ
ヤ ス
ヤ ッジ
ユ メ
ユ リア
ユ ーク
ヨ ンド
ラ シュ
ラ クス
ラ オス
ラ ゾー
ラ ッセル
ラ ベンダー
ラ リアット
ラ プソ
ラ ヂオ
リ ィ
リ セット
リ ョウ
リ コーダー
リ キュール
ル チ
ル ドルフ
レ ト
レ バ
レ フト
レ ディオ
レ ナード
ロ ゼ
ロ ベルト
ロ ナルド
ワ ーム
・ ク
・ ハン
・ ヴェ
・ タウン
・ カンファレンス
ー ズ
一 夫
一 段
一 義
一 躍
一 雄
一 髪
三 山
三 脚
三 越
三 輪
上 中
上 北
上 巻
上 智
上 毛
上 郡
下 谷
下 河辺
不 妊
不 意
不 活
世 良
丞 相
両 岸
両 論
両 軍
中 澤
中 生
丸 い
丸 子
丸 栄
主 務
主 機
主 眼
乏 しく
乖 離
乗 ら
乗 継
乱 撃
乱 流
乱 舞
乳 癌
乳 幼児
亀 川
亀 有
亀 谷
争 議
二 つ
井 川
井 筒
亜 美
亡 霊
亮 介
人 吉
人 志
仁 愛
仁 義
仏 典
仕 切っ
仙 田
代 議
令 制
以 遠
仮 初
仰 ぐ
仲 西
仲 六郷
仲 麻呂
伸 長
住 まい
何 処
余 生
供 え
価 数
侵 食
便 り
促 さ
俊 作
保 釈
信 楽
信 綱
信 義
修 一
修 好
修 繕
倉 田
借 入
倹 約
偏 見
偏 諱
健 史
健 一郎
偽 っ
傲 慢
傷 心
傷 痍
傾 い
傾 け
元 亀
元 妻
充 足
先 妻
光 一
全 仏
全 勝
全 協
全 席
全 社
公 約
共 存
内 人
内 在
円 状
冥 王
冬 期
冷 泉
出 仕
出 汐
出 獄
出 金
出 迎え
刀 子
分 村
分 派
切 ない
初 夏
初 段
初 見
別 巻
別 邸
刺 殺
則 っ
前 原
前 夜
前 立
剣 技
剣 豪
剥 き出し
剪 定
創 元
加 川
加 悦
加 担
加 々美
劣 っ
助 命
励 ん
勅 許
勇 猛
勇 退
勉 学
動 植物
勘 三郎
勿 論
匂 宮
包 含
北 宋
北 稜
十 兵衛
千 本
半 弟
半 端
半 額
卓 越
南 港
南 河内
南 相馬
単 調
単 離
卵 胞
原 文
原 曲
原 種
原 稿
原 野
厳 し
参 院
双 六
双 胴
収 載
古 希
古 着
叫 ん
可 食
史 書
右 図
右 肩
右 利き
叶 わ
各 巻
合 せ
合 宿
吉 良
同 胞
同 郷
同 額
名 手
名 阪
名 高い
吏 部
吐 く
君 津
吹 上
吹 雪
吼 えろ
告 訴
周 回
呼 応
命 ぜ
啓 治
喪 服
嘆 き
嘲 笑
四 半
四 神
回 航
因 島
団 長
困 っ
図 式
図 形
国 交
国 債
国 力
国 士
国 歌
国 軍
土 台
土 居
在 る
地 場
地 誌
地 銀
地 頭
坂 町
坐 像
城 西
城 門
執 る
執 拗
基 肄
堂 島
塊 茎
塗 色
塚 田
増 改築
変 調
変 質
変 革
夏 目
夏 祭り
夕 霧
外 敵
外 界
外 資
外 転
多 古
多 角
夢 野
大 前
大 君
大 城
大 塩
大 晦
大 物
大 須
大 麦
大 宰府
天 女
天 明
天 真
天 秤
天 空
天 間
太 っ
太 一
奮 起
女 媧
女 帝
好 投
妖 術
妨 げ
姓 氏
姶 良
字 牌
存 命
孝 子
孝 明
孝 昭
学 費
守 ろう
安 宅
宗 源
官 務
官 兵衛
定 款
定 置
定 遠
宝 くじ
実 包
実 測
宮 脇
家 綱
宿 駅
寄 屋
富 谷
察 し
対 案
封 じる
尋 ねる
導 水
小 人
小 物
小 谷
小 阪
小 清水
少 子
居 合わせ
居 眠り
屈 曲
届 ける
屯 所
岩 出
岩 場
岩 月
崎 村
川 東
川 連
川 沿い
左 肩
左 近
市 会
帝 京
常 任
常 備
平 手
年 賀
幸 雄
幼 体
広 子
広 西
府 内
度 合い
廃 艦
延 焼
建 武
弊 害
式 部
弘 道
弛 緩
強 気
弾 い
弾 力
弾 正
形 見
彩 色
影 野
往 生
往 路
律 子
後 妻
得 失点
御 代
徳 井
徳 庵
忍 法
応 える
忠 雄
快 く
快 楽
怒 ら
急 進
性 欲
怪 盗
恒 常
恵 比
悟 っ
患 っ
悪 心
悪 行
悪 かっ
想 起
愛 国
感 電
慈 善
慈 恩
慈 悲
慕 っ
憲 一
懲 罰
成 務
成 帝
成 美
我 慢
戦 没
戸 河内
所 司
所 沢
所 謂
手 の
手 甲
手 放し
打 球
抗 生
押 小路
担 ぎ
拒 ん
拘 禁
拾 わ
拿 捕
指 せ
挙 がっ
捕 まっ
採 る
推 論
掴 ん
握 ら
損 壊
撮 る
撮 像
支 点
改 心
放 浪
放 火
政 秀
敏 夫
敏 郎
敢 え
散 見
数 理
数 寄屋
整 える
文 体
文 帝
文 楽
文 語
斉 一
斬 新
断 り
新 保
新 社
新 藤
新 馬
旅 人
旅 先
旅 立っ
既 婚
日 蓮
日 課
日 頃
旧 型
旧 暦
早 速
昇 任
明 媚
明 白
明 野
易 い
星 雲
映 る
春 夏
春 雄
春 風
昼 行
晩 餐
晴 天
晴 子
智 之
暗 渠
暗 闇
暫 く
暴 露
曲 集
曳 船
更 衣
書 家
曹 丕
曹 長
有 償
朝 霞
朝 顔
木 の
木 崎
本 宮
本 巣
本 意
本 村
本 業
本 艦
本 選
札 場
朽 木
杉 崎
材 木
村 民
来 訪
東 城
東 宮
東 條
東 福
東 雲
松 花
松 茂
松 虫
松 之助
枕 崎
果 敢
枢 機
栄 作
根 性
桐 壺
桜 町
棚 橋
森 村
森 小路
植 栽
植 田
楽 屋
榛 原
槍 術
権 化
横 幅
樹 上
樹 林
欠 け
欠 席
次 回
欽 明
歌 仙
正 之
正 博
正 彦
正 明
正 樹
武 藤
殉 職
殴 っ
段 丘
殺 そう
母 田
比 内
比 嘉
比 定
比 島
毛 髪
氏 康
民 青
気 まぐれ
水 城
水 滸
水 瀬
水 量
氷 上
汐 留
汚 職
江 波
決 裂
沈 み
沈 ん
沈 黙
河 本
河 原町
治 験
沼 南
沿 道
泉 崎
泉 殿
泉 大津
法 曹
法 華
注 力
洋 上
洋 風
津 久
津 名
活 かさ
流 刑
流 山
浦 波
浩 二
海 援
海 棠
海 沿い
浸 食
消 さ
消 去
深 田
混 入
混 成
混 じっ
渋 沢
減 便
渡 部
温 暖
渾 名
湖 北
湖 岸
湧 水
湯 本
湯 野
満 貫
溜 まっ
漆 器
漏 えい
漠 然
潜 む
澤 村
濃 飛
火 砲
災 厄
炭 田
為 光
無 口
無 敗
無 断
煉 瓦
照 準
照 らし
燃 える
爆 散
爆 炎
父 兄
片 倉
版 権
牛 尾
牛 頭
牧 之
特 任
独 創
独 断
狭 軌
猛 烈
猟 犬
献 帝
玉 山
玉 ノ井
王 敦
王 陵
球 根
璃 央
環 八
甘 く
生 家
生 年
生 駒
産 まれ
田 所
田 町
田 畑
田 鶴
田 植え
由 利
甲 殻
甲 賀
申 込
男 山
町 人
町 史
画 廊
画 集
界 隈
畏 怖
疎 通
疼 痛
病 原
痙 攣
発 声
発 艦
白 夜
白 峰
白 書
白 浜
白 衣
白 雲
白 馬
白 龍
百 瀬
皆 瀬
皇 居
盗 塁
盛 大
盟 友
監 部
目 さ
目 前
目 指せ
直 立
相 方
県 外
真 核
真 琴
真 野
真 奈美
眠 ら
眠 る
眺 望
眺 める
着 せ
着 任
着 席
督 促
瞬 く
瞳 孔
矢 ヶ崎
知 恩
短 気
石 崎
石 母田
砂 塵
砿 専
磐 梯
礼 儀
祀 っ
神 主
神 代
神 保
神 姫
神 父
神 石
神 風
秀 一
秀 幸
私 兵
私 的
秋 冬
称 す
移 入
程 近い
稜 線
稲 作
稲 垣
稲 妻
稲 穂
穂 高
積 む
穴 埋め
空 け
空 域
空 虚
空 輸
空 隙
突 い
立 石
立 神
童 子
端 点
競 り
竹 下
竹 島
等 方
筋 痛
箕 輪
管 長
節 度
節 目
範 疇
米 墨
米 野
粘 液
粟 崎
精 機
純 正
紙 面
紛 れ
素 振り
紫 紺
細 野
細 長く
経 口
経 年
絡 め
給 電
絶 景
絶 版
絶 頂
網 羅
綴 っ
緑 道
線 分
緩 め
緩 行
罧 原
美 原
美 山
美 方
美 鈴
美 奈子
義 久
義 清
羽 ば
翌 月
習 っ
習 性
耐 圧
聖 霊
肥 料
胆 嚢
能 代
脂 質
脅 し
腹 痛
腹 面
臨 席
自 著
自 認
自 負
船 越
艦 尾
艦 攻
良 樹
芸 者
芹 沢
苗 場
苦 境
苦 しみ
英 和
英 夫
英 明
茂 吉
茶 臼
茹 で
草 創
荒 野
荷 車
荻 野
落 書き
葡 萄
蔑 称
蔓 延
蕎 麦
薦 め
藤 森
藤 野
號 國
血 統
行 け
行 基
行 楽
行 灯
術 中
術 後
衛 府
衝 動
被 せ
被 覆
裂 き
裏 門
裏 切っ
裕 司
裕 美
補 欠
製 糸
襲 いか
西 城
西 浜
西 行
西 表
西 軍
要 式
要 覧
覆 っ
見 逃
見 合い
見 捨て
見 抜き
見 届け
見 下し
見 直す
見 栄え
見 下ろす
覚 書
親 分
親 善
親 睦
観 衆
解 禁
触 手
言 霊
訃 報
訓 令
記 法
設 楽
詠 ん
詠 一
試 料
試 案
話 せ
読 める
調 合
調 味
論 議
諸 家
諸 藩
譜 代
議 案
譲 る
讒 言
豊 洲
貞 時
負 圧
負 ける
財 物
貫 か
貯 留
買 取
貸 付
費 やさ
賃 借
賛 美
賢 人
賢 明
贈 呈
贔 屓
赤 塚
起 っ
起 立
越 さ
跨 い
踏 ま
身 内
車 外
車 検
車 載
軌 条
軍 政
軍 閥
転 回
転 覆
辞 世
辰 子
迫 力
述 懐
追 憶
追 突
逗 子
通 交
速 球
逢 っ
連 中
連 休
連 接
連 立
進 呈
遊 具
遊 郭
道 線
遠 ざけ
適 さ
適 宜
遭 い
遺 棄
遺 物
部 材
都 度
都 県
配 役
酔 い
酢 豚
里 奈
里 菜
重 厚
重 装
重 連
野 砲
量 販
金 塊
金 栗
金 森
金 太郎
釜 石
鉄 人
銀 賞
銃 殺
銅 鑼
錯 誤
鎮 静
長 き
長 井
長 兄
長 江
長 泉
長 浜
長 船
閉 経
開 化
開 廷
間 質
閣 下
防 爆
阿 修羅
陛 下
陣 内
陵 王
隊 士
随 伴
隔 月
際 立っ
隠 す
隠 密
隣 駅
雅 人
雅 史
雅 楽
集 客
集 大成
雛 菊
離 反
難 色
雪 国
雷 鳴
電 光
電 燈
震 え
霜 月
露 呈
靖 国
静 寂
静 態
静 馬
非 道
面 識
鞍 上
順 一
頭 山
頭 蓋
頼 ら
頼 る
願 望
類 する
風 光
風 邪
飛 越
食 っ
食 わ
食 感
飢 え
飯 場
飯 能
養 殖
首 領
首 飾り
駆 潜
騙 さ
骸 骨
高 嶋
高 槻
高 次
鬼 束
魏 書
魔 性
鮮 明
鳳 来
鳴 らし
鴫 野
鶴 光
鷹 宮
黄 海
黄 疸
黄 緑
黒 斑
黒 猫
黒 野
ター ド
なる ほど
10 30
10 50
イン フル
イン ストラクター
スト ール
ラン ズ
あり さ
00 2
11 11
18 22
18 40
18 39
ディ ード
おり ん
ント ヴィ
ティ コ
ティ モ
ティ マー
ライ プ
ライ アー
ライ トン
in ation
in te
15 26
15 98
15 82
15 93
リア リティ
コン ポー
コン ツェ
コン ロッド
コン ラト
コン ラート
バー チャル
en cy
ロー ゼ
プロ ボ
プロ ピオン
アル ダ
アル ガトロ
16 19
16 14
16 60
16 63
16 01
or ial
シャ ール
シャ ウト
サー ブ
サー サーン
タイ ナー
タイ ラント
ステ ート
17 10
17 15
17 17
17 89
17 94
17 92
キャ ビン
キャ ロル
しか け
フィ オ
フィ ズ
フィ ロ
フィ ケーション
リカ ル
ジャ ワ
ジャ ニーズ
ジャ ディブ
ジャ ガーズ
al og
マン タ
14 29
ダー ティ
25 3
25 9
ホーム レス
ラー ン
ラー オメドーン
カー ギル
カー ペット
ic er
シー バー
サイ ク
サイ ヤ
チャ ーター
チャ クリ
チャ ンドラー
リン ・
リン 酸
とも だち
スタ メン
ルー サー
ルー ラー
シュ テュルプナーゲル
エン ザ
エン コーディング
24 9
セン ジャー
パー フェ
パー キング
ジョ ジョ
ジョ フリー
ジョ シュア
ドラ ス
ドラ マー
取り 除く
取り 決め
取り 止め
取り 調べ
取り 留め
取り 巻く
フォ ック
28 3
it age
it ão
27 9
ッチ ョ
ウェ ルス
レン シュレー
キー ノ
mm B
mm ×
スペ シャ
フェ ラ
フェ ザー
フェ タミン
コー イヌイ
サン ケイ
アン タ
アン プ
アン キロ
アン モニア
29 1
29 5
29 7
かつ き
アイ ク
アイ ズ
アイ リス
アイ ナー
アイ リーン
st at
st ud
st ate
50 6
ro ad
ro ph
ブル ーム
フラン ジ
ベル タ
ベル ン
中央 町
さら さ
ch or
IC U
le ction
モン ロー
チェ フ
チェ ・
引き 戸
引き 裂
引き 合い
引き 下げ
クロ ニクル
コミ ュー
40 5
とき わ
IS ON
am ond
am orph
us ion
as y
as aki
ニー ダー
グラ ビ
持ち 前
持ち かけ
il y
マー サー
タン ポポ
ブラ ル
ブラ ザー
バル タン
カル ル
マイ レージ
ンス ン
ac ca
ヴィ ジュアル
ヴィ レッジ
ガン ガン
ing ton
レス ネット
レス キュー
デー ビス
60 4
パン ナム
ent i
テー リング
アク ス
アク セル
アク ティブ
アク リル
St art
ウス ティーク
カイ コ
ハン デ
ハン プ
ハン ガー
ハン コヤ
ビー バー
TO M
TO U
TO DAY
TO ICA
ra is
US E
US H
AR S
ワー フ
エル ボー
ロン チェロ
ガー デニング
IN A
IN T
カン ヌ
生まれ つき
生まれ 育っ
入り 込ん
48 2
パイ ナップ
パイ オニア
インター フェース
ON G
ユニ リーバ
いわ い
いわ く
けれ ど
em por
ハイ マツ
切り 替わる
ウム ガルト
キロ グラム
シェ モ
シェ ーク
AT UR
33 7
ウォ ッカ
ir i
立ち 塞
立ち 直
立ち 上がる
立ち 並ぶ
リオ ス
リオ ッツ
ロック ン
ad d
ジー ミル
AL BU
55 00
ur s
AS P
AS ON
80 2
スカ リ
フリー ダ
ラス ボス
os oph
行き 先
ケン ブリッジ
下り 坂
エイ チ
EN E
44 6
ht ml
クラス メート
ちら し
EC W
フル カワ
フル オロ
Ch u
Ch amp
ミー リーン
セル ロース
37 3
ユー モラス
替え 唄
ジャン ク
AC H
トラン ジット
ロス ラヴ
ers ch
フレ ディ
フレ ッチャ
58 3
58 5
デュー ク
キュ ート
ブリ ヂストン
打ち 消し
HE AD
HE LL
HE AVE
ov ers
アラ キ
アラ バマ
付き 合う
ストラ ップ
ディア ス
チョ ップ
ネス コ
カラ クリ
エレ キ
グレ ネード
クル アーン
ノン フィクション
オペ レーション
スコ ル
アフ ロ
PC E
チェン ツァ
チェン バレン
CM P
ID S
至る 所
Re port
Re public
57 1
PS A
PS Y
ヴォ ヤッジ
59 2
IT Y
ブレ ヒト
かん たん
追い 討ち
RE MIX
しゃ かい
ニュ ルン
迎え 角
YO UR
デオ キシ
デオ ドラント
ドー ガ
186 6
いち 早く
49 9
きっ と
モー ビル
カラー ズ
ニッポン レンタカー
BO DY
CH I
グル ントヴィ
メイ ヤ
ens ion
備え 付け
ME ET
ME MOR
巻き 付く
AD M
落ち 着
乗っ 取り
TR I
たく ましく
向か わ
AG I
ワイ オミング
クリス ティ
アンド ロ
サラ マンダー
振り 分け
振り 回し
for d
ホル ツ
ホル ダー
モンスター ズ
せん しゅ
読み 込む
978 45
見せ かけ
ボン ネット
Pro vid
フロ キサシン
フロ ッピー
レット ウ
言い 換え
ゴール キーパー
オート アールズ
スラ ブ
スラ ッガー
デイ ジー
ect or
飛び 出せ
TOK IO
ローズ ウッド
ip s
BA Y
te xt
ビジネス マン
WA F
リッチ ー
やり とり
やり 直す
スポ コーイヌイ
ニン ゲン
ミュ ラー
sh ip
SU M
SU MM
止め よう
ノル ディック
披露 目
くら べ
当たり 前
モノ ローグ
Pr ince
ver t
バンク ーバー
たん き
てん か
てん ぷく
売り 込み
エスト ラーダ
カタ パルト
MC F
77 7
ウィン ザー
ED O
De ad
かさ 上げ
よし ひろ
突き 出し
マグ ナム
マイル カ
申し 訳
申し 込み
申し 出る
エー レンシュレー
ヒュー マノイド
ポリ ドール
af t
ヒト ラー
ウェル カム
スライ サー
メガ ワット
En core
by te
見つ める
見つ かり
エフ タル
SO UL
ber ry
マッチ ング
per i
張り 巡
駆け つける
セミ プロ
モニ タ
モニ タリング
盛り 上げ
盛り 上がり
DO WN
セー リング
ゾン ビ
五十 鈴
小野 田
中島 公園
メス ナー
キュー バ
ハッ キリ
釣り 竿
Or gan
スリー パー
テロ リスト
探し 物
Ph ys
du ction
pro p
アム ロ
積み 重ね
SE O
SE ASON
oo th
セレ クト
セレ クタ
Sc ott
Sc ript
pl an
オイ リオ
高田 馬場
Am az
net conf
アキ テッカマン
ハード ル
Le itão
不可 解
ern a
ウォル ター
アウ ディ
ヨー テボリ
Comp ut
Comp uter
レコー ズ
スティー ブ
Bo x
タナ ベ
Ab ema
Ed ward
Play back
ハル シオン
ミリ メートル
ミリ グラム
ムーン ライト
叩き 込む
叩き つける
飲み 物
飲み 込ん
Ste am
Ste phen
ナイン ティ
忘れ 去ら
Mon t
みな もと
インテ リア
ark ness
ダイナ マイト
Day Da
ショウ グン
シリア ス
エンター テイメント
Lin k
ブラン デー
やる 気
移り 住み
レオ タード
ラジ アル
明け 渡し
Sou l
アセ ト
オム ツ
ノール ト
千鳥 町
抱き しめ
ゲー テ
ドキ ドキ
ライオン ズ
amp le
MR I
タカ シ
over y
SL YME
pt ila
ガリ レオ
ノイ ローゼ
由紀 子
アレル ゲン
JO JO
まか せ
スプリング ヴォヤッジ
バイオ グラフィー
QU ATT
gen cy
Br uno
Is lands
オーク ション
ペイ ジ
届け 出
Ap pl
パウ ダー
ボト ラー
リモ コン
目覚 める
ild ing
アレクサンド リア
Man agement
ori ac
Ind ust
BL ACK
ブレイ ブ
占い 師
ジャーナ リズム
Dis ney
rp c
On og
Wh ite
テオ ドルス
ott en
アッ シリア
貼り 付ける
Comm on
デラ ウェア
大い なる
目論 ん
ファミ 通
ウォーター フロント
Com ix
Fran ces
MON D
ミール ヌイ
Par is
ビザン ツ
ヘッ ダー
ブレイン ダー
Mot o
Mot z
Mot or
oph on
なぎ さ
アブ グレイブ
ア・ クー
ア・ バオ
アング レ
ウイ ーク
ウイ グル
ゼット ン
ピュ ア
コバ ルト
Her itage
Sec ret
bl ue
コリ ニー
金田 一
isch er
クリエイ ター
エキ ストラ
メリ ッサ
Char les
Class ics
Cont empor
Part y
あす か
ネラ ホゼヴェス
ホルム スク
ポポ ラマー
ロッ ソ
吊り 下げ
not e
not es
たどり 着い
たどり 着く
ほの ぼの
インス ブルック
Amer ica
ヴォルフ ガング
Fre e
NI K
PL AY
her e
あお もり
オズ ワルド
オモ イ
カロ リー
ワク チン
CJ K
Soft ware
ヒラ メ
リミ ッター
仕方 なく
Java Script
PART Y
fin ite
ヘド グロス
Sil ver
イェ ール
ウラ ジーミル
ゾロ 目
ポテ ト
八百 津
ラグナ ロク
Fin al
Lab oo
ツイ ッター
モ・ チ
クロン ヌ
HEART S
Bit Torr
Mel ody
PRE S
PRE SS
つば め
デパート メント
築き 上げ
LOG iN
ニシキ ヘビ
bet a
ササ ニシキ
トキ ワ
ボコ ボコ
オリエン テーリング
North ern
Top ix
くみ あい
スピー チ
大矢 知
ヴィクト リア
Dire ctor
フライヤー ズ
Commun ication
Dan iel
Flex Comix
Gal axy
Rom an
mot ion
わだ かまり
エフェ クト
コメ ディー
サラーフ ッディーン
スクラ ップ
リターン ズ
気仙 沼
カルボ キシ
COMP LET
CHO OL
Cir cus
HAM MOND
Pv t
Tex t
セネ ガル
丸太 町
映し 出さ
マルコフ ニコフ
Bel ieve
Gard en
なご や
スモ ーク
スナイ パー
アルカ ディア
エンカ ウスティーク
プレイオフ ・カンファレンス
spl it
þrið jung
浮かび 上がる
Fore ver
Pent ium
VOCAL O
にい がた
オア シス
キ・ モ・チ
ピスト ル
ヘッジ ホッグ
美代 子
西園 寺
長久 手
フェノ トリン
フェロ モン
ORIG INAL
ルクセン ブルク
Beaut y
Wonder ful
Ath lon
Mov ie
さよう なら
アパ レル
アミューズ メント
エグ ゼ
エプ ソム
サツ マ
チルド レン
グラナ ダ
ホーエン シュヴァンガウ
Gramm ophon
Innoc ent
hydrogen ase
-? )
Apr il
Jac ques
Lou is
Sin fon
Und er
くしゃ み
たず ね
シトロ エン
スプレ ッド
ドミナ ント
ナデ シコ
ペイト リオッツ
マディ ソン
菜々 子
コンディショ ナー
アルブ ミン
アルフォン ソ
フェイエ ノールト
マネージ メント
Grac ie
イブキ ジャコウソウ
ミシシ ッピ
Nath an
Ozy ptila
Prec ision
Rund fun
Tay lor
Tsub aki
Але кс
アコーディ オン
イスタン ブール
エスペ ラント
エチオ ピア
カスケ ード
カピチュ レーション
ケト アシドーシス
コオロ ギ
サクラスター オー
スキュリ ツェ
ソニ マージュ
ハプス ブルク
パウサ ニアス
フライン グ
プチャー チン
ボリュ ーム
ミャ ンマー
モニュ メント
ユーク リッド
ラクス マン
ラゾー ナ
ラプソ ディ
大晦 日
恵比 寿
松花 堂
田鶴 浜
襲いか かっ
インフル エンザ
アルガトロ バン
ハンコヤ ドットコム
パイナップ ル
ウムガルト ナー
ALBU M
フルカワ ミキ
HEAVE N
ニュルン ベルク
SUMM ER
QUATT RO
ア・バオ ア・クー
Contempor ary
ポポラマー マ
BitTorr ent
COMPLET E
プレイオフ・カンファレンス セミファイナル
' 」
) ]
0 24
0 45
0 90
0 208
2 19
2 13
3 10
3 27
3 38
4 16
4 31
5 18
5 14
5 21
5 38
5 41
6 21
6 60
6 42
7 10
7 12
7 55
7 58
7 69
8 39
8 90
8 41
9 30
9 17
A ge
A gency
B at
B ass
B MW
B aby
B irth
C Z
C and
C ra
C FD
D H
D er
D et
D ata
D aw
D own
E B
E p
E AL
E VER
F B
F an
F em
F IT
F LO
F all
F ib
F IV
F ly
F arm
F ilm
G i
G ig
G et
G EC
G TR
G NO
H K
H R
H an
H PC
I AN
I LE
J ur
J IM
K D
K Y
K um
K MP
K DD
K GB
K ISS
K EDO
L and
L ak
L CO
L ess
L ie
L ord
L aw
L ISP
M Z
M un
M ast
M ey
M ann
M ond
M ult
M orn
M aster
M itch
M bps
N U
N IS
N am
N BC
N AS
N IA
N ame
O g
O m
O PC
O LD
O OM
O UT
P F
P I
P or
P AP
P PC
P av
P HP
P ost
R h
R PC
R est
R IE
R osa
S ac
S AN
S AM
S OS
S CO
S ab
S IR
S IL
S uss
S ony
S phere
S ource
T C
T w
T ar
T ou
T em
T SS
T ik
T NT
T own
T alk
T ough
T ALK
U V
V en
V ic
V OCA
V IDE
W H
W I
W R
W il
W ester
X V
X ML
Y es
Y OS
] 、
b on
b en
b ro
b eg
c z
c re
c ir
c ation
c up
c amp
c oun
d f
d ella
e very
f es
f il
f are
f irst
g ut
g man
g art
h n
h é
h ell
h ist
h ib
h ann
h ost
h ouse
i A
i ć
i pr
i que
i Tun
j e
k an
k Pa
l en
l um
l oc
l ab
l ik
l ife
m ed
m em
m os
m ov
m ain
n ame
o is
o mm
p op
p ass
p end
p ost
p ower
p df
r at
r am
s s
s im
s our
s ong
t es
t ak
t ick
t ake
u ar
u ed
u ck
v a
v in
v en
v is
v as
v ad
v oc
v ideo
w ar
w ood
y d
z e
z opp
é e
ð i
а я
д е
и к
н ый
々 しく
」 ("
あ み
あ がっ
あ ぶり
あ てる
あ かね
あ ふれ
う ず
う いん
え ち
え り
お たく
お ろし
か う
か ぐ
か に
か なわ
か ずみ
き ず
き づ
き むら
く ノ
ぐ さ
ぐ み
こ な
こ ば
こ する
こ もっ
こ まち
ご し
ご っ
ご めん
さ び
さ む
さ ながら
さ っぽ
さ がみ
ざ っ
し だい
し ずく
じ て
す む
ず り
ず れる
せ と
そ ぐ
そ うち
た まり
た どっ
だ さ
だ に
だ る
だ らし
ち づ
ち わ
つ づけ
つ づき
て き
て ら
と げ
と ち
と に
な ろ
な つき
に ぎ
の け
の 頭
の とり
は ぐ
は だ
は れ
ぱ く
ひ っ
ひ でき
ぴ ん
ふ さ
ぷ い
べ り
ま げ
ま ほ
ま わっ
ま ほう
ま がい
ま じめ
ま ひる
み ほ
み える
み くり
み づき
め っ
も く
や け
ゆ うち
ら ら
る み
る り
れ つ
わ せ
ア ト
ア スト
ア ード
ア ステ
ア パー
ア ナル
ア ッシュ
ア ベン
ア トム
ア パッチ
ア ジーズ
イ オ
イ サ
イ ミ
イ ード
イ ージ
イ シュ
イ モリ
イ サム
イ レーナ
ウ チ
ウ イル
エ ミ
エ ミー
エ ブリ
エ タリ
オ スト
オ アン
オ ルト
オ ハイ
オ デュ
オ ハラ
オ フェンス
オ ニール
オ キナ
カ ゴ
カ ド
カ ボ
カ ッション
カ シオ
ガ タ
ガ ニー
ガ ドリ
ガ レージ
キ タ
キ チ
キ オス
キ ツネ
ギ ト
ギ リー
ギ ニー
ギ ラ・
ク セ
ク エン
ク リュ
ク エイ
ク ヤマ
グ リア
グ ルト
グ アテ
ケ ニア
ケ ンス
ケ ーター
ケ ゴール
ゲ エ
ゲ バ
コ ズ
コ ツ
コ ップ
コ ナー
コ ックス
コ ニー
コ ヴォ
コ ッポ
ゴ マ
ゴ ッズ
サ ニ
サ ワ
サ ック
サ ニー
サ ミー
サ ントン
サ トウ
サ ベリウス
ザ キ
ザ ワ
ザ ッパ
シ スター
シ ックス
シ ビル
シ アーノ
シ デント
ジ リ
ジ スト
ジ モス
ス ニ
ス レイ
ス ロン
ス グル
ス クロール
ス ヴャ
セ ファ
セ カイ
セ ドロ
セ シリア
セ ドリック
ゼ ス
ゼ ファー
ゼ リク
ソ ニアン
タ ルト
タ トル
タ カン
タ ッカー
タ スケ
タ ヌイ
ダ カ
ダ リ
ダ ディ
ダ リング
ダ ガー
ダ キア
チ ク
チ チ
チ ロ
チ ヌイ
チ ラシ
ツ ジ
ツ ハイマー
ヅ ァ
テ ヘ
テ ング
デ キ
デ レ
デ ック
デ イル
デ カン
デ リク
デ ファクト
ト バ
ト ピ
ト リス
ト ピア
ト ワイ
ト ニン
ド メ
ド イル
ド レッド
ド リフト
ド ヴォ
ド ワーフ
ナ ギ
ナ ド
ナ イル
ナ タン
ナ リズム
ヌ マ
ヌ アツ
ネ イル
ネ アダ
ノ モン
ノ ートル
ノ ヴァ
ノ グチ
ハ プ
ハ ック
ハ ニー
ハ ヅァ
バ ダ
バ ディ
バ リュー
バ ヌアツ
パ ター
パ ース
パ シー
パ イル
パ ウル
ヒ キ
ヒ ノキ
ビ オ
ビ ッ
ビ ネ
ビ エン
ビ タル
ビ ッカ
ビ グ・
ビ バップ
ピ ルス
ピ ョン
フ アン
フ ルート
フ シグ
ブ ックス
ブ ランク
ブ ティック
プ エ
プ ッチ
プ リス
ヘ ス
ヘ テ
ヘ クト
ヘ タレ
ベ ク
ベ シ
ベ レー
ベ ネット
ベ ガス
ペ ンス
ホ ヤ
ホ ント
ホ ッジ
ボ ック
ボ リス
ボ イル
ポ プ
マ ム
マ クス
マ シュー
マ ケド
ミ ネット
ミ リティ
ミ ョン
ム シャ
ム スタ
モ ミ
モ モ
ヤ クト
ユ ジノ
ユ ネスコ
ヨ ヴィ
ラ タン
ラ カン
リ ガ
リ ザ
リ ッ
リ ニ
リ ポ
リ ョ
リ マスター
リ ムー
リ リーフ
リ ダイレクト
ル シ
ル ッ
ル テ
ル ダー
ル イーズ
レ ベ
レ ボ
レ ヴィ
レ ザー
レ クイ
レ ッタ
レ リーフ
レ タリア
レ ボリューション
レ バレッジ
レ ゲエ
ロ スター
ロ ッサ
ロ ドリ
ロ サス
ロ シアン
ロ シヤン
ワ タナベ
ン バ
ン ター
・ ジ
・ ル
・ チャ
一 之
一 八
一 幕
一 志
一 手
一 望
一 点
丁 寧
丁 数
七 味
七 郎
万 事
万 歳
三 位
三 枝
三 百
三 ヶ根
三 野瀬
上 人
上 品
上 島
上 帝
上 気
上 肢
上 達
下 座
下 手
下 村
下 板
下 津
下 落
不 備
不 同
不 定
不 整
不 知
不 破
不 義
不 老
不 評
不 真面目
与 那
世 南
両 替
両 毛
両 翼
両 耳
両 脇
並 外れ
中 二
中 沢
中 米
中 絶
中 腹
中 近
中 通
中 ごろ
中 高層
丸 型
主 事
主 幹
主 教
主 旨
之 口
乗 れ
乗 換え
九 条
乱 交
乳 がん
亀 田
予 後
予 期
争 わ
二 指
二 男
互 助
井 の頭
亜 紀
交 尾
交 わっ
交 わる
享 受
京 城
京 大
人 参
人 望
人 魚
人 食い
仁 摩
仁 王
仁 美
今 昔
今 村
今 池
今 福
今 出川
介 さ
仏 像
仏 式
仏 殿
付 帯
付 記
仲 宿
仲 良し
件 数
伊 吹
伊 福
会 得
会 頭
伝 染
伝 聞
似 せ
伽 藍
住 処
体 幹
体 性
余 る
余 命
余 波
作 庭
作 法
佳 子
依 田
便 乗
俊 之
俊 樹
俊 直
俊 足
値 上げ
倦 怠
倭 姫
偉 業
偏 角
做 さ
健 二
偽 り
傍 観
催 し
傾 き
僅 差
元 旦
元 本
元 正
元 親
充 てる
兆 し
先 住
先 んじ
光 弾
克 己
入 党
入 室
入 替
入 江
全 寮
全 治
全 艦
全 軍
八 つ
八 咫
八 尾
八 達
公 有
六 輔
典 範
兼 高
内 通
再 春
冷 徹
凱 旋
出 で
出 稼ぎ
刀 身
分 水
切 妻
列 記
初 富
初 旬
別 物
別 線
利 尿
刻 む
削 り
前 出
前 列
前 奏
前 座
前 脚
前 駆
前 倒し
副 本
副 葬
割 ら
割 安
加 水
加 護
加 重
加 奈子
助 力
助 役
助 長
労 委
効 き
効 能
勅 使
勝 て
勝 る
勝 也
勝 訴
包 帯
化 物
北 本
北 畠
北 越
北 マリアナ
匹 見
区 民
区 長
区 割り
十 二指
千 子
千 家
千 島
千 恵子
南 外
南 家
南 洋
南 紀
南 関
南 阿蘇
単 勝
単 葉
博 之
博 愛
即 売
厚 岸
原 毛
原 版
厳 島
厳 罰
双 発
受 電
叙 爵
口 腔
句 碑
叩 い
叩 く
可 燃
可 用
可 逆
右 足
叶 う
号 し
司 空
各 号
各 界
各 車
合 田
合 築
合 議
吉 塚
同 所
同 書
同 然
同 部
同 馬
名 取
名 字
名 産
名 鑑
名 指し
向 う
吸 っ
周 濠
味 付け
命 題
命 ずる
和 也
和 製
哀 れ
品 位
品 目
哲 生
唐 代
唱 歌
唾 液
商 学
商 家
善 行
喋 り
喜 ぶ
喜 利
営 み
嘱 託
器 量
嚆 矢
回 廊
団 扇
団 連
図 会
図 面
固 執
固 溶
国 制
土 井
土 着
土 讃
土 間
在 京
圭 子
地 鉄
坂 口
坂 戸
垂 れ
垂 仁
垢 離
垣 間
埋 まっ
埋 もれ
城 代
城 址
城 壁
執 務
堅 物
堪 え
塗 っ
塗 る
塩 屋
境 遇
増 山
増 悪
増 量
増 長
墨 田
売 品
変 型
変 性
変 色
夏 侯
夏 場
夏 子
夏 期
夕 陽
夕 焼け
多 分
多 客
多 層
多 段
夢 中
大 中
大 倉
大 全
大 判
大 化
大 審
大 徳
大 沼
大 理
大 目
大 糸
大 豆
大 軍
大 関
大 隅
大 雑
大 雪
大 食
大 麻
大 三島
大 喜利
天 川
天 水
天 照
天 目
天 馬
太 神
太 宰府
失 明
失 格
奏 上
奏 でる
奥 田
奥 行き
女 工
妖 艶
妙 見
委 任
娘 婿
子 安
子 規
学 業
孫 娘
孫 文
宇 津
宇 田
宇 田川
安 中
安 西
宋 江
完 走
官 立
定 食
定 まっ
実 兄
実 刑
実 感
実 検
宮 下
宮 坂
家 伝
家 出
家 宅
家 斉
宿 屋
審 問
寺 井
寺 尾
対 価
対 数
対 日
封 筒
射 手
将 人
将 官
尊 王
小 坂
小 札
小 沼
小 湊
小 竹
小 脳
小 原田
小 矢部
尺 度
尾 形
尿 中
尿 素
局 面
屈 筋
山 伏
山 会
山 型
山 水
山 王
山 都
山 之口
岩 戸
岩 木
岳 人
崇 め
崎 山
嵩 上げ
工 員
左 足
巨 漢
市 名
市 政
布 袋
希 生
帝 國
帯 域
帰 ら
帰 化
常 人
常 会
平 岡
平 松
平 三郎
年 春
年 貢
幸 男
広 見
広 間
広 小路
庇 っ
度 量
庶 流
延 久
延 暦
建 康
建 福
廻 り
廻 船
弄 便
引 数
弘 明
弘 法
張 力
強 め
弾 劾
当 代
当 寺
彦 根
彩 ら
彷 徨
役 務
待 た
後 天
後 衛
後 押し
徒 手
得 分
御 曹
復 古
復 路
徳 弘
徳 永
徳 銖
心 血
心 酔
忌 避
志 す
志 津
志 紀
忘 れる
忙 しい
快 感
快 挙
思 える
怠 け
怠 っ
怪 奇
怪 しい
恐 喝
恒 等
恥 ずかし
恭 子
恵 那
悟 り
悪 事
悪 戯
悪 霊
惨 殺
惹 き
愉 快
意 訳
愚 痴
愛 山
憶 測
成 否
戒 め
戒 名
戦 功
戦 勝
戦 況
戴 冠
所 収
手 代
手 口
手 持ち
手 ブレ
手 ぶくろ
払 わ
扶 桑
承 保
技 量
投 擲
抗 菌
押 切
拒 む
拓 殖
拘 縮
拝 殿
拾 遺
指 先
挑 ま
授 かり
排 撃
探 る
接 吻
推 さ
推 力
推 察
揃 う
揉 み
提 げ
揺 さ
損 ない
損 なわ
搬 出
携 え
摩 耶
操 っ
操 舵
改 廃
改 竄
改 ざん
放 り
放 流
政 利
故 事
敗 訴
教 化
教 唆
教 祖
教 程
教 鞭
散 らし
敬 宗
敵 兵
敵 弾
文 中
文 京
文 成
文 治
文 藝
斑 紋
断 崖
新 卒
新 報
新 月
新 太郎
新 温泉
施 術
旅 路
旅 立つ
日 南
日 当たり
旬 報
昇 天
昌 幸
明 智
明 暦
明 王
星 団
映 っ
春 彦
晋 三
晩 成
普 天間
景 品
景 清
智 也
智 美
暖 炉
暦 応
曇 り
曲 名
曲 折
更 年
會 社
月 亭
月 山
月 田
有 体
有 向
有 声
有 益
朋 子
朝 来
朝 貢
期 す
期 末
木 々
木 原
木 地
木 工
末 寺
本 地
本 心
本 所
本 条
本 科
本 貫
条 数
来 島
来 店
来 未
東 出
東 村
東 欧
東 葉
東 詰
東 野
東 陽
東 筑摩
松 村
板 東
林 冲
林 檎
果 汁
果 皮
枝 管
枯 渇
枯 葉
染 丸
柳 原
柴 原
柴 咲
校 尉
校 訓
根 元
根 強い
桜 子
森 下
植 木
業 態
楷 書
概 して
構 図
模 擬
権 令
横 穴
横 向き
檀 林
欠 き
歌 人
正 々
正 子
正 路
武 夫
武 彦
武 生
歩 む
歳 下
歳 月
死 す
死 霊
残 酷
段 落
殺 陣
母 方
毒 草
比 類
民 団
気 管
気 遣
気 付く
水 利
水 車
水 門
氷 川
氷 見
永 住
永 楽
江 夏
江 崎
江 州
江 田
池 谷
沈 下
沖 合
沢 山
河 童
沸 騰
治 虫
沼 地
泉 南
泉 佐野
法 服
法 規
波 乱
波 状
泳 ぎ
洋 食
洞 爺
津 野
浅 く
浙 江
浦 田
浪 士
浪 江
浮 揚
海 人
海 陸
海 ほたる
浸 潤
液 状
混 じり
清 く
清 宮
清 志
清 洲
清 流
清 潔
渡 来
温 室
湯 山
湿 度
満 塁
準 用
溶 接
溺 死
滅 ぶ
滑 空
滑 らか
漁 場
漏 らす
演 者
漕 ぎ
漢 語
漫 遊
漬 物
潜 っ
潜 伏
潜 航
潰 す
灌 漑
火 打
火 花
灰 原
炭 化
点 滴
無 き
無 実
無 月
無 煙
焼 か
焼 く
焼 損
煙 草
照 れ
照 らさ
煽 動
熱 湯
熱 量
父 母
物 部
特 区
特 牛
狭 小
獄 中
玉 城
王 政
王 権
現 物
環 七
瓜 二つ
甘 え
甘 えん
甚 だ
生 島
生 死
生 花
生 贄
生 える
生 真面目
産 ま
用 事
田 植
田 んぼ
由 加
由 布
由 美子
申 告
男 勝り
町 外
町 並み
留 める
畠 田
疎 外
疑 っ
疑 念
病 人
病 者
痴 漢
発 せ
発 育
発 起
白 兵
白 州
白 旗
白 泉
白 老
白 露
的 確
皆 無
皮 下
盗 む
盗 撮
盗 電
監 理
目 印
盲 点
直 系
直 角
直 音
相 可
相 川
相 生
相 乗り
県 会
真 一
真 下
真 之
真 介
真 性
真 里
真 駒
眼 下
着 地
着 火
着 替え
矢 先
矢 本
矢 田
知 略
短 所
矯 正
石 下
石 塔
石 頭
破 滅
硬 度
硬 質
確 執
磨 く
磯 崎
社 地
祐 子
祝 賀
神 技
神 格
祟 ら
祭 典
秀 則
秋 元
秋 則
秋 頃
科 類
秦 律
秩 父
種 間
種 鶏
稲 川
稲 沢
穂 別
穂 波
積 層
積 荷
穴 水
空 也
空 前
空 胞
突 出
窪 み
窪 田
窯 場
窺 わ
窺 える
立 入
立 正
竜 泉
章 三
童 貞
童 貫
端 数
端 麗
競 い
竹 原
竹 林
竹 簡
竹 鼻
笛 吹
笹 川
等 高
筑 後
筒 賀
管 領
篤 農
米 山
米 沢
粘 り
粘 土
精 一
精 肉
精 通
糸 球
約 数
納 屋
納 涼
純 真
紗 英
紙 工
紙 魚
素 元
素 敵
索 引
索 敵
組 手
経 典
経 団連
結 党
結 節
給 仕
絵 美
絶 っ
絶 好
継 手
綜 合
綾 乃
綾 小路
総 勢
総 省
総 研
総 覧
緑 化
編 ん
縮 め
繋 が
繋 げ
繰 上げ
罪 悪
罵 倒
羅 漢
美 春
美 浦
美 貌
美 津島
美 都子
美 栄子
群 落
群 論
義 光
義 兼
義 勇
義 忠
羽 前
羽 目
羽 黒
翼 端
老 け
老 年
老 衰
聾 唖
肉 屋
肉 感
肝 心
肝 炎
育 児
育 英
背 甲
背 鰭
胞 胚
能 率
脇 見
脱 却
脳 髄
腹 甲
腹 膜
膨 れ
膨 らん
臣 籍
自 制
自 習
自 首
臼 杵
興 福
舐 め
船 尾
艦 砲
良 太
良 民
良 洲
芝 浦
花 期
花 王
花 茎
花 見
芳 文
芳 蔵
若 菜
若 衆
英 字
英 数字
茂 林
茂 男
茂 雄
茉 莉
草 川
草 案
草 食
荏 原
荷 主
菌 糸
華 人
華 北
落 札
葉 巻
葉 梨
蒲 生
蔚 山
蔵 元
薬 莢
藍 田
藤 が丘
藩 兵
藩 内
藩 邸
藻 岩
藻 類
虚 空
虫 卵
虫 よけ
蛇 腹
蛇 行
蝙 蝠
蝦 夷
行 伝
行 ける
街 中
街 並み
表 側
衰 弱
袈 裟
裁 定
裁 断
裕 一
褒 め
西 伯
西 島
西 遊
覇 王
見 当
見 合っ
見 抜く
見 守っ
見 当たら
見 下す
覗 き
覚 ます
親 切
親 愛
解 さ
解 法
解 ける
触 雷
計 らい
託 さ
訪 朝
訪 ねる
許 諾
訳 し
詩 集
詰 まっ
語 形
誠 一
誤 用
説 教
課 す
論 述
諸 公
諸 士
諸 表
謀 略
護 る
谷 地
谷 本
豊 原
豊 崎
象 眼
豪 商
負 わさ
財 宝
貧 弱
貧 血
貨 客
販 促
貯 める
貴 史
貴 志
賀 陽
赤 子
赤 石
赤 磐
起 案
超 越
越 冬
趣 向
足 ら
足 首
跨 ぐ
跳 び
躍 進
身 延
車 扱
車 重
軍 制
軍 務
軍 医
軍 法
軍 港
軟 式
転 封
転 機
軽 微
軽 薄
載 せる
輪 郭
辛 口
辞 し
辞 令
農 芸
返 上
迫 り
追 随
退 ける
送 検
逆 流
速 射
逢 う
連 帯
連 弾
逸 平
遅 滞
遊 興
過 渡
道 上
道 内
道 化
道 後
道 連れ
違 え
遠 野
適 する
選 り
邦 楽
邦 画
邪 神
郡 名
都 城
都 濃
都 督
配 牌
酷 く
醜 い
醸 し
重 文
重 軽傷
野 崎
野 花
金 品
鈴 音
鉄 塔
鉄 鍋
銀 貨
銀 次郎
銃 士
銅 鏡
鋼 材
錐 体
鍛 錬
鎖 国
鎮 火
鏡 花
鐘 楼
鑑 札
長 所
長 淵
長 渕
門 真
門 脇
閃 光
開 基
開 心
開 所
間 宮
間 際
間 取り
関 所
関 本
関 ヶ原
閻 魔
闘 牌
阪 大
防 疫
阿 東
附 則
陣 中
除 幕
陪 審
陰 極
陶 磁器
陸 路
陸 運
陽 一
隆 夫
隆 宏
隆 志
随 分
随 筆
隔 絶
隴 西
雄 略
雅 男
集 う
集 成
雇 わ
雑 木
雑 用
離 宮
離 着陸
難 病
難 解
雨 天
雪 山
雲 南
雷 神
電 柱
電 装
電 通
霊 能
霊 験
霊 魂
露 光
露 骨
青 島
青 蛇
青 貝
非 情
靭 帯
靴 下
韮 崎
響 灘
頑 丈
領 収
頭 胸
願 っ
類 推
類 聚
顧 み
風 向
風 習
飄 々
飛 燕
食 道
飢 饉
飯 室
養 う
首 里
香 澄
香 良洲
駅 弁
騎 馬
驚 か
骨 組み
高 弟
高 揚
高 昌
高 柳
高 治
高 潔
魅 了
魏 志
魚 介
鴨 川
鶴 巻
鷲 尾
鹿 内
鹿 屋
麹 町
黄 昏
黄 花
黒 崎
黒 江
黒 潮
黒 鉄
鼻 腔
龍 王
龍 谷
龍 野
龍 太郎
龍 之介
한 자
リー ク
リー プ
ター ター
10 24
スト レージ
12 18
er a
er ate
18 20
18 16
18 17
18 28
18 26
18 29
18 33
18 36
18 37
18 05
18 02
ディ セン
ディ スコ
ディ ヴィジョン
おり ひめ
ティ ガ
ティ ーン
ティ ミー
ティ トー
ライ ザ
ショ ール
an ical
in n
in formation
15 63
15 75
15 68
15 87
on i
on es
コン ソー
コン プレッサー
ファ ット
ファ ール
ファ スト
ファ ート
ファ リン
バー サ
バー チ
バー バラ
バー ゼル
en ant
ロー リー
ロー ダー
ロー ディング
ロー ザン
ロー タス
レー ダ
レー ツ
バス ク
プロ パ
プロ バイ
プロ プライ
プロ レタリア
アル ベール
アル デヒ
アル ブレヒト
アル ツハイマー
30 4
30 8
16 20
16 42
16 98
16 93
つい で
or ia
or row
シャ チ
受け 持っ
受け 付ける
ステ ラ
ステ ルス
ステ ブレ
ステ ッパー
13 25
13 40
17 20
17 14
17 39
17 36
17 58
17 63
17 67
17 02
17 03
17 93
キャ リ
キャ バレー
ジャ コ
al g
al t
ダー ビット
25 4
25 00
at em
ic on
ic es
ic ate
ic ago
シー ダー
シー ザー
サイ エン
サイ ザー
ージ ンマー
es ent
es per
チャ ド
チャ ペル
チャ タム
チャ リティー
レイ ア
レイ ナ
レイ ユ
スタ ック
ルー ター
シュ ル
エン コード
エン カウンター
エン リコ
el le
el ph
el idon
is o
is p
スター チ
セン サ
パー カッション
ol f
ドラ ズ
取り 込む
取り 入れる
取り まとめ
取り 扱わ
取り 除い
取り 仕切る
28 4
28 6
オー ヴェ
オー ギュ
オー ビタル
it is
it ude
27 2
27 01
ウェ スタン
ウェ イズ
ウェ リントン
しま え
ナー ズ
ナー マッ
26 1
23 4
23 8
スペ ツィア
フェ スト
フェ ティシズム
ウン デ
コー ダ
コー ブルク
サン バー
サン スク
サン セット
サン ライズ
サン ダース
アン ティ
アン ハルト
アン フェタミン
ルト リス
ルト ニアン
29 8
ジェ ール
ジェ ガン
ジオ ペリア
ニュー ズ
ニュー ギニア
トル ティア
アイ ソ
st a
st ic
st udio
50 9
re e
re f
ro b
ro p
ro y
ro ck
通り 道
ブル グ
ブル ン
ブル ジョ
プレ イング
プレ ステージ
th ar
th ing
th od
th esis
th ird
ーン ・
ion i
さら ば
ch a
ラジオ ール
le ft
ただ いま
ダイ アン
ダイ ニング
ダイ ポール
ダイ ソー
チェ ク
シア ム
クロ ピド
ポー ツ
ポー プ
こう さ
こう のとり
40 4
40 8
メン ズ
スク ー
スク ランブル
am ore
us ui
as k
ウィ ーバー
デル ・
入れ 替える
グラ ブ
持ち 点
マー チ
マー レ
et te
et ooth
バル カ
バル ク
カル タ
キャラ バン
ac le
ac rit
ヴィ ング
ヴィ ドソン
ガン ダ
ヴァ ング
ジョン ロク
プラ モデル
プラ チナ
起こ そう
AN O
AN IM
60 5
パン ション
ジュ ディ
ジュ ディス
ジュ ゼッ
たい ら
たい かい
アク チュ
アク シデント
トリ ム
St and
St aff
St ates
ハン ザ
ハン サム
乗り 込み
乗り 捨て
TO N
id o
id s
ボール ド
ER A
ER N
US U
イス パ
ヴェ リ
ヴェ ルト
ヴェ ーラ
AR C
AR K
ia k
ia z
ロン ズ
IN D
IN ITY
カン タ
入り 組ん
48 3
インター フェイス
組み 入れ
ON LINE
38 6
ST ERS
ハイ ティング
ハイ フン
切り 出し
マル メ
マル シェ
ec es
ot s
シェ パード
ag ne
ag no
AT P
70 2
um b
um s
45 3
ter n
ter t
立ち 去る
ディー ノ
アップ リケ
ad t
ad ise
ut enant
やす え
テル マ
55 4
55 7
55 8
78 2
ちゃ い
AS C
AS AKI
AS IAN
im o
im es
im ac
im age
ラス ベガス
os us
チャン プル
39 5
39 6
the or
SP Y
SP OT
ケン ヂ
はじ き
はじ まっ
ギャ ラン
ギャ ルド
エイ ジ
エイ プロミス
EN CE
44 7
チャー ミング
oc a
oc on
ダン テ
36 4
メタル マックス
Ch ief
Ch icago
キャン セラ
ul f
ul us
カリ キュ
37 5
37 7
とう げ
46 7
46 9
ユー モア
ニュース キャスター
ジャン ボ
AC M
de hydrogenase
47 2
バラ バラ
フレ ッチャー
フレ ゼリク
58 2
58 8
寄り 添
ell er
ブリ キ
The od
ピー マン
op a
打ち 込む
打ち 切っ
HE S
掛け 合い
思い 出す
チュ ニ
ノー イ
ノー ブル
流れ 込む
OS D
クレ ド
クレ ヨン
ストラ テ
すぐ り
チョ ー
ri al
アド バイ
カラ フト
カラ カル
ミン サー
ノン ストップ
たっ ぷり
スコ ラ
LI QU
もう け
アフ ゼリア
ソー セージ
シャン テ
シャン ハイ
チェン コ
An im
An ton
スタン ション
スタン フォード
ian ism
パーク ス
ピア ソン
パワー ズ
ist ance
57 4
57 7
SH A
SH O
ナイト クラブ
ナイト メア
呼び かける
フォー マー
NA VI
ブン ゲ
ab la
ヴォ ス
書き 直し
59 9
スケ ッチ
追い 出さ
追い かける
RE D
RO AD
もん た
イズ ・
ナイ ザー
ナイ ロン
YO KOH
ドー ソン
ヒロ ポン
建て る
しん ごう
しん のう
スピ リット
限り なく
ok a
いち ご
ティー ノ
49 8
モー ランド
モー ガン
モー ティマー
バッ ティング
BO Y
グル ミ
メイ ザーズ
巻き 上げ
巻き 上がっ
AD A
AD Y
AD ISE
フィー ダー
LO OP
av i
if ied
メッ センジャー
振り 替え
EX PRESS
EX ILE
ゴル バ
ゴル スク
ゴル ファー
読み 込み
読み 書き
フォル ベック
Pro gram
トイレ ット
ネー ゼ
インタ ビュ
ガル マ
ガル シア
ガル デマイスター
マンド ロンチェロ
オル グ
オル デンブルク
UN IT
無く し
Ar my
オス カー
石川 町
じょう ほう
エクス プ
スラ リー
スラ ッシュ
トゥ ーロン
800 1
qu i
キン バリー
ギリ ギリ
ボル ボ
ボル ダー
ボル ネオ
満た せ
ich e
MO ON
まだ まだ
結び 付け
飛び 込み
88 5
ゆう き
ゆう びん
じゃ あ
テム ル
パル コ
やり 直し
アフリカ ネイション
sh e
sh al
cc i
ゼン マイ
83 22
ノル ウェイ
Ser ies
Sp ark
アウト ドア
アウト ソーシング
プリン タ
フォン ・
かわ き
押し 出し
コンビ ネーション
Mar c
Mar ine
ヘル シンキ
ast a
売り 場
エスト ラジオール
コル チ
八幡 浜
願い 事
Cl uster
今日 子
Lu ck
con st
con trol
ハート リー
De ep
De ath
Un it
まさ し
まさ ひろ
セイ バー
グレイ ス
突き 止め
ハム スター
割り 振ら
DE PART
プラン ナー
プラン ジャー
エー タ
ポリ マー
ポリ ャー
マラ ッカ
送り 込ま
ボディ ガード
sp ect
sp ace
待ち 受け
待ち 受ける
eg gman
En ergy
VS N
ゲル ググ
LS I
アダ プター
シロ ウ
ポジ ティブ
la ut
いろ んな
IV ERS
コム サ
切れ 込み
見つ から
逃げ 出し
スパイ ラル
ile y
あさ く
ちょ こ
シグ マ
ツィ ン
ムラ サキ
per cent
くん 煙
クー ラー
駆け 落ち
駆け 抜け
駆け 抜ける
シュー ズ
リク ルート
DO E
DO JO
DO BER
かえ し
かえ で
兼ね 備え
大手 町
uk i
フロー ラル
引っ 張ら
おも な
スル ホ
ケイ 酸
ウォー キング
IA EA
後ろ 側
後ろ 盾
MS V
OK A
きん こ
フォーク リフト
ES ADE
ah l
スリー ピング
視聴 覚
エク サ
テロ リズム
バリ バリ
He ad
du o
メディ チ
ティン ク
ティン カー
ネイ ティブ
ネイ キッド
パッケージ ング
Gl én
NO x
ear ctic
フィル タ
ジェイ ソン
Sm art
Sm ith
ほん ま
アキ バ
アキ レス
ウー ラ
マニ ピュ
薩摩 川内
Gu atem
And erson
And rew
クイーン ズ
Wor ks
cl os
com e
われ われ
つる ぎ
Bo eck
ach e
エド ガー
カレ シ
マイクロ プロセッサ
ふく おか
叩き 付ける
討ち 死に
ung en
Be OS
HO USE
Mon te
トマ ム
ダイナ ミ
スコア ボード
GI F
問い かけ
問い 合わせ
フェル ミ
フェル マー
フェル ナンド
みや ぎ
セラ ミックス
SR S
でん しょ
ふた ご
かな え
ゲイ リー
ラジ コン
Met z
Met acrit
WE ST
てつ や
ノック アウト
えん か
カツ 丼
ゲー ゼ
ヘア ピン
センチ メンタル
lo ok
na utical
おと し
ハラ フシグ
SG LT
コモ ティブ
シュヴァン シュタイン
あや かっ
かた わら
ツー リング
Wal ter
gen eral
ser ial
加賀 美
Is land
ペイ ロード
成り 立っ
DD T
Fl or
NEC T
ねる ず
想い 出
稲荷 山
オカ マ
ヌイ グルミ
ミステ リ
確か め
確か める
Mark et
Qu er
ton nage
おん せん
タケ カワ
レジ スト
Ele ments
Gra ph
ha us
真っ 先
Univers al
ワル ファリン
CON NECT
We ek
とん ねるず
シミュ レーター
メモ リー
Wh at
襲い 掛かる
Nor weg
こだ ま
バグ ダード
ナビゲ ーション
きわ め
やさ し
ラト クリフ
ウェスト モーランド
ハイパー テキスト
KE Y
UL TRA
ベア リング
Int el
-」 (
ギブ ス
クア ドラス
ヤク ルト
ウィーク エンド
Cy rix
Par adise
tra x
Art if
Blu etooth
利根 川
成し 遂げ
Super fly
DR IVE
EA ST
FX R
OH V
min i
吸い 込む
Sec ond
パヴ ロワ
インジェ クター
サハリン スク
TE AM
Up date
マタ ギ
メー カ
四角 い
平城 山
par ams
さす らい
てれ び
アトラン ティック
エキス プレス
ハミ ルトニアン
ディン ギー
MAC M
Sa int
go y
あす なろ
おさ め
くわ え
カシ ワ
吊り 上げ
種子 島
フェラー ゼ
スーパ ージンマー
らわ しい
美味 しい
Li VE
So mmel
YE AR
ウオ ッチ
キョウ エイプロミス
吐き 気
阿賀 野
馬喰 町
Orch ester
Bas el
Bas eball
JAS RAC
アグ ネス
カッ ティング
ブロン ソン
ブロード バンド
コンスタン ティノ
Publ ic
Sing le
mag azine
あつ し
よこ はま
ガオ ガイ
キムラ グモ
向こう 側
コーディ ネーター
GOLD EN
Mem orial
SUN DAY
くす のき
のぼ り
のぼ る
ひど い
アビ タ
カヤ ック
ッチャ ブル
ホリ デー
八百 屋
土産 物
ジェノ ザウラー
Ang el
ミェシュ コ
COR E
DL C
Pal earctic
カズ ラ
グー フィー
シノ ニム
エッセイ スト
Fe el
POR T
SK Y
つば さ
オト ナ
ナノ メートル
ブッ シェル
マティ リアル
小豆 島
ats uka
ipp on
Leg end
PZ D
ZO IDS
ぽー と
イノ センス
オチ ド
スタイ リング
ナバ ホ
安佐 南
ビューティ フル
しゃべ り
しゃべ くり
セーフ ティ
ディストリビュー ター
Gut landi
Ul tra
アビス パ
引きず っ
引きず り
idd le
Oper ation
ちょん まげ
CIT Y
SING LES
xx x
いさ な
もろ とも
アイン シュタイン
ヨル ダン
採り 入れ
ICMP v
カルボ ニル
PAR ADISE
いの また
イナ ズマン
カミー ノ
カミー ユ
コッ ペル
ラピ ス
戸惑 い
ルーズ ベルト
コーネ リア
stand ard
クリティ カル
のぞき からくり
40915 38
Cult ure
Sn ow
TT L
iet f
あしら っ
しっ とり
たな べ
みか ど
サディ スティック
タヌ キ
ハサ ウェイ
ヒスパ ニア
リボ ソーム
・ロ レ
生い 立ち
美津 子
プログレ ッシブ
サンプ トン
thy me
Olymp ics
Just ice
LZ W
Mart in
Squ ier
TB G
Tran sport
sia e
アネ シュカ
ガッ ポリ
マメ 科
リザー ブ
情け ない
スト・ ボーナス
Thor ell
uku oka
Cath olic
Hir atsuka
QUE ST
Ras p
Spr ing
めで とう
シト クロム
ヘロ スタ
ホフ ステー
ogen esis
COUN T
Profession al
ホイット ニー
KAWA ii
ほのめ かし
Dou ble
Econ omic
FIR ST
Nel son
bank siae
barm i
vit ro
キズ ナ
キヨ スク
ソグ ド
ヌクレ オチド
ブジェ ヨヴィ
ベオ グラード
・モー レスネット
コンベン ション
シュトラ ウス
アイド リング
アイヒ ホルン
シンセ サイザー
アレキ サンダー
パシフィ スト・ボーナス
カシオペ ア
þriþi ung
)、 [
Cust om
Eug ene
Eld er
Gya O
Lag en
Tod ay
Tosh io
うかが える
アヴィ ヨンド
ウメ バチ
エゼル バルド
ゲルド リング
ツポ レフ
ネポ シアーノ
ブダ ペスト
マテイ コ
レト ルト
レバ ノン
岩出 山
牧之 原
競り 合い
コンポー ネント
パーフェ クト
スペシャ リスト
アンキロ サウルス
シェモ ヴィト
スカリ フィケーション
アラキ ドン
Provid ence
エーレンシュレー ガー
Amaz on
Moto GP
Motz kin
PRES ENT
VOCALO ID
Sinfon ie
スキュリツェ ス
FIV B
JIM OS
KMP VR
KDD I
Lie utenant
Mitch ell
Rest agno
VIDE O
Wester n
iTun es
くノ 一
さっぽ ろ
せと うち
とに かく
ゆうち ょ
らら ぽーと
アベン ジャー
オアン ネス
オハイ オ
オキナ ワ
ガドリ ニウム
ギラ・ ドーガ
クエイ ク
グアテ マラ
コッポ ラ
スヴャ ト
テヘ ラン
トワイ ライト
ネアダ ネル
ハプ ニング
ビグ・ ザム
ホッジ ス
マクス ウェル
ミリティ ア
ユジノ サハリンスク
レクイ エム
レバレッジ ド
ロドリ ゲス
ロシヤン カ
不知 火
与那 国
中近 東
十二指 腸
大雑 把
御曹 司
真駒 内
コンソー シアム
プロプライ エタリ
アルデヒ ド
オーギュ スト
ナーマッ カル
サンスク リット
クロピド グレル
ANIM ATION
ジュゼッ ペ
アクチュ エータ
カリキュ ラム
LIQU ID
YOKOH AMA
アフリカネイション ズカップ
ポリャー コヴォ
DOBER MAN
Glén at
Guatem ala
Metacrit ic
ハラフシグ モ
Norweg ian
コンスタンティノ ポリス
ブジェヨヴィ ツェ
" >
, 『
. ]
/ [
0 10
0 11
0 16
0 23
0 101
1 201
2 24
2 136
3 24
3 26
3 23
4 17
4 25
4 29
4 48
4 62
4 1000
5 16
5 48
5 47
5 42
6 12
6 13
6 28
6 31
6 80
6 90
6 83
7 20
7 15
7 21
7 70
7 46
8 30
8 25
8 27
8 500
8 63
8 101
9 20
9 10
9 12
9 29
? -
A J
A k
A st
A IS
A AC
A BO
A ction
A ster
B z
B ad
B oc
B ri
B IR
B AND
B orn
B ody
B FW
C U
C AN
C VE
C LE
C AB
C ori
C NG
C riter
D U
D or
D ol
D as
D ig
D ON
D iv
D ai
D ict
D UST
D utch
E J
E II
E BC
E SP
E qu
E ver
E SD
E sp
E ric
E volution
F t
F en
F el
F le
F un
F eb
F ort
F ive
F IG
F ish
F IA
F BI
F ISH
F INAL
G GENERATION
H al
H ed
H CO
H ID
H ive
H OP
H ey
H ann
H OT
H aw
H air
H ARD
H uber
I AT
I rel
J a
J ud
J ota
K R
K an
K or
K as
K un
K ot
K ow
K EN
K ind
K IT
K BO
K la
K ern
K ings
K urt
K UNG
L y
L on
L or
L oc
L ight
L eb
L ine
L ud
L yn
L ong
L ep
L ingu
L anka
L ADY
M H
M id
M all
M ORN
M ouse
N ER
N OC
N ak
N ob
N int
N ord
N IL
N ippon
O E
O ri
P H
P P
P w
P AN
R B
R u
R at
R SS
R ud
R TS
R otten
S IC
S le
S et
S ad
S ur
S EN
S HE
S ri
S ea
S ix
S ite
S NC
S ept
S ocks
S JD
T ak
T ack
T ong
T LS
T rag
U A
U H
U M
U Y
U r
U t
U WA
V e
V ed
V amp
W J
W BO
X M
X T
X en
X HTML
Y AMA
Z U
Z h
Z n
Z er
Z EN
[ −
] :
] 』
a a
a ut
b ort
b its
b order
c il
c os
c ert
c ular
c ript
d d
d j
d y
d ar
d ou
d em
d ream
f ri
f all
f ah
f lo
f ür
f yr
f ull
f els
g ü
g in
g ov
g io
g raph
h el
h is
h it
i ac
i OS
k l
k on
k as
l b
l u
l iv
l os
l ov
l ang
m b
m op
m ill
m ich
m ott
m aster
n on
n or
n es
n os
n ov
n ik
o a
o x
o ther
p n
p IC
p us
p iv
p ect
p age
p unct
p seud
r ary
r hom
s v
s í
s es
s il
s ou
s ad
s ak
s ession
s ize
t ion
t sp
t witter
t ti
t xt
u u
u el
v Code
w iki
w atch
w here
y our
y okohama
z w
z er
z an
z en
Þ a
í t
ü ck
ɛ ə
η ς
ο ς
и я
о к
р а
т а
あ こ
あ じ
あ べ
あ め
あ ゆ
あ ー
あ たら
あ おき
あ かつき
い と
い ける
い ただ
い かり
い もう
う い
う き
う さ
う す
う しろ
え っ
え ほん
お の
お ば
お おい
お わら
か あ
か ぎ
か べ
か える
か とう
き か
き つ
き ね
き せい
く しま
く らし
く さい
く ぐっ
け し
け いいち
こ き
こ おり
こ しょう
こ おろ
ご 飯
ご とき
ご ざる
ご はん
さ じ
さ て
し げ
し ぶ
し ろう
し っぽ
じ こ
す が
す た
す ま
す すぎ
せ え
た がっ
た がり
た がら
た どる
だ 〜
だ ぁ
ち ぇ
ち ぎ
ち ず
ち び
ち よ
ち ひろ
ち あき
ち くわ
ち いさな
っ ぺ
っ たい
つ ぐ
つ げ
つ や
つ けれ
つ どう
つ かん
つ よし
つ まら
つ かみ
づ ま
て け
で っち
と み
と がっ
と てつ
と おる
な だ
な かん
の べ
の 内
の 口
の れん
は と
は ば
は から
は ぐれ
は さむ
ば た
ば つ
ば ば
ば め
ぱ り
ひ び
ひ かる
ひ びき
び こ
ふ い
ふ ぇ
ふ き
ぷ る
へ し
べ い
べ に
ほ ご
ぽ っ
ま こ
ま め
ま ー
ま しい
ま もり
み さ
み ぞ
み っ
み れ
む く
む す
む しゃ
む かわ
も どか
ゆ け
ゆ ら
よ き
よ さ
よ ど
ら せ
ら つ
り ぼん
り そな
わ いわい
ん じる
ア ゾ
ア ボ
ア ロ
ア スタ
ア クト
ア オリ
ア ディー
ア リアン
ア ウェー
ア ストロ
ア ヘン
ア コム
ア ムラ
ア ブー
ア ングル
イ バラ
イ ミド
イ ディッシュ
ゥ ス
ウ エン
ウ スター
ウ エル
ウ ロン
ウ ラル
ウ ラジ
ェ ウォ
エ シ
エ リン
エ メン
エ ビル
エ ヤー
エ ヴォ
エ コール
エ ドゥ
オ ット
オ ッカ
オ ドア
オ ークス
カ ト
カ フ
カ ブ
カ ホ
カ ース
カ レイ
カ トル
カ ガン
カ ペー
カ タール
カ ヤシ
カ チコ
カ ディアン
ガ ーター
キ ツ
キ ノ
キ プ
キ ール
キ スト
キ サン
キ ユー
キ ティア
キ ョン
キ ェル
キ ナーゼ
ギ ヤ
ギ レン
ギ ネス
ギ アス
ク チ
ク ラー
ク レース
ク ッキング
グ リー
グ ール
グ エン
ケ ス
ケ ・
ケ ラー
ケ ニー
ケ ドン
ゲ シュタ
コ ケ
コ リアン
コ ヒー
コ ニウム
コ ナミ
ゴ フ
ゴ ヤ
ゴ シップ
ゴ ロド
サ ウン
サ ハラ
サ セックス
サ バイバル
ザ ース
シ マン
シ バン
シ リアル
ジ クロロ
ジ ゴック
ス キャ
ス スペ
ス プリ
ス クラッチ
ス コープ
ズ ス
ズ デ
セ バス
セ ッター
セ ッティング
セ オドア
ゼ ラ
ソ リー
ソ フィ
ソ ールズ
ソ ソーム
ゾ マー
タ テ
タ メ
ダ ミ
ダ ラー
ダ クト
ダ ッカ
ダ ブリン
ダ ヴォス
チ ノ
チ ロー
チ ザン
ッ セン
ッ テル
ツ ウ
ツ タ
ツ ブ
ツ ブルク
テ ウ
テ ント
テ リウム
テ グス
デ シ
デ ッ
デ デ
デ ブ
デ ース
ト シ
ト チ
ト ポ
ト ミ
ト クト
ト ニア
ト レース
ト クタ
ト レンチ
ド ッ
ド モ
ド リン
ド ルト
ド クトル
ド イセン
ナ ブル
ナ カイ
ナ イス
ナ ジウム
ニ ェ
ニ ヤ
ニ ッチ
ヌ ム
ヌ ール
ヌ ブラ
ヌ エル
ネ フ
ネ レ
ネ リー
ネ オン
ネ イト
ネ クス
ネ ビュ
ネ バダ
ノ ド
ノ 島
ノ ルト
ノ エル
ノ スティ
ノ ズル
ノ ゴルスク
ハ タ
ハ ト
ハ ネ
ハ ビ
ハ ピ
ハ ーク
ハ スキー
ハ レル
ハ スラー
ハ ザード
ハ スキン
ハ ニチロ
バ ロ
バ スト
バ トン
バ バン
バ リット
バ ズー
バ ヨール
パ ト
パ ピ
パ ベル
パ ステル
パ ノラマ
ヒ ア
ヒ ェ
ヒ コ
ヒ メ
ヒ ラリー
ビ ーク
ビ ントン
ビ ニール
ピ ッツ
ピ リミ
フ ケ
フ ネ
フ ール
フ ーン
フ レス
フ シェ
フ エンテス
ブ ズ
ブ リス
ブ ナー
ブ デン
ブ リスト
ブ ハラ
ヘ クター
ヘ イス
ヘ カラ
ヘ テロ
ヘ ーラ
ヘ ラク
ベ ント
ベ キュー
ベ ネズ
ベ ネディ
ペ ナン
ペ ラム
ホ ア
ホ レ
ホ ルト
ホ ッカ
ボ ア
ボ シ
ボ イン
ボ レー
ボ ビー
ボ ロボ
ボ ザール
ポ ラ
ポ イン
ポ ーク
ポ セイド
マ ズ
マ ダ
マ ホ
マ ッシュ
マ ヌケ
ミ クロ
ム ント
ム スター
ム アン
ム ーター
メ タン
メ レル
メ リル
メ テオ
モ エ
モ チ
モ リス
モ ルト
モ グラ
モ ザン
ヤ ッ
ヤ ール
ヤ ロスラヴ
ユ ート
ユ ヴァス
ヨ シュア
ヨ ッシー
ラ ゲ
ラ タ
ラ マ
ラ ッド
ラ ッパー
ラ ヴェン
ラ ミノ
リ タ
リ マ
リ スタ
リ コー
リ ヴァ
リ プレイ
リ リック
リ クライ
リ フォーム
リ ヴァー
リ パブリック
ル ウ
ル ミ
ル パン
ル クス
ル ージュ
ル キヤ
レ ノ
レ パ
レ パート
レ プト
ロ ト
ロ ム
ロ ・
ロ ティック
ワ ザ
ワ ッ
ワ リ
ワ リー
ワ ート
ワ タル
ワ ヒバリ
・ ラ
・ レー
・ サー
・ ソー
・ コル
・ タウンシップ
・ ド・
・ ヘルスシステム
ー ナ
ー バ
一 会
一 倍
一 向
一 奈
一 座
一 役
一 挙
一 樹
一 蹴
七 色
三 滝
上 妻
上 書
上 村
上 板
上 界
上 質
上 顎
上 吉田
上 本町
上 乗せ
下 原
下 川
下 巻
下 界
下 ネタ
下 益城
不 尽
不 断
不 発
両 刃
両 校
両 派
両 県
並 立
中 々
中 公
中 居
中 嶋
中 書
中 条
中 海
中 畑
中 舌
中 郷
中 南米
串 本
串 刺し
丸 み
丸 め
丸 善
丸 鋸
丸 の内
丹 沢
丹 生
主 神
主 都
久 世
久 子
久 木
么 九
乗 数
乗 機
乗 法
乙 種
九 曜
九 重
乱 さ
乱 歩
乱 立
乾 隆
亀 岡
亀 戸
亀 裂
予 感
予 見
事 由
二 又
二 者
五 徳
五 條
五 行
五 日市
井 山
亘 理
亜 衣
亜 由美
交 い
交 友
交 雑
享 年
享 楽
京 町
京 福
人 家
人 目
人 語
人 骨
人 差し
介 助
介 在
介 石
他 局
他 種
仙 北
仙 洞
代 打
仲 町
企 て
伊 織
休 む
休 薬
会 葬
伝 奇
伝 熱
伸 介
似 通っ
低 調
住 田
佐 波
佐 用
体 位
体 感
何 十
余 人
余 分
作 出
作 手
佳 作
併 映
併 録
例 祭
侍 女
侵 犯
促 音
俊 一
俊 綱
信 之
信 吾
俳 句
俳 諧
個 数
借 受
倭 人
倭 国
偏 向
健 常
健 次郎
偶 数
優 柔
元 治
先 任
先 例
先 導
先 番
先 見
先 遣
先 陣
先 送り
光 年
光 文
光 次郎
克 郎
党 員
党 首
入 野
全 容
全 校
全 開
八 卦
八 方
八 束
八 柱
八 街
公 法
公 田
公 知
公 証
公 館
六 甲
共 振
兵 部
兵 隊
具 志
兼 備
兼 松
内 径
内 服
内 気
内 水
内 湖
内 灘
内 裏
内 輪
内 障
内 鮮
円 周
冊 封
再 版
再 起
写 す
冶 金
冷 やし
冷 暖房
凄 い
准 尉
凌 ぐ
凡 例
処 さ
凹 凸
出 れ
出 征
出 没
出 町
出 費
出 囃子
刃 長
分 担
分 業
分 量
分 隊
分 駐
分 厚い
切 開
切 除
刈 田
列 し
初 台
初 名
初 学
初 歩
初 級
判 る
判 型
別 院
別 館
利 幸
利 弘
利 得
利 権
利 長
刷 り
券 面
刺 繍
刺 青
削 ら
前 例
前 妻
前 屈
前 島
前 科
前 腕
前 項
副 次
創 ら
創 り
創 生
力 量
加 味
加 増
加 奈
加 山
加 筆
加 美
励 む
勃 起
勅 旨
勘 助
勝 沼
募 ら
勧 業
包 む
包 ん
北 原
北 大
北 杜
北 浜
北 浦
北 田
北 面
北 広島
区 会
千 曲
千 石
千 谷
千 切り
半 球
半 面
卓 也
卓 哉
南 宋
南 岸
南 進
南 郡
南 南東
南 都留
単 品
単 射
単 座
単 打
単 車
博 学
博 明
印 紙
危 うく
即 し
卵 嚢
卵 巣
卵 黄
原 住
原 初
原 生
原 色
原 語
去 就
及 川
反 攻
収 得
取 水
受 刑
受 難
口 コミ
古 き
古 語
古 都
叩 か
可 搬
台 座
台 無し
叱 責
右 近
各 省
合 掌
合 算
合 コン
吉 光
吉 崎
吉 村
吉 松
吉 沢
吉 親
同 大
同 定
同 情
同 数
同 根
同 門
同 項
名 実
名 張
名 東
吐 か
向 原
吸 引
呂 彦
呪 術
呼 韓
呼 出し
命 脈
和 博
和 声
和 服
和 木
和 気
和 男
和 県
和 約
哀 しみ
品 物
哲 史
唐 揚げ
商 圏
商 大
啓 之
善 意
喉 元
喜 一
喜 彦
喜 三郎
喫 水
嘆 い
嘉 島
嘉 右衛門
噴 水
四 朗
四 駆
回 ら
回 遊
団 塊
国 信
国 学
国 安
国 見
国 郡
国 頭
圃 場
國 學
國 府
園 内
土 岐
土 方
圭 介
圭 太
地 崎
地 所
地 殻
地 道
坂 元
坂 彦
坪 野
型 破り
埋 蔵
城 砦
城 陽
執 政
執 権
基 点
基 発
基 線
堀 内
場 外
塩 田
境 地
墓 場
増 便
増 援
増 税
増 粘
増 補
墨 書
壁 紙
壊 す
売 木
変 容
夏 美
夕 刻
外 郭
外 食
多 め
多 可
多 量
夜 叉
大 々
大 体
大 刀
大 助
大 区
大 學
大 宝
大 宰
大 本
大 浜
大 淀
大 炊
大 通
大 道
大 鯨
大 河内
大 丈夫
天 孫
天 敵
天 界
天 ぷら
太 古
太 宗
失 業
奇 岩
奇 怪
奥 村
奥 多摩
女 体
好 走
始 終
委 嘱
威 信
威 嚇
娘 役
婉 曲
婧 英
子 府
子 母
存 亡
存 置
学 界
学 べる
宇 土
宇 摩
宇 文
守 れ
安 元
安 堵
安 宿
安 川
安 息
安 易
完 売
官 報
定 例
定 圧
宝 亀
宝 蔵
宝 探し
実 効
実 演
客 貨車
宣 下
宣 彦
宣 戦
宮 地
家 久
家 司
家 譜
容 れ
宿 っ
宿 る
寂 し
寄 居
寄 村
寄 稿
寄 船
密 告
密 売
富 ん
富 川
富 三郎
寒 天
寛 之
寛 平
寡 占
寮 長
寺 川
寺 領
対 極
対 米
対 置
寿 子
専 科
射 水
将 監
尊 氏
尋 問
導 尿
小 俣
小 僧
小 宮
小 暮
小 柴
小 津
小 淵
小 熊
小 片
小 腸
小 袖
小 雪
小 高
小 河内
小 千谷
尖 っ
就 寝
尺 八
尾 灯
尾 羽
局 員
屈 折
屋 台
属 州
履 き
山 々
山 寺
山 羊
山 荘
山 車
山 里
山 の手
岩 井
崩 さ
川 幅
工 機
左 耳
左 利き
巨 摩
巻 頭
市 有
市 村
市 浦
市 議
帆 布
帆 船
希 土
希 薄
帝 城
席 巻
帯 同
帰 れ
帰 ろう
帳 簿
常 温
常 緑
常 習
常 食
幌 内
幕 政
平 尾
平 易
平 気
平 治
平 版
平 鹿
年 寄
年 籍
年 頭
年 明け
幸 運
幸 長
幼 年
幾 多
広 町
庄 司
座 主
座 員
座 礁
座 長
庫 之助
廃 位
廃 盤
建 材
建 部
式 家
弔 う
引 分
弘 化
弘 子
弱 っ
弱 虫
強 打
強 まっ
当 座
形 而
形 質
彩 子
彫 ら
彰 久
影 山
彼 方
待 賢
後 代
後 腹
後 面
従 姉
得 物
御 子
御 室
御 船
微 風
徹 甲
心 境
忌 明け
忍 耐
忍 術
志 雄
忠 孝
忠 良
快 活
怒 る
思 念
思 慮
思 しき
怠 慢
急 峻
怨 霊
怪 光
恩 義
悔 し
悠 々
悠 介
患 い
悲 しん
情 緒
惜 しま
愛 読
感 激
感 銘
慶 喜
慶 子
慶 安
懐 かし
成 さ
成 敗
戦 友
戴 く
戸 口
戸 松
戸 長
扁 平
扇 動
扇 形
手 刀
手 芸
手 記
手 渡さ
手 渡す
打 法
打 開
扶 持
批 准
承 暦
抑 止
投 棄
抗 告
抗 戦
折 っ
抜 こう
抵 触
抹 香
押 坂彦
担 ぐ
拓 本
拘 ら
拠 っ
拠 る
拳 士
拳 闘
拾 史郎
持 久
挺 し
捏 造
捕 まり
捻 転
授 乳
授 かる
排 し
排 便
採 鉱
探 り
接 客
接 尾
接 待
接 敵
掩 体
揚 屋
揚 げる
握 索
損 ね
搾 取
摘 出
摩 耗
撃 滅
撒 い
撫 川
撮 ら
撰 者
撲 滅
撹 乱
擬 態
支 出
支 度
支 藩
放 す
放 逐
政 争
政 夫
政 孝
政 憲
政 経
敏 腕
散 文
敦 士
敬 虔
敬 語
数 多
数 珠
整 除
敵 国
敵 愾
敵 視
敵 陣
文 豪
文 身
斡 旋
斬 殺
断 た
断 つ
断 熱
新 和
新 堂
新 日
新 芽
新 語
於 け
旅 順
旛 宮
既 刊
既 往
既 約
日 興
旧 跡
旧 領
早 め
早 苗
早 逝
旺 文
昇 級
明 宏
明 応
明 かり
易 経
星 村
映 子
映 美
春 佳
春 頃
昨 今
昭 彦
昼 食
時 価
時 制
晋 書
景 子
景 泰
晴 香
智 昭
暖 流
暗 記
暗 雲
曲 調
曲 がり
月 日
月 見
月 明かり
有 徳
有 翼
朋 美
朝 晩
朝 香
期 し
期 日
木 曾
木 目
木 立
木 綿
木 質
木 越
未 成
未 練
未 払い
末 吉
末 子
末 日
末 永
本 丸
本 営
本 坑
朴 烈
朽 ち
杉 浦
杉 目
杏 奈
村 岡
村 松
村 瀬
村 西
束 ね
来 す
来 襲
東 国
東 昌
東 校
東 美
東 軍
東 通
東 里
東 電
東 松島
松 崎
松 川
枕 木
架 ける
染 料
柳 沢
柴 又
柴 崎
栗 本
校 正
株 価
核 内
根 底
根 津
根 知
桜 庭
桜 田
桶 狭間
桿 菌
梅 子
梅 津
梅 酒
梵 鐘
棒 術
森 口
森 岡
森 野
棲 息
植 樹
植 える
検 案
検 視
楢 崎
極 力
極 性
楽 章
榎 戸
榎 本
樋 口
標 榜
権 勢
横 た
横 切る
樹 村
樹 状
樹 里
機 軸
欄 外
歌 姫
歌 川
正 す
正 也
正 人
正 日
正 直
正 章
正 課
武 功
武 寧
武 庫
武 松
武 神
歩 留まり
歴 訪
死 別
残 像
段 位
段 数
殿 町
母 屋
毎 朝
比 喩
比 地
比 重
毘 沙
毛 様
氏 繁
氏 親
民 政
民 話
気 鋭
水 族
水 稲
氷 点
永 尾
永 村
永 野
汚 い
汚 す
汚 水
汚 泥
江 島
江 藤
池 辺
汲 ん
決 し
決 別
汽 水
沙 子
沢 村
沢 東
河 井
河 嶋
河 東
河 津
河 畔
沸 点
治 夫
法 名
法 要
泗 水
波 紋
波 多野
津 屋
津 彦
活 かす
流 下
流 儀
流 産
浄 水
浜 辺
浜 野
浩 史
浩 明
浩 輔
浪 費
浴 場
海 抜
海 野
淡 い
深 々
深 度
深 海
混 一
混 戦
混 ざり
清 代
清 廉
清 里
清 重
渇 き
済 州
減 軽
減 らさ
渡 ら
渦 巻く
温 厚
温 存
測 候
湖 面
湧 出
湯 治
湿 原
源 平
溝 の口
漁 協
漁 民
漁 獲
漏 斗
漏 電
演 武
潜 り
潰 れ
潰 そう
激 増
濁 音
瀧 田
炭 俵
烈 風
烏 川
焚 き
無 休
無 印
無 死
無 用
無 知
無 礼
無 縁
無 邪
無 錫
焼 山
照 査
照 灯
熱 く
熱 源
熱 発
熱 雷
燻 蒸
爆 心
父 方
片 岩
片 耳
牛 田
牛 肉
牢 獄
牧 師
牧 瀬
物 々
特 待
特 選
特 高
犁 国
犬 塚
犯 さ
犯 す
狡 猾
狩 る
狩 人
狭 心
猛 攻
猟 奇
玄 界
玉 掛
玉 村
玉 東
玉 環
王 冠
王 宮
王 母
王 統
王 都
王 院
玲 奈
現 業
理 容
理 弘
理 知
甘 味
生 糸
生 者
産 ん
用 船
田 丸
田 沢
由 伸
由 子
由 清
申 立て
男 系
男 装
町 会
町 有
町 道
町 おこし
留 保
留 年
番 所
番 町
異 人
異 変
異 説
畳 み
疎 遠
疫 学
痛 い
痛 快
痩 せ
癒 着
発 出
発 効
発 狂
発 癌
発 駅
登 米
白 板
白 熱
百 間
的 場
盛 親
盟 約
目 視
目 通り
直 情
直 昌
直 腸
相 良
眉 山
県 警
真 世
真 偽
真 樹
真 美
真 鍮
眠 れ
着 信
着 津
着 駅
睡 虎
瞑 想
矢 沢
短 刀
石 像
石 化
石 畳
石 黒
石 清水
砂 田
研 鑽
砕 蜂
硝 子
碓 氷
確 約
磁 力
磐 井
社 中
社 説
祈 祷
祝 祭
神 仙
神 体
神 前
神 功
神 性
神 武
神 的
神 輿
禁 欲
禅 宗
福 川
秀 康
秀 才
秀 長
秀 雄
私 塾
私 大
私 有
私 物
秘 話
税 込
税 関
穂 積
積 出
積 算
穏 和
空 力
空 海
空 調
空 車
突 く
立 会
立 憲
竜 二
竜 馬
竹 鶴
笑 え
笹 塚
笹 島
筆 跡
筋 原
箇 条
算 術
箱 型
箱 庭
節 減
節 点
築 上
篤 胤
米 ソ
米 代
米 米
米 英
粉 々
粉 浜
粗 暴
精 子
精 工
精 巧
精 鋭
糸 島
糾 弾
紅 巾
紋 別
純 雄
純 一郎
紡 績
紫 綬
紫 雲
終 息
経 る
経 久
経 穴
結 審
結 構
絞 ら
絞 る
絡 ま
絡 む
絵 巻
綏 遠
続 発
網 膜
綴 ら
総 社
総 じて
緑 園
編 者
編 隊
緩 徐
緻 密
縁 側
縫 い
縫 っ
繋 留
纏 い
置 戸
置 鮎
群 像
羨 道
義 一
義 母
羽 場
羽 幌
翠 簾
聖 名
聖 奈
聖 心
聖 歌
聖 王
聖 籠
聖 隷
聡 美
聴 診
肛 門
胃 液
背 丈
背 びれ
胚 葉
胸 びれ
能 義
脇 侍
脇 差
脚 立
脱 力
脾 臓
腸 管
自 営
自 省
自 脱
自 腹
自 販
自 閉
舞 っ
舟 宿
舟 橋
舟 運
航 程
船 型
船 宿
船 岡
船 渠
船 頭
艦 爆
良 雄
色 調
色 分け
芙 蓉
芝 原
花 伝
花 子
花 序
花 田
花 粉
花 街
芳 彦
芽 生え
苦 慮
英 二
英 梨
茉 莉子
草 花
草 鹿
荒 神
荷 電
菊 判
菊 江
菌 類
菖 蒲
菜 食
菟 上
落 差
葉 子
葉 柄
葬 り
葬 式
蒔 絵
蒙 古
蓬 莱
蔵 前
蔵 王
薄 膜
薫 陶
薬 殺
薬 液
薬 理
薬 草
藍 綬
虫 垂
虹 色
術 前
衣 笠
衰 える
袁 術
被 り
被 る
被 官
裁 く
裁 縫
装 う
裏 付ける
裕 次郎
補 機
補 足
製 版
複 式
西 安
西 岸
西 崎
西 辺
西 野
西 館
西 多摩
西 淀川
西 蒲原
要 旨
要 綱
覆 す
見 世
見 聞
見 なし
見 守る
見 込め
見 抜い
見 込める
角 栄
触 発
言 説
討 た
討 死
記 章
許 せ
訳 す
訴 追
証 票
評 定
詩 作
誓 約
語 末
誠 司
誠 治
誠 一郎
説 き
読 本
課 せ
調 停
談 話
論 じる
諸 々
謀 殺
謙 作
謳 う
谷 底
谷 田
豊 作
豊 明
豊 多摩
豚 骨
豪 放
財 源
財 田
貢 納
貴 久
貴 方
貼 付
賃 料
賄 賂
賑 わっ
賢 二
賢 治
質 疑
質 素
賭 博
贈 っ
贖 罪
赤 旗
赤 褐
赴 き
起 伏
起 縁
越 智
足 す
足 音
足 止め
足 がかり
跡 取り
跨 っ
身 の
身 代わり
軍 記
軍 部
軍 馬
軟 禁
軟 らかく
転 ん
転 地
転 売
転 部
軽 蔑
載 貨
輜 重
輝 け
輝 政
輪 島
輸 注
辛 く
辛 うじ
辰 野
農 振
農 用
辻 村
込 もう
辿 っ
迎 賓
近 づける
迷 わ
追 試
追 贈
退 く
退 所
退 部
逆 行
逆 説
途 端
這 い
這 う
通 話
通 電
造 っ
造 型
逢 沢
逢 難
連 名
連 戦
連 星
連 なっ
進 藤
遅 発
遊 戯
過 密
過 熱
過 給
過 言
道 北
道 子
道 幅
道 庁
道 教
道 立
道 頓
達 矢
達 磨
遠 賀
遠 足
適 度
遺 児
遺 品
遺 影
那 智
邦 人
邦 夫
邦 子
邦 男
郊 区
郡 家
酋 長
配 流
酒 販
酩 酊
里 穂
里 緒
重 み
重 徳
重 んじる
野 中
野 人
野 付
野 依
野 営
野 坂
野 獣
金 川
金 華
釜 無
鉄 板
鉄 橋
鉤 爪
銅 像
銅 板
銅 雀
銘 打っ
鋼 管
長 倉
長 史
長 嶋
長 嶺
長 束
長 津
長 矩
長 音
門 跡
閉 め
閉 山
閉 じる
閉 ざさ
開 創
開 演
開 示
閏 年
閑 散
閑 静
間 島
関 中
関 谷
闍 梨
闔 閭
阪 本
阪 田
防 備
防 塵
防 水
防 滴
阿 闍梨
降 着
降 級
陝 西
院 号
院 政
陥 没
陳 腐
陳 述
険 しい
陽 明
陽 炎
隅 田
隆 家
隆 景
隊 形
随 行
隔 年
隻 眼
雅 美
集 権
雇 う
雌 花
雑 種
雑 草
難 所
雨 季
雨 量
雪 崩
雪 面
零 士
零 細
電 算
需 品
震 度
霊 帝
青 汁
青 海
青 石
靖 子
静 夫
静 的
非 行
面 子
鞍 部
音 信
音 感
音 頭
響 く
頂 部
須 田
預 り
預 言
預 かっ
預 かる
頭 痛
頭 端
頭 骨
頭 突き
頼 通
題 さ
顎 骨
顔 出し
顕 性
風 洞
風 致
風 花
飛 散
飛 呂彦
食 し
食 卓
食 塩
飢 餓
養 安
餓 死
館 長
首 班
香 奠
香 蘭
馬 券
馬 橋
馬 牛
馴 れ
駆 っ
駆 る
駐 箚
駿 東
驚 愕
骨 董
高 低
高 明
高 杉
高 林
高 森
高 潮
高 谷
高 音
高 麗
髙 橋
髪 留め
鬼 仙
鬼 界
魅 せ
魔 球
魔 道
魚 住
魚 屋
鮎 川
鳴 っ
鷹 栖
黄 巾
黄 熱
黒 井
黒 坂
黒 服
黒 海
黒 鉛
齧 類
龍 夫
龍 岡
龍 禅
龍 虎
から かわ
から かう
リー ブ
リー ・
リー ガー
ター ナー
ター アンダ
ため らい
10 75
イン キ
イン ナー
イン プレ
イン ディー
イン カレ
ット ロ
また もや
ート リアル
あり ふれ
00 7
00 83
あっ け
あっ ちこ
12 12
12 25
12 38
11 50
er ger
18 30
18 14
18 25
18 24
18 27
18 34
18 01
ディ バ
ディ ミ
ディ アー
ディ ジョン
でき ごと
ント ス
ティ ナ
ティ ーム
ティ リアン
ライ ラック
ショ ベル
ショ ルダー
an ia
in de
in ary
in ese
15 12
15 60
15 78
15 80
15 36
15 56
15 88
15 69
15 85
15 95
15 84
15 91
コン ティ
コン バット
コン ディション
コン ストラクター
コン バーター
ファ ックス
ファ ルス
ファ サード
ファ シスト
ファ ターゼ
ファ ヴェーラ
バー ナー
バー ゲン
バー ナード
バー ベキュー
en st
ロー ネ
レー バー
プロ ン
プロ パン
アル コ
アル パ
アル ノー
アル フレッド
アル ロサ・
テレ ジア
テレ パシー
16 17
16 24
16 23
16 62
16 44
16 36
16 72
16 85
16 71
ar ia
or m
or um
or ld
シャ ナ
シャ マ
シャ ム
シャ ッド
サー モバ
サー ターアンダ
タイ ツ
ステ アリング
17 18
17 41
17 51
17 72
17 61
17 86
17 07
17 64
17 85
キャ バ
キャ リン
キャ ブレ
フィ リア
フィ ックス
リカ ン
ジャ バ
ジャ ラ
ジャ スティン
al ski
14 00
14 22
14 76
ダー リン
at ac
at ing
at ian
at ure
ラー ブ
カー ゴ
カー ポ
カー ニバル
シー ブ
シー サケット
シー ケンス
サイ アー
サイ コミュ
サイ ハテ
アメ ーバ
es c
チャ ウ
チャ ピ
チャ ール
チャ リティ
チャ レンジャー
チャ ルトリス
レイ ズ
とも こ
スタ ス
スタ イン
シュ テ
シュ ール
シュ ナイ
シュ ヴァイ
エン ガ
エン デ
エン ヌ
エン スト
エン ロン
is er
is land
24 2
クラ リ
クラ イン
クラ クフ
セン シャル
パー プル
パー ミル
ol in
ol as
ジョ ウ
ジョ アン
ジョ イント
取り 返し
取り やめ
取り 外さ
取り 囲む
取り 除か
取り 仕切っ
22 3
22 6
22 8
フォ ノン
28 5
オー ソ
オー テック
it ation
it ary
27 1
27 09
ウェ シ
ウェ ポン
レン ダー
しま なみ
ナー デ
ナー ン
26 8
キー レス
mm ys
スペ クター
フェ イ
フェ ゴ
フェ ニ
フェ ール
フェ ロー
フェ ティッシュ
オン バト
大き けれ
かけ ら
かけ はし
コー カ
コー パス
サン パン
サン アントニオ
アン バー
アン ダル
ジェ ム
ジェ イズ
ジェ ラール
ジェ ラルド
ジェ ロニ
ジオ ング
ニュー イングランド
ニュー カッ
ランド スケープ
アイ フル
アイ ボリー
st u
st ri
st art
st yle
50 4
re ad
ro u
ro ugh
アー リマン
アー ネスト
ブル ボン
プレ ース
フラン ツ
フラン ケン
フラン クル
ベル ガ
ベル サイユ
ジン と
アニ ュ
アニ ー
アニ ソール
さら っ
ch em
IC V
IC AO
le ar
モン ターニュ
モン バサ
ダイ ブ
チェ イ
チェ コス
引き 金
引き 渡さ
引き 抜く
シア ード
クロ ウ
クロ ース
付け 根
こう もり
こう えん
こう くう
タル ボット
40 2
40 3
40 88
IS M
IS IL
IS SN
うち ゅう
am ily
us r
as an
ウィ ー
ウィ リー
ig in
ig gs
入れ よう
グラ マン
グラ ヴェ
グラ ミー
グラ シエ
持ち 分
持ち 物
持ち 直し
持ち 帰り
il i
il es
il osoph
マー ナ
マー ティ
マー プル
マー カス
マー メイド
ブラ ス
ブラ ニ
ブラ フマン
バル コニー
カル テ
カル ダン
カル ケドン
マイ ティ
BS D
ころ ん
ンス キー
バイ イ
バイ ヤー
バイ ナリ
ac id
シン ラ
シン シナ
ドル フィン
ヴィ ケット
ヴィ エイ
ヴィ チェンツァ
ガン ダル
ガン テ・
ヴァ ネ
ヴァ イル
ジョン マスター
プラ ク
od a
od on
デン バー
ビス ケット
トラ ベ
トラ クター
AN T
om a
om an
om on
デー ライト
60 2
ou g
ou ld
パン テ
テン プレート
ポン 酢
ent ary
ジュ リー
ed s
ed y
ed er
たい てい
アク スル
アク シオ
トリ ビア
そう めん
St op
St ate
St ore
ハン ナ
ハン キング
ハン ティング
ハン ギング
乗り 物
乗り 出す
乗り 越える
ダム ナン
TO R
TO CO
TO SHI
id en
id es
id ea
ra el
イス カンダル
ヴェ ローナ
un sign
35 7
かり き
ファイ ティング
IN TER
カン バ
カン ピ
カン プ
カン ガルー
生まれ 変わっ
生まれ 変わる
入り 込む
48 4
パイ ク
パイ ズリ
インター セプト
組み 替え
ON GE
ユニ バース
ST ART
ハイ ランド
ハイ デン
切り 取っ
マル イ
マル ス
マル ティ
マル ハニチロ
ec ut
ot ive
バン ダ
バン パー
バン タム
シェ ーン
ag an
ッグ ス
70 8
70 9
70 50
ボー ダー
ボー マー
ボー ガン
ボー フォート
ボー カリスト
um u
um an
45 2
45 8
NH V
オリ バー
ter fly
つけ よう
立ち 食い
立ち 寄っ
ディー ニ
ディー ・
In te
In formation
In jection
ソフト ウエア
ファン ディング
ad or
AL SA
やす し
テル ペン
ur g
ur y
ur ent
78 0
AS F
AS W
VE NT
AM OND
80 9
im um
すべ ら
すべ り
スティ ル
フリー ク
フリー ランス
メロ メロ
ブレー ン
ラス カー
39 1
SP D
SP ACE
ウル リカ
ケン プ
ケン バッカー
ケン シロウ
ルート ヴィヒ
ギャ バン
ギャ ロップ
ピン ポン
ナン シー
ナン キン
クラス ノゴルスク
oc t
ph ant
ph ilosoph
36 1
36 6
インド ア
Ch E
Ch inese
ッツ ォ
ul ation
ul ata
コース ター
トロ ス
OR A
チー ナ
セル ズ
46 8
AP S
マス ネ
マス キング
のり お
ジャン ピング
タイム リー
Vol ume
バラ スト
58 6
ell es
ap i
ap er
ap on
キュ ウ
キュ ウリ
ブリ ティッシュ
The ory
The ater
ピー チ
ピー プル
使い 魔
op e
打ち 合わせ
打ち 明け
打ち 解け
300 2
アラ ーム
アラ スカ
アラ ビアン
ギュ ンター
付き 従う
思い つい
思い やり
ちゃん ねる
ラム ネ
チュ ートリアル
ノー ツ
ノー サンプトン
エア ポート
OS E
クレ メン
ストラ シア
チョ イ
チョ ク
チョ ボ
チョ イス
ri k
ri es
ri ev
ri ft
カラ ッチ
エレ ナ
エレ ガンテ・
バック グラウンド
プライ アンス
Al fred
ニッ シャー
CO AST
CO GAG
ノン アルコール
スコ ッツ
勝ち 取っ
勝ち 上がり
ドラゴン クエスト
LI FE
アフ ガン
アフ タヌ
ind ing
ソー シャル
56 1
しょう こう
スタン バイ
ian t
ID AY
ist ry
ist ics
LE ASE
57 5
呼び 戻さ
ab b
ab ase
フラ ツィ
ヴォ ド
ヴォ ック
ヴォ チヌイ
59 4
59 7
IT U
ブレ ヴェス
清水 町
食べ 歩き
かん しゃ
追い 込む
追い 越し
追い つめ
RE S
RE LEASE
サル コ
せい ぜい
オリン ピア
作り 出さ
しゃ い
しゃ べる
しゃ かりき
迎え 入れ
なん きん
プル ギス
比べ れ
ok i
49 6
モー リス
モー メント
ニコ ル
ニコ ラス
BO YS
けん きゅう
AI WAF
オブ ・
ほう じょう
ドライ ヤー
巻き 起こし
巻き 添え
落ち 込む
ホー フェン
LO GY
敗れ 去っ
TR Y
TR AL
コロ コロ
コロ ッケ
サラ カヤシ
EX CHANGE
助け 出し
モンスター ハンキング
ゴル サ
ゴル ドン
読み 出し
読み 上げ
978 47
Pro ced
Pro cess
Pro gramm
Sh ow
Sh ap
Sh op
Sh ort
Sh ift
iss ued
UN ES
UN DEAD
UN ISON
ドゥ ーム
PG G
オート メーション
ギル バート
ケル ソー
ホテル ズ
上下 巻
オス カル
エリア ス
スラ ウェシ
コンパ ル
コンパ ニオン
ごう じょう
アス ロン
キン 肉
ボル ン
art et
ich i
キリ ノ
結び つき
結び つける
ビジ ター
あら わす
かか わり
決め 台詞
グリーン ランド
まち まち
ミル ザ
ip edia
ob i
ob er
まつ だ
Co ast
ゆう すけ
アカ ギ
コレ ヲ
パル ティ
パル チザン
ボス ニア
しろ い
やり 手
スポ イラー
スポ ニチ
パリ ゾ
sh ibuya
きょう こ
きょう じ
SU B
スマ イルス
ゼン リン
ウィリアム ス
投げ 釣り
ブラック ウェル
Di amond
ib a
メル ボルン
くら ま
ブロ リー
IE EE
アウト ロー
モノ マー
FA X
Pr ime
バンク シア・
たん ぽ
たん けん
ドライバー ズ
埋め 込む
押し 付け
押し 倒す
Mar ia
エロ ティック
高松 宮
ヘル ツ
ムー ア
ムー ヴ
モリ ブデン
カタ リ
コル ク
コル チコ
コル ンバ
Cl ient
LU CK
MA STER
MA JOR
ずか しい
マリ 子
ウィン ストン
リット ン
ord ing
con e
con n
おお わ
ang el
IG BT
SD A
De f
De part
De vel
まさ か
セイ コー
チア リーダー
チア リーディング
武蔵 村山
ペル シャ
09 1
よし お
よし だ
ann es
ann iversary
チュー リッヒ
ミオ トニア
DE SEO
モール ス
af ter
送り 込み
送り 込ん
MI YA
sp e
抜け 出し
SC B
En cycl
うる ま
ハンド リング
HT TP
おか ず
おか やま
もし もし
アダ ド
ING S
いろ は
ガール フレンド
ハンター ズ
リーダー シップ
アルファ ロメ
フィルム ズ
スパイ ダース
ホン マ
ホン ジュラス
マツ カネ
プロダ クト
SO H
SO LO
エース コン
ちょ い
はる み
コピー ライター
ツィ ヒ
ツィ ー
トレー ディング
ムラ ビ
サンダー バード
As c
As ia
As ian
per or
れん が
クー プ
張り 出し
ish a
カム シャフト
シュー マッハ
DO G
大手 前
小野 寺
GO OD
引っ 掛け
FR IDAY
おも い
ハリ マ
がん ばれ
アリ バイ
ケイ ティ
PD MS
エリ ナ
キュー ブ
グロ ブリン
ロング アイランド
じゅう たん
やし き
ファイナ リスト
ES R
スリー プ
借り 上げ
クロー ジング
語り 継が
クラウ ディオ
Ph one
Ph oen
じゅ つ
メディ カル
pro ject
pro ble
pro file
ML B
SE TOU
ear s
イエ ズス
スカイ ライナー
太刀 洗
oo o
りゅう どう
セレ ナード
ブー ケ
ivers e
My uk
Sc ient
pl ay
アート マン
ロマン ティック
フィル ハーモニー
Am o
Sm ile
ほん の
やく ざ
ッパー ズ
ラグ ーン
Gu ide
Le o
MG AMES
su mmer
とど まる
小川 原
DM MGAMES
cl ub
させ よう
アウ ストラシア
エッ センシャル
ソル チロー
ヨー ゼフ
ヨー グルト
吹き 飛ばす
こん ちわ
スキ ーム
Car e
はり ま
トライ アスロン
カテ ジナ
ビュ ウー
Mag azine
ふく い
フー バー
叩き 上げ
叩き つけ
叩き 落とす
薬師 丸
ick en
フェン テ
ction s
たけ お
エスカ レート
エスカ レータ
HO ME
明石 家
Mon key
TA IN
みな せ
ザイ ア
振る 舞う
Ex cell
Wi Fi
ひら めき
ネオ コン
ベス ナー
神宮 前
str ing
SA W
TI M
yl inder
アジ ト
ジャイ ロ
ヴァイ キング
JA ZZ
Lin col
ブラン ケット
ブラン ディング
ブラン デンブルク
rec ords
ock et
CT ION
Go th
SR M
移り 住む
かな め
Pi eces
プロテ オ
アンダー セン
OF DM
アセ チレン
アポ ロン
八重 子
抱き 合っ
シェイ ク
Dr iver
Dr ums
SM AP
プー チン
Tr ack
YZ PB
住み 込み
住み 着い
Sup port
かぶ せ
パフォー マー
空き 家
閉じ 込める
シェア リング
PR IDE
Res ort
na e
あん こ
ハマ っ
メトロ ポリス
食い 違い
VIS A
feat uring
ヘルム ズ
ヘルム ホルツ
ユキ ヒデ
千種 町
ストリ ッパー
パンチ ラ
あや の
あや かし
ふじ わら
中津 川
造り 出し
Cent ral
HS BC
col e
ser p
もも こ
INE SS
Is rael
ym ella
なき ゃ
オーク ランド
ポルト ヴェー
ミッド ランド
モル モン
手伝 う
DD G
FE LCO
Fl ight
Fl ower
カウ フマン
バク テリア
アルミ 製
Chr is
ウズベ ク
ニール セン
高島 平
KI LL
Qu artet
大井 川
Ele gy
La urent
gr ity
キサ ナ
キサ ジア
マスク ド
プロセ ッサー
Fr ont
すみ やか
ゼノ バース
ベー カリー
ワル プルギス
控え め
ray er
ood s
オキシ ゲナーゼ
ゾー イ
見積 もっ
見積 もる
UD P
ger y
ガシ ワ
テオ ドリック
マニア ック
無理 やり
はん こ
イグ ニス
キッ ス
キッ ザニア
デ・ ボザール
パブリ ッシング
ありが と
Ne igh
うら おもて
なじ ま
アッ セン
ウイング リュウケンドー
ウルトラマン ダイナ
KE I
ru ct
ふん だん
erman n
ユニバー シアード
GEN KI
MON STERS
Sim s
クア ットロ
スノー ボード
泣き 虫
蹴り 技
チャイ ナ
はしご 車
Cy c
Har bor
しっかり 者
ひこ ぼし
れい な
アング ラ
マリン ピア
幼馴染 み
Ag re
Ag ain
min istr
スプ ーン
テラ ピー
ヴェー ダ
Em peror
dro p
サウス カロライナ
マスカ ラ
ont an
コーン スターチ
BI OS
DI Y
DI AMOND
Dav is
SQ Q
SQ S
Vo ice
のう ぎょう
日の 丸
本山 町
グレゴ リウス
あきら め
GU I
GU MB
met al
met amorph
エリー ザ
エキス パンション
ドリー マー
ハイン ケル
バール ン
リグ リア
ランカ スター
ith m
パロディ ウス
Ear l
Part ner
Sa id
VIE W
おさ な
エネ ミー
エント ランス
デリ バリー
リャ ン
下請 け
振り返 る
掘り 下げ
アーバン ネット
フランチェ スコ
スーパ ースター
Tom ato
bu z
ск о
かき 氷
かげ ろう
ひき 逃げ
ウエ ディング
切り離 す
Dist ingu
Ma ur
Po int
Po etry
Sal es
ов ич
すす む
たた み
オズ ボーン
ハナ シ
ラウ ダ
吐き 出す
四条 畷
織り 込ま
STR AI
STR ONGE
みなと みらい
ウィキペ ディア
bur gh
fo ot
pre vCode
いら っ
サク セス
モテ る
突っ 込み
突っ 込ん
飼い 主
unn ing
prec ious
sol ve
あず ま
しの ぐ
しの ぶ
エナ メル
クリスト フ
那須 塩原
麻衣 子
フォルト ゥ
Academ ic
Micha o
Si C
つぶ し
つぶ やき
のぼ っ
はつ らつ
エタ ニット
クェ ス・
ヒゲ ナガ
架け 替え
チャップ リン
スペクト ラム
コータ ロー
Str and
Bro thers
Jo int
Pre fect
do i
light s
かが やき
シノ ビ
レプ ティリアン
print f
飛び降り る
Bit Stream
Hun ting
KP MG
Rail road
TW O
ブッ ダ
リバ ウンド
リバ ゴルサ
目の 敵
筑紫 野
膨ら ま
TRA IN
Arch ive
Ir mop
Sl av
SON G
Tra in
henn i
new s
ちえ こ
アタ ッカー
ゴイ ム
シラ ヒゲ
モナ コ
八丁 堀
多賀 城
安佐 北
inter national
ウェイト レス
カルロ ヴィ
BEAT NIK
Eng ine
Gut i
HAPP INESS
Pat r
RX D
gu ard
ев ич
そろ っ
もた れ
ジス フェル
スウィ ート
スチュ ワート
ッセ ウス
ロジ ック
ロビン ソン
idd en
iller y
Dire ct
CAR N
CIT TA
Dec ember
Med ical
Sand s
Wol fg
せっ かく
イザ ベル
スクラ ム
ヨル ゲン
レク サス
・トゥ ・
ティム ール
aven ly
Blood y
Cir cu
God s
JUN CTION
MAT P
Year s
Ze al
fol iosa
いの うえ
はせ がわ
アマン ダ
クォ ーター
グァ ン
セブ ンス
戸惑 う
辿り 着い
阿久 根
隣り 合う
ライツ ヴィル
ジョイ フル
シンフォ ニア
ヴォイ ジャー
Award s
But terfly
DN ow
Ple ase
PAT H
RIS ING
Sid ymella
こぎ つけ
アデ バヨール
サシ ガメ
ロニ キ
海老 名
生い 茂
編み 出し
Reb orn
Analys es
Analys is
DHC P
Fo ot
GAR AGE
Gov ernment
mil k
sur gery
きゃ ん
つま 先
ぴっ たり
コソ ボ
ハギ ワラ
ミハ イル
ミハ エル
ヤギ ェウォ
微笑 み
田野 畑
led ge
ほっか ほっか
ロサ・ バンクシア・
CY P
Cu Cl
Ho over
Lib rary
lot z
mac OS
yth on
イニ シア
コヴェ ントリー
シチ リア
ツォ フ
テハ チャピ
ベカラ ズ
ポリエ ステル
ラミ ロ
豊玉 北
インジ ケータ
プロビデンス ・ヘルスシステム
aragon és
アスレ チック
cond ition
ジェネレーション ズ
transl ation
リハビリ テーション
Cle mmys
Dat abase
Fut ure
Fight ing
Korn Shell
Ris ing
tw o
ль н
エメ ラルド
オニ キス
カポ ネ
ハジ メ
マッカー サー
ラジャ ダムナン
一ノ 谷
津和 野
降ろ さ
クラスタ リング
取り締 まる
thi op
ジュデェ ス
セントジョン・ プロビデンス・ヘルスシステム
エスパー ニャ
dire ct
scient ist
comple ment
ピクチャー ズ
Ital ian
Railway s
有栖川 宮
Bom is
Bul let
Edu cation
Gon z
SEC RET
Wik ipedia
bran ch
horn fels
mel ody
vent ion
くつ ろ
アスペ リティ
アブラ ハム
ウプ スラ
オオカ ミ
カワイ イ
ガリオ ア
ギム ナジウム
スロット ル
ゼネ コン
ツバ メ
テッサ ロニキ
ナショ ナリズム
ネリ ネ
マング ローブ
御代 田
敢え て
神保 町
チャクリ キ
コミュー ン
ニッポンレンタカー アーバンネット
MEET ING
アンドロ ゲン
Organ ics
Comput ing
Link ed
Appl ication
オモイ マツカネ
ヘドグロス ジュニア
Rundfun k
Fib ich
Farm note
GEC F
GNO ME
Mast ers
Morn ing
OPC G
Suss man
Town ship
YOS HI
hib ition
mov ement
かぐ や
かに めし
こな せる
ちづ る
イサ ベル
イージ ス
オデュ ッセウス
サントン ジュ
トピ ックス
ドヴォ ジャーク
ビッカ ース
ピルス ナー
マケド ニア
ムスタ ファ
リッ ケンバッカー
リムー バル
ルシ ファー
伊福 部
出で よ
垣間 見
度量 衡
貴志 川
ショール ーム
ローザン ヌ
プロバイ ダ
ステブレ レス
サイエン ティスト
ポーツ マス
バルク ハウゼン
ロンズ デーライト
ASC II
ocon f
チュニ ジア
ストラテ ジー
アドバイ ザリー
インタビュ アー
エクスプ ローラー
DEPART MENT
スルホ ニル
ウーラ ニアー
Boeck ler
ダイナミ クス
Metz ger
Quer cus
Artif icial
Sommel ier
ガオガイ ガー
Rasp berry
スヴャト ポル
Criter ia
Dor ado
Dai wa
Ft M
Fle et
Fish er
Hed ana
Irel and
Kow alski
Kla us
Nint endo
Pw C
Sle ep
Sept ember
UY K
Vamp ire
Zer oconf
pIC ln
あこ がれ
いもう と
こおろ ぎ
でっち 上げ
なかん ずく
もどか しい
アディー レ
アムラ ックス
カチコ チ
キユー ピー
キェル ケゴール
コヒー レンス
サウン ズ
シマン テック
ソールズ ベリー
トクタ ミシュ
ネビュ ラ
ババン ゴ
バズー カ
ピリミ ジン
ヘクター ル
ヘイス ティング
ヘカラ サル
ヘーラ クレース
ヘラク レス
ベネズ エラ
ホッカ ナム
ボロボ ロ
ムスター ミン
モザン ビーク
ヤロスラヴ リ
ユート ピア
ユヴァス キュラ
ラヴェン ナ
ラミノ パチー
リクライ ニング
レパート リー
具志 堅
呼韓 邪
國府 田
待賢 門院
押坂彦 人
毘沙 門
無邪 気
睡虎 地
辛うじ て
道頓 堀
インプレ ッサ
あっちこ っち
アルロサ・ ミールヌイ
サーモバ リック
サーターアンダ ギー
キャブレ ター
アンダル シア
ニューカッ スル
チェコス ロバキア
シンシナ ティ
ジョンマスター オーガニック
unsign ed
エレガンテ・ クアットロ
アフタヌ ーン
フラツィ オーネ
ブレヴェス ニク
Phoen ix
proble m
SETOU CHI
ソルチロー ヴォチヌイ
Lincol n
ポルトヴェー ネレ
metamorph ic
Tomato es
Distingu ished
STRONGE ST
Prefect ural
Irmop lotz
Wolfg ang
ラジャダムナン スタジアム
" →
" 。
" 』
) ^{
, $
0 28
0 80
0 44
0 46
0 41
3 200
3 12
3 15
3 29
3 78
5 11
5 25
5 26
5 29
5 62
5 39
5 44
5 36
6 26
6 44
6 500
6 58
6 41
7 19
7 16
7 17
7 28
7 27
7 44
7 37
7 47
7 41
7 64
7 95
8 11
8 18
8 14
8 100
8 45
8 34
8 58
8 42
8 300
8 67
9 15
9 40
9 35
9 500
9 51
9 600
9 88
9 86
9 77
9 79
A VD
A ID
A BA
A sh
A BE
A OT
A udio
A HEAD
B F
B an
B is
B AS
B RE
B ang
B ug
B iel
B oo
B LA
B KC
B row
B ird
C é
C er
C ro
C ab
C ard
C age
C AF
C orn
C UP
C ORN
C ateg
C afe
C ancer
C ache
D en
D un
D IN
D em
D OS
D up
D ang
D ark
D enn
D iver
D ASH
E G
E st
E BS
E QU
E KI
E thiop
F H
F il
F EC
F AC
F RE
F ine
F ile
F act
F FR
F ACE
F air
F rom
F INITY
F ukuoka
F amily
G G
G as
G TO
G PC
G all
G igi
G AKU
G unn
G ERU
G erry
G DP
G VW
G ANG
G tk
H G
H N
H u
H ä
H il
H ER
H ok
H ard
H ex
H ALL
H AWA
H ept
H yster
H cup
H esper
H ermann
I f
I PC
I MS
I UC
I JF
I UP
J B
J AC
J ew
J ung
J LG
J ones
K G
K W
K h
K m
K ü
K at
K ul
K ob
K ult
K lo
L X
L en
L at
L IC
L ad
L ow
L ind
L LE
L FA
L AB
L ocal
L ONG
L overs
M g
M t
M u
M ol
M ig
M AL
M ill
M yst
M ono
M eg
M ick
M MX
M oun
M err
N ON
N PC
N ich
N az
N ARU
O t
O w
O y
O z
O VE
O ct
O no
O mag
O ZE
P u
P in
P TO
P ia
P ers
P FC
P age
P KO
P ty
P erson
P ink
P ump
P iano
P rain
P USH
P ocket
P ython
Q A
Q M
Q Z
Q le
R Z
R y
R en
R ic
R ow
R ul
R ap
R YO
R UN
R age
R KO
R ING
R ama
R MG
R ank
R ACE
R he
R ita
R aven
S k
S or
S el
S em
S ay
S AC
S AK
S ie
S AB
S LA
S ession
S ister
S END
S ATUR
S CHOOL
T en
T el
T it
T ur
T est
T ort
T ERS
T ogether
V U
V as
V AL
V ers
V ID
V ie
V IP
V IA
V GA
W L
W at
W OC
W ord
W TA
W ild
W ake
W CW
W ave
W izard
W iley
X L
X i
X or
X II
X IL
Y am
Y AL
Y ell
Y ak
Y uk
Y BALL
Y USU
Z B
Z I
Z Y
Z i
Z oo
Z AWA
Z den
] [
a ñ
a er
a ud
b ó
b ộ
b al
b is
b ol
b ad
b ers
b iz
b und
b ject
b ott
b ilis
c ing
c ra
c ut
c ul
c oh
c ord
c ros
c ult
c row
c ylinder
d n
d it
d re
d est
d if
d yst
d ata
e V
e i
e qu
e ff
e asy
f i
f n
f al
f ia
f und
f ield
f ume
g or
g al
g un
g ow
g ate
g af
g sti
h r
h art
h ello
h eter
h ope
i è
i os
i Phone
j u
j á
j am
j our
j ob
j ournal
k j
k k
k ar
k at
k iss
k ool
k ola
k ole
l m
l ia
l ut
l ap
l iam
l anguage
l uz
m ind
m ik
m ass
m ono
m ore
m ult
m ai
m aj
m box
m orph
n at
n st
n us
n ir
n ers
n if
n ie
n iak
o j
o y
o à
o on
p ra
p ill
p to
p ens
p ull
p ng
r n
r in
r ac
r ite
r ons
s á
s ó
s ay
s ens
s sel
s Lock
t A
t t
t ic
t om
t ok
t our
t ack
t ual
t alk
t ogether
t gart
u a
u ß
u er
u ary
v y
v ich
v ocal
w an
w ing
w iss
w oh
w alk
x yster
y on
z ig
z ur
z ione
ä n
ð ur
ú c
þ inna
đ oà
ɑ ˑ
В а
Д а
е н
е с
и е
и о
к а
л от
н а
у р
ф лот
ا ب
○ ○
「 "
「 -」
」 -
『 -
あ 〜
あ ご
あ し
あ た
あ ぶ
あ ける
あ かり
あ らい
あ そび
ぃ む
い お
い ー
い 年
い ぶり
い しょう
い もち
い びき
う ざ
う ね
う の
う れ
う ける
う たい
う しお
え だ
え んどう
お や
お せん
お なじ
か ざ
か ど
か び
か わっ
か わら
か ざま
か ばっ
が え
が ね
が め
が 一
が 関
が たい
が たく
き き
き ざ
き な
き び
き め
き る
き もの
き いち
き もち
き たし
き ゃく
く せ
く び
く む
く どう
く くり
く だら
く えん
ぐ ろ
け え
げ っ
げ つ
げ 茶
こ ぐ
こ ち
こ は
こ みち
こ しら
こ ぼれ
こ げ茶
ご ま
ご め
ご ん
ご ざい
さ ば
さ め
さ も
さ なか
さ かえ
し ほ
し よ
し じみ
し ぐさ
じ お
じ き
じ つ
じ てん
じ っくり
す じ
す な
す ば
す っぽ
す すみ
す っぽん
ず い
ず らす
せ せ
そ っ
そ つ
そ その
そ ぶり
た べ
た ろ
た ー
た たり
た かい
だ ま
だ ろ
だ えき
ち ほう
ち がう
っ 人
つ え
つ こ
つ じ
つ た
つ み
つ とめる
づ ち
づ な
で っ
で も
で なし
と け
と まれ
と しお
ど っち
な ず
な なみ
に あ
に こ
の 丸
の 神
の 間
の ける
は げ
は なし
は なさ
は やし
は やる
ば え
ば け
ば や
ば なし
ひ ね
ひ れ
ひ ん
ひ ずみ
び し
ぴ ー
ふ け
ふ っ
ふ もと
ぶ せ
ぶ み
ぶ ろう
ぷ ち
ぷ らす
ほ ら
ほ っと
ぼ っ
ぼ ー
ま づ
ま ど
ま える
ま ばら
ま わし
み と
み み
み ゆ
み さき
み きわめ
む な
む き出し
め ざま
や い
や ぎ
や せ
や める
ゆ っ
ゆ れ
ょ く
よ び
よ ぶ
よ ー
よ しみ
り さ
り 上げ
れ な
ろ くに
わ たなべ
ん し
ア リー
ア プロ
ア レイ
ア ドル
ア レス
ア ダン
ア グリ
ア ウェイ
ア ヴァン
ア ヒル
ア ティック
ア タナ
ア ドルフ
ア グスタ
イ 段
イ スト
イ ルー
イ ブラ
イ バル
イ ズム
イ ノック
イ デア
イ プシ
ゥ ・
ゥ ベル
ゥ リアス
ウ キ
ウ ツ
ウ ナ
ウ ニ
ウ ール
ウ ード
ウ コン
ウ ーン
ウ ダイ
ウ ソン
ウ ドウ
ウ ロコ
エ サ
エ ツ
エ ニ
エ ピック
エ ラリー
エ カス
エ リク
エ メリ
エ プソン
エ ヴィチ
ォ タ
オ エ
オ ステ
オ クラ
オ メガ
オ ミナ
オ パール
オ ニクス
オ セロ
カ ペ
カ マ
カ スト
カ ルー
カ チン
カ ミング
カ ソード
カ レント
カ レル
カ ミナ
カ ジュアル
カ ブス
カ ブト
ガ ビ
ガ マン
ガ ウン
キ イ
キ ョ
キ リア
キ シー
キ ッカー
キ エー
キ ヨシ
キ セキ
キ ボシ
ギ ラン
ギ ュー
ギ ラス
ギ ニン
ク ァ
ク ゴ
ク シ
ク ビ
ク イン
ク レス
ク ナップ
グ フ
グ アド
グ ザン
グ レーン
グ アノ
グ プタ
ケ タ
ケ ム
ケ 崎
ケ トン
ケ ヤキ
ゲ ティ
ゲ レン
ゲ イト
ゲ ノム
コ キ
コ ノ
コ マン
コ プラ
コ トリ
コ ッパ
コ アント
コ ペル
コ ニカ
コ ジマ
ゴ ト
ゴ ブ
ゴ リア
ゴ ロン
ゴ コロ
ゴ チャック
ゴ ジュラス
ゴ ノスティ
サ ノ
サ フ
サ メ
サ ネット
サ バイ
サ ヴィ
サ プリ
サ ブリ
サ ッサ
サ フォーク
サ バク
サ オラ
サ ッポ
ザ レ
ザ ーク
ザ リング
ザ ンス
ザ フォード
シ テ
シ ワ
シ ンド
シ モン
シ タン
シ チー
シ チュ
シ オール
シ チュー
シ ボレー
ジ カ
ジ ガ
ジ ジ
ジ ト
ジ プ
ジ エン
ジ タル
ジ ングル
ジ ブチ
ジ ブラル
ス ゴ
ス コー
ス チェ
ス チーム
ス プレイ
ス モー
ズ ラ
セ ア
セ グ
セ パ
セ プ
セ ティ
セ レン
セ ビー
セ イラ
セ ・リーグ
ゼ ール
ゼ ラン
ソ サ
ソ バ
ソ リスト
ソ リュート
タ ジ
タ ッ
タ フ
タ ガン
タ ミル
タ マネ
タ トゥー
ダ ク
ダ グ
ダ ヤ
ダ レ
ダ ント
ダ カール
チ エ
チ ワ
チ ・
チ アー
チ クタ
チ グモ
チ ロル
ッ ラ
ッ リ
ッ サンス
ツ ・
ツ ッコ
テ レー
テ ックス
テ ニア
テ マラ
デ リング
デ ッサ
ト カ
ト ノ
ト モ
ト ・
ト リート
ト カラ
ト ドン
ト ミカ
ト ピカ
ド ク
ド ノ
ド バ
ド フ
ド ナー
ド スペ
ド リアン
ド ッカ
ド ミン
ド レイク
ド レフ
ド グマ
ナ カ
ナ キ
ナ チ
ナ ブ
ナ ット
ニ ート
ニ キー
ニ ウス
ニ ムーン
ヌ ン
ネ ウ
ネ ギ
ネ ジ
ネ メ
ネ ポン
ネ グロ
ネ マリン
ネ バネ
ネ サニ
ノ 内
ノ 出
ノ 木
ノ 森
ノ 浦
ノ ヴェ
ノ ミー
ノ ストロ
ノ ヤン
ノ イエ
ノ スタル
ノ サウルス
ノ カムイ
ハ ス
ハ バ
ハ ・
ハ タン
ハ イド
ハ ドロ
バ ケ
バ ニ
バ ハ
バ ント
バ ティ
バ ファ
バ ロー
バ ウン
バ ニア
バ ニング
バ ウム
バ ウンド
バ ヤン
バ ティック
バ ジル
パ チ
パ ネ
パ ウンド
パ ウルス
パ オロ
パ ウムガルトナー
パ ガニー
ヒ ビ
ヒ ヤ
ヒ ッツ
ヒ ッター
ヒ ルトン
ヒ ミツ
ヒ ハウゼン
ヒ ツジ
ヒ ッグス
ビ エ
ビ ラー
ビ ジン
ビ バン
ビ ショップ
ビ エラ
ピ レーション
フ ウ
フ ス
フ ョ
フ ッド
フ レンズ
フ レンチ
フ レーバー
ブ エ
ブ レン
ブ テン
ブ リュ
ブ ルトン
ブ シャール
プ ピ
プ ン
プ リア
プ チャ
プ ルート
プ テラ
プ キンス
ヘ ム
ヘ ロン
ヘ ミング
ベ ム
ベ レ
ベ ティ
ベ ーカー
ベ ッカ
ベ ドー
ベ リュー
ベ ッティ
ペ ト
ペ ール
ペ ドロ
ペ プシ
ホ ム
ホ ラ
ホ ライ
ホ クト
ホ ノル
ホ ロウ
ホ プキンス
ボ イ
ボ ナ
ボ ーク
ボ シュ
ボ ニー
ボ トム
ボ ラ・
ボ キサン
ポ レ
ポ ダル
マ ザ
マ レ
マ ター
マ ース
マ ーン
マ ダム
マ ウンド
マ チュ
マ デュ
マ コト
マ モル
マ ゼラン
ミ ライ
ミ ーン
ミ シン
ミ アラ
ミ リアム
ミ ユキ
ミ ヒラ
ム ニ
ム ラー
メ ニ
メ チャ
メ イル
メ イツ
メ ドー
モ サ
モ シ
モ ラン
モ ロー
モ ーン
モ ルド
モ ハーヴェ
モ デリング
ヤ ド
ヤ ック
ヤ フー
ヤ コブ
ュ ス
ュ アート
ユ ニー
ユ トレ
ユ タカ
ヨ ガ
ヨ ク
ヨ モ
ラ オ
ラ ケ
ラ チ
ラ ード
ラ ダー
ラ モン
ラ ケット
ラ ッパ
ラ メラ
ラ フィー
ラ ッス
ラ グラヴェ
ラ ザフォード
リ サ
リ ックス
リ ッピング
リ ベット
リ ミット
リ ザード
リ ッティ
リ ョー
リ ピート
ル オ
ル フト
ル モン
ル キア
ル ミナ
ル ジェント
ル ギャバン
レ グ
レ ブ
レ モ
レ コン
レ ーク
レ マン
レ ドラ
レ ッチ
レ ミー
レ ヒト
レ ッズ
レ ガシ
ロ リー
ロ ンド
ロ シュ
ロ ニア
ロ パチー
ロ プス
ロ ジウム
ロ レンツ
ワ キ
ワ ケ
ワ セ
ワ レ
ワ イス
ン タ
ヴ ル
ヶ 島
ヶ 森
ヶ 池
ヶ 浜
・ ウ
・ フィ
・ コー
・ ベル
・ メン
・ ウィ
・ センター
・ プラ
・ ビー
・ カリ
・ ウォー
・ ルン
・ ワークス
・ フォース
・ アルティメット
・ ドレ
・ ゴッズ
ー ツ
ー スト
一 三
一 世
一 任
一 口
一 式
一 心
一 清
丁 未
七 海
七 日市
万 延
万 が一
三 つ
三 幸
三 村
三 栄
三 門
三 鷹
三 栄町
上 分
上 宮
上 山
上 柳
上 申
上 総
上 階
上 石田
下 半
下 唇
下 妻
下 宿
下 心
下 校
下 県
下 道
下 顎
下 回っ
下 保谷
不 信
不 和
不 慮
不 敵
不 測
不 遜
不 向き
世 嗣
世 子
世 家
両 家
両 性
両 日
両 生
両 罰
両 脚
両 舷
両 車
両 院
中 倉
中 君
中 崎
中 洲
中 瀬
中 目
中 程
中 級
中 越
中 曽根
中 富良野
丸 心
丹 南
丹 羽
主 従
主 意
主 税
主 筆
主 管
主 著
乃 梨子
久 住
久 光
久 慈
久 松
久 美
久 藤
久 美浜
之 進
乗 れる
九 大
九 郎
乞 い
乞 う
乱 世
乳 母
乳 製
了 し
事 後
二 女
五 井
五 味
五 家
五 島
五 所
五 朗
五 藤
井 倉
井 本
井 関
亘 る
亜 貴
亡 骸
交 う
交 信
京 言葉
京 丹後
人 士
人 畜
人 身
人 選
仄 め
今 季
今 月
介 錯
仏 師
仏 滅
仏 語
仕 込ん
仕 込ま
仕 置き
他 家
仰 い
仰 木
仲 違い
任 ず
任 地
任 用
伊 作
伊 部
伏 木
休 学
休 眠
会 え
会 報
会 誌
伝 わり
伯 耆
伸 べ
伸 展
伸 生
伸 筋
伸 郎
伸 一郎
似 合わ
似 合う
低 層
低 空
低 額
住 寺
住 まう
佐 屋
体 液
体 腔
体 術
体 躯
余 っ
余 目
余 部
作 文
佳 代
佳 奈
佳 彦
併 称
例 示
例 証
侍 中
供 し
係 わる
俊 介
俊 彰
俊 治
俊 男
俊 太郎
俗 語
保 元
保 子
保 湿
保 留
保 身
信 二
修 三
倉 橋
倉 沢
倍 増
倒 木
借 地
借 家
偏 波
健 人
健 忘
健 美
偲 ぶ
偶 発
傀 儡
傍 流
備 蓄
催 す
催 告
傾 倒
僅 少
僕 射
僧 兵
儀 仗
優 劣
元 一
元 帝
元 明
元 職
元 ネタ
先 々
先 取り
光 っ
光 ら
光 り
光 人
光 州
光 徳
光 昭
光 男
光 太郎
光 一郎
克 幸
兌 換
免 責
免 れる
入 城
入 堀
入 射
入 府
入 籍
入 館
入 出庫
全 備
全 快
全 戸
全 敗
全 株
全 県
全 豪
全 館
八 雲
八 鹿
公 一
公 図
公 実
公 庫
公 私
公 設
公 転
六 条
六 男
六 郎
共 催
兵 役
典 子
兼 人
兼 営
兼 太
内 国
内 川
内 心
内 政
内 紛
内 股
内 面
再 々
再 任
再 審
再 録
写 実
写 植
写 生
写 経
冠 さ
冠 婚
冠 詞
冤 罪
冨 田
冷 害
冷 淡
処 し
凶 作
凶 器
凹 面
出 光
出 塁
出 社
出 稿
出 改札
出 掛け
出 かける
刀 鍛冶
分 乗
分 別
分 娩
分 数
分 かつ
分 かち
切 望
切 羽
切 腹
刈 谷
刑 期
初 動
初 老
初 電
初 霜
別 姓
別 記
利 光
利 家
利 己
利 次
利 水
利 男
利 秀
刺 身
削 る
前 々
前 代
前 任
前 哨
前 段
前 端
前 転
前 途
前 髪
前 寄り
前 払い
剛 力
剛 毅
剣 山
剥 がし
副 長
副 題
割 と
創 成
創 部
劇 物
劇 症
力 行
加 布
加 法
加 療
加 配
劣 り
劣 悪
助 かっ
助 っ人
励 み
労 災
労 組
効 か
効 用
勅 命
勇 人
動 議
勘 当
勝 人
勝 彦
勝 美
勝 頼
募 り
勤 王
勤 続
匂 坂
包 丁
化 工
北 前
北 洋
北 海
北 陵
北 館
北 足立
区 道
医 専
匿 っ
千 原
千 川
千 春
千 束
千 草
半 月
半 生
卑 猥
卓 志
協 働
協 栄
南 原
南 山
南 島
南 蛮
南 郷
南 野
南 限
南 島原
南 箕輪
単 価
単 装
博 志
博 文
印 判
印 章
危 害
危 ない
即 応
即 死
原 形
原 状
原 病
厨 川
厨 房
厳 復
厳 選
参 与
双 極
双 頭
反 戦
反 跳
収 受
収 差
収 まる
取 手
取 付け
取 調べ
受 取
叙 述
叢 雲
口 吻
口 絵
古 内
古 参
古 城
古 式
古 畑
古 称
古 稀
可 読
台 紙
叱 咤
右 回り
号 泣
各 市
各 校
各 県
各 艦
各 面
吉 城
吉 日
吉 林
吉 浜
吊 る
吊 るす
同 党
同 友
同 席
同 店
同 棲
同 い年
名 寄
名 松
名 水
名 跡
名 残り
名 付ける
名 乗ら
吐 い
向 日
吸 わ
吻 合
周 作
周 知
味 噌
味 わっ
味 わう
咆 哮
和 人
和 室
和 義
和 船
和 議
和 雄
咽 喉
哀 愁
員 弁
唐 人
唐 突
唐 船
唯 心
啓 二
啓 介
善 悪
善 戦
喋 っ
喘 息
喜 和
喫 する
嗜 む
嗜 ん
嗣 徳
嘆 く
噛 ま
噴 霧
噺 家
囁 か
四 王
四 股
四 隅
困 る
囲 っ
図 中
国 事
国 技
国 文
圏 央
土 星
土 橋
土 肥
土 門
圧 着
在 勤
在 外
在 家
在 留
圭 一
圭 吾
地 役
地 検
地 階
坂 崎
坂 野
坊 っ
垣 花
埴 輪
培 地
堀 井
堀 込
堂 上
堅 い
堅 守
堅 気
堅 牢
塁 上
塗 工
塩 冶
塩 分
塩 竈
墓 標
増 上
増 産
増 谷
墨 染
墳 墓
壇 ノ浦
壮 一
壮 絶
夏 生
夕 凪
夕 暮れ
外 人
外 力
外 孫
外 形
外 様
外 貨
外 向き
多 元
多 才
多 羅
多 恵子
夜 市
大 下
大 仙
大 典
大 卒
大 奥
大 岩
大 方
大 治
大 洋
大 熊
大 畑
大 礼
大 網
大 脳
大 芝
大 英
大 覚
大 豊
大 迫
大 鏡
大 飯
大 鳥
大 嫌い
大 二郎
大 多喜
天 塩
天 外
天 応
天 授
天 暦
天 荒
天 頂
太 り
太 上
太 朗
失 恋
夷 隅
奇 異
奈 央
奉 天
奉 幣
奏 し
奥 手
奥 の手
好 か
妊 婦
妙 子
妙 法
妨 げる
姓 名
姫 川
孔 雀
孝 志
孝 謙
季 語
学 寮
学 童
学 舎
学 館
孫 策
守 孝
安 保
安 寧
安 市
安 東
安 福
安 積
安 里
完 次
宏 光
宗 室
宗 悦
宗 社
官 営
定 型
宝 珠
宝 箱
実 例
実 直
実 費
実 車
実 録
客 席
宣 化
宣 帝
宣 誓
室 津
宮 司
害 する
家 内
家 慶
家 来
家 格
家 業
家 禽
家 茂
家 財
容 貌
宿 し
宿 敵
寂 しい
寄 ら
寅 吉
寅 泰
富 岩
富 野
寒 風
寛 和
寝 る
寝 具
寝 室
寝 屋
寸 断
寺 前
寺 門
対 局
寿 夢
封 ぜ
尊 大
尊 称
小 唄
小 堀
小 安
小 嶋
小 巻
小 指
小 文
小 村
小 梅
小 渕
小 烏
小 美
小 葉
小 角
小 鷹
小 黒
小 太郎
小 書き
小 久保
小 松島
小 遣い
尖 塔
尚 子
尤 も
就 か
就 労
就 業
尾 上
尾 大
尾 瀬
尾 藤
尾 野
尾 鷲
尿 路
局 舎
居 宅
屈 し
届 き
屋 形
屋 敷地
属 国
層 流
山 号
山 国
山 砲
山 科
山 縣
山 腹
山 賊
山 雲
岡 元
岡 豊
岩 内
岩 山
岩 橋
岸 本
岸 谷
峰 山
崇 仏
崇 峻
崇 敬
崇 神
崩 す
川 俣
川 平
川 本町
州 法
州 間
巣 鴨
工 人
工 商
工 費
工 面
左 上
左 腰
左 兵衛
巨 獣
差 出
巻 線
巻 取り
市 上
市 側
市 ヶ谷
布 地
布 志
席 替え
帰 朝
帰 途
常 々
常 田
平 泉
平 滑
平 谷
平 たい
年 玉
年 紀
年 頃
年 越し
年 老い
幸 い
幸 三
幻 冬
幼 く
幼 名
広 和
広 尾
広 幡
広 志
広 目
広 角
広 陵
広 まり
広 まる
庄 原
序 文
序 章
底 力
底 部
庖 丁
店 内
庚 寅
府 民
庫 内
康 弘
康 紀
廃 城
廃 寺
廃 絶
延 文
建 前
建 屋
建 替え
廻 る
弁 天
弁 明
弘 至
弱 み
弱 小
弱 気
強 面
弾 倉
当 人
当 町
当 麻
形 原
形 づく
彩 乃
彩 花
彫 っ
彫 る
彭 城
役 柄
役 立て
待 命
後 肢
後 脚
後 釜
後 書き
徐 州
徒 党
従 妹
従 弟
得 手
御 免
御 史
御 息
御 手
復 習
微 量
徳 仁
徳 目
徳 舜
徴 用
心 得
心 材
心 遣い
心 がけ
忍 ヶ丘
志 貴
志 布志
応 仁
応 戦
応 神
忠 位
忠 勝
忯 子
怖 く
急 死
急 病
性 愛
恩 田
恰 好
恵 美
恵 美子
悉 く
悔 やみ
悪 人
悪 女
悪 しき
悲 し
惣 領
惨 事
想 う
愚 連
愛 別
愛 想
愛 着
愛 護
感 性
感 触
慎 み
慎 太郎
慶 元
憂 鬱
憎 く
憎 む
憑 か
憧 憬
憧 れる
憲 章
懐 妊
戊 己
成 城
成 実
成 就
成 政
成 育
戒 厳
戒 める
戦 列
戦 型
戦 歴
戦 火
戦 おう
戸 町
戸 部
戻 せ
房 前
房 朗
所 作
所 内
所 掌
所 望
手 ま
手 中
手 帖
手 指
手 本
手 狭
手 肌
手 薄
手 賀
手 引き
手 ほど
手 書き
手 押し
才 色
才 覚
打 破
扱 え
扶 養
承 元
承 知
技 巧
抑 留
投 機
投 薬
投 開票
抗 がん
抗 うつ
折 半
抜 刀
抜 本
抱 卵
抱 っこ
押 上
拘 留
拝 し
拝 礼
拝 領
拡 がっ
拵 え
拾 う
持 論
指 板
挙 兵
挟 まっ
振 替
挾 範
捕 り
捕 捉
捕 縛
捕 まえる
捜 し
捜 一
捜 研
据 える
捺 印
掃 射
採 点
探 題
接 種
控 除
掴 ま
掴 む
揃 い
揉 め
提 灯
提 訴
揖 斐
換 地
換 気
握 力
揮 発
揺 らす
搾 り
撃 て
撫 で
擲 弾
攫 う
改 新
改 進
改 鋳
攻 囲
攻 城
攻 める
放 さ
放 免
放 熱
政 情
政 所
政 敵
政 財界
敏 行
敏 達
救 世
教 練
教 頭
散 り
散 逸
敦 子
敬 助
敬 次郎
整 流
整 然
敵 わ
敵 地
敵 方
敵 軍
敷 く
文 会
文 節
文 護
文 隆
斜 縁
断 じ
断 る
断 定
断 裂
新 京
新 八
新 屋
新 式
新 得
新 撰
新 栄
新 案
新 治
新 港
新 湊
新 鹿
新 横浜
新 十津川
方 墳
方 格
方 角
既 卒
既 知
日 下
日 東
日 枝
日 次
日 満
日 車
日 陰
日 韓
日 下部
日 ノ出
旧 館
旧 高
早 坂
早 急
早 かっ
昇 り
昇 段
昇 華
昌 彦
明 仁
明 代
明 史
明 暗
明 蘭
明 解
昏 倒
映 ら
春 樹
春 雨
昭 三
昭 仁
昭 光
是 正
昼 夜
時 報
時 宗
晃 一
晋 也
景 政
智 則
暖 かい
暗 に
暗 躍
暮 れる
暴 風
曝 露
曲 輪
曲 がる
書 架
書 状
書 評
曼 陀
最 尤
最 深
月 々
月 影
月 替わり
有 さ
有 島
有 村
有 松
有 終
有 隣
有 香
有 希子
望 め
望 洋
朝 明
木 蘭
未 了
未 央
未 婚
未 完
未 開
末 年
末 社
末 節
本 井
本 斗
本 舗
本 船
本 陣
本 音
朱 子
杉 村
村 々
村 江
村 野
束 ねる
来 い
来 年
東 伯
東 畑
東 門
東 駅
松 任
松 元
松 方
松 枝
松 澤
松 野
板 櫃
林 田
枢 軸
架 装
架 かっ
染 み
染 める
柱 面
柳 井
柳 家
柳 町
栃 尾
栄 一
栄 える
栗 山
栗 粉
核 膜
根 音
格 式
格 技
格 調
桁 違い
桃 井
桃 内
桜 花
桜 まつり
桶 谷
梧 桐
梨 紗
梨 花
梶 田
棄 て
棒 状
森 一
森 久保
棲 み
棲 む
植 生
検 問
検 校
検 閲
椿 山
楠 木
極 大
極 道
概 況
標 記
模 写
権 守
権 能
横 綱
横 関
横 大路
橋 下
橋 口
機 上
機 序
機 織
機 転
檀 那
櫛 目
欠 く
欠 格
欠 かさ
次 代
次 席
欲 し
欲 しく
止 ん
正 保
正 夫
正 妻
正 宣
正 岡
正 広
正 憲
正 成
正 気
正 浩
正 米
正 太郎
武 二
武 俠
武 州
武 志
武 烈
武 部
歯 学
歳 上
死 水
死 球
残 置
残 量
殴 打
毀 釈
母 指
母 趾
毎 秒
毒 殺
毒 物
比 良
気 楽
気 軽
気 運
気 取り
気 遣い
水 位
水 場
水 害
水 樹
水 死
水 運
水 馬
水 海道
水 無月
氷 原
氷 塊
氷 室
氷 山
永 保
永 和
永 島
永 平
江 原
江 堰
江 原町
池 側
池 畑
決 壊
決 行
沈 む
沈 静
沓 掛
沖 田
沖 積
沖 ノ島
沙 河
沙 也佳
没 頭
沢 松
沢 渡
河 面
油 脂
治 す
治 外
治 承
治 政
治 暦
沿 海
泉 州
泉 谷
泉 質
法 権
法 法
法 皇
泡 沫
波 田
泣 か
泰 子
洋 介
洋 志
洋 裁
洗 う
洗 面
洞 察
洞 海
活 き
活 況
流 失
浚 渫
浣 腸
浦 上
浩 美
浮 田
浮 かし
海 大
海 尉
海 技
海 没
海 津
海 獣
海 蔵
海 辺
海 部
消 灯
消 える
涿 郡
淫 ら
深 層
混 み
混 交
添 っ
清 史
清 定
清 康
清 張
清 村
清 浄
清 田
渇 水
済 々
減 弱
減 退
渡 御
温 め
温 子
温 帯
温 床
測 り
港 崎
湊 川
湊 町
湖 上
湯 原
湯 浅
満 場
満 月
準 位
準 則
準 じる
溜 める
溶 かす
漂 う
漉 き
漢 江
潜 る
潜 時
潜 り込ん
潤 一
潮 田
潮 解
激 し
濱 口
瀕 し
火 元
火 球
火 縄
灯 油
炭 労
炭 坑
炭 水
炸 裂
点 字
焚 い
無 体
無 双
無 垢
無 学
無 鉛
無 銘
無 香
焼 却
焼 死
焼 津
焼 石
焼 肉
煙 管
照 美
煮 る
煮 込み
熟 し
熱 海
熱 線
燃 やす
燦 然
燻 煙
片 井
片 隅
片 持ち
片 栗粉
牛 王
牧 畜
物 価
物 川
物 腰
物 真似
特 乙
特 質
犬 吠
犯 科
狂 い
猟 銃
猪 突
猫 耳
猫 屋敷
献 呈
獰 猛
玉 井
玉 垣
玉 島
玉 繭
王 侯
玲 司
珈 琲
珪 岩
班 固
現 に
現 前
球 磨
理 絵
理 化学
琴 電
璃 子
生 れ
生 検
生 江
生 薬
生 長
産 後
産 経
用 例
用 紙
田 沼
田 淵
由 依
由 衣
由 起
由 里
由 香
由 希子
甲 佐
男 前
男 鹿
町 営
町 家
画 法
留 間
略 語
異 聞
異 音
異 食
異 なれ
疎 んじ
疾 病
病 変
瘢 痕
発 色
発 願
白 亜
白 島
白 玉
白 糸
白 虎
白 バイ
白 抜き
白 村江
百 官
百 景
的 中
皇 紀
益 州
盗 ま
盗 人
盛 土
盛 り返し
盟 主
目 処
盲 人
直 々
直 之
直 純
相 反
相 同
相 楽
相 田
相 米
看 病
県 南
県 名
県 域
真 価
真 円
真 正
真 殿
真 綾
真 黒
真 太郎
真 千子
眼 科
眼 窩
着 弾
着 水
着 衣
着 順
着 する
睨 み
瞬 発
矢 板
知 財
短 命
短 篇
矮 小
矮 星
石 上
石 丸
石 動
石 和
石 通
石 造
石 鹸
石 ノ森
砂 丘
砂 山
砂 岩
砂 村
砂 抜き
砕 け
砥 粒
破 天荒
硬 直
碓 井
磁 性
磯 波
礼 記
社 務
社 史
社 外
祓 い
神 亀
神 力
神 曲
神 霊
祥 太郎
祭 事
祭 日
禁 制
禁 じる
福 塩
福 屋
福 来
秀 勝
秀 格
秀 策
秀 郷
私 学
私 見
私 費
秋 野
科 挙
科 捜研
秒 速
秘 蔵
租 界
秦 野
秬 黍
移 封
税 収
税 理
稠 密
種 まき
稲 築
稼 業
積 込み
空 位
空 条
空 欄
空 腹
空 回り
穿 孔
窮 乏
立 岩
立 田
竜 兵
竜 一郎
竣 功
竪 穴
端 緒
竹 山
等 身
筑 北
箇 村
箇 町
管 掌
範 士
篆 刻
篆 書
篠 崎
簡 体
籠 城
米 価
米 原
米 韓
粟 津
精 緻
糎 榴
糞 便
糸 井
紅 玉
紅 蓮
紅 一点
紆 余
納 める
紗 弥
紗 也佳
紙 業
紙 縒
紛 糾
素 性
紡 錘
紫 式部
細 々
紺 綬
終 期
組 合わせ
経 ち
結 い
結 像
絹 糸
継 室
続 々
続 出
綱 成
綱 村
綱 領
綾 香
綾 瀬川
綿 密
総 代
総 統
総 隊
緑 風
縦 幅
縦 線
縦 縞
縦 隊
縮 合
繁 盛
織 機
罪 人
罪 状
置 け
罹 災
罹 病
羊 羹
美 乳
美 奈
美 帆
美 恵
美 瑛
美 的
美 羽
美 観
羞 恥
群 がる
義 仲
義 偉
義 満
義 父
義 男
義 隆
羽 賀
翻 刻
耀 鋼
耕 司
聖 帝
聖 志
聖 武
聴 力
聴 衆
聴 覚
聴 ける
職 掌
職 権
肩 車
育 む
育 ん
育 郎
胃 腸
胆 石
背 骨
背 もたれ
胎 児
胡 麻
胸 水
胸 筋
能 久
能 楽
脆 く
脆 化
脱 い
脱 北
脳 幹
脳 波
腎 管
腐 ら
腓 骨
腔 内
腰 部
腹 筋
腹 腔
膜 様
膳 所
臨 み
臨 済
自 他
自 傷
自 叙
自 尊
自 弁
自 決
自 滅
自 費
自 軍
自 領
臭 化
臭 素
至 極
臼 井
臼 田
舌 触り
舞 曲
舷 側
船 上
船 村
船 渡
船 舟
艤 装
良 一
良 介
色 合い
艶 麗
芙 美子
花 博
花 台
花 屋
花 山
花 岡
花 柳
花 籠
花 菜
花 菱
花 風
花 飾り
花 びら
芳 しく
苗 木
若 草
若 かり
苦 難
英 宗
英 才
英 毅
茅 ヶ崎
茶 房
草 書
草 分け
莎 車
菅 田
菊 花
菊 陽
菌 根
華 原
菱 刈
萬 屋
落 石
落 胆
落 馬
葉 桜
葉 っぱ
蒐 集
蒼 白
蓮 沼
蓮 華
蕪 村
薄 れる
薬 効
藤 ノ木
蘇 州
蘭 学
虚 無
虚 血
虚 部
虹 彩
蚕 糸
蚕 食
蝋 燭
蝦 蟇
蝶 々
蝸 牛
血 行
行 人
行 蔵
術 者
術 語
衛 士
衛 戍
衣 浦
被 写
被 膜
被 験
裁 か
裁 き
装 架
裏 表
裏 道
裏 付け
裏 向き
裏 切る
裏 切ら
裕 史
裕 行
補 っ
製 し
製 糖
襲 津彦
西 北
西 市
西 平
西 脇
西 隣
西 茨城
西 村山
西 日暮里
西 王母
要 職
見 境
見 所
見 本
見 栄
見 沼
見 込
見 よう
見 切り
見 上げる
見 渡す
見 舞い
見 通す
見 極め
見 破ら
見 届ける
規 矩
覗 い
親 疎
親 類
親 しん
角 膜
解 党
解 脱
解 する
討 論
訓 読
訓 子府
記 名
訛 っ
訛 り
訪 日
設 営
許 斐
許 靖
訳 注
詔 勅
詠 ま
試 掘
試 練
詩 織
話 せる
誇 張
誇 示
誌 名
誓 っ
誘 っ
語 根
誠 三
読 解
課 外
談 義
請 う
論 語
諸 共
諸 星
諸 王
諸 般
謙 次
證 券
譲 歩
譲 治
護 送
讃 岐
象 牙
豪 胆
豪 語
豹 変
貞 享
貞 昌
責 務
貯 油
貯 蓄
貴 之
貴 博
買 える
買 付け
貸 す
賄 っ
賄 わ
資 之
資 生
資 する
賢 島
贅 沢
贈 る
贈 与
赤 み
赤 嶺
赤 川
赤 池
赤 軍
走 れ
走 馬
越 せ
足 柄
足 回り
跋 扈
跡 形
踏 破
躍 起
身 ご
身 元
身 障
車 中
軍 刀
軟 体
転 々
転 任
転 化
転 嫁
転 訛
転 がっ
転 がり
軽 食
輝 か
辰 巳
農 事
農 夫
迅 雷
近 日
近 習
近 づき
迷 っ
迷 宮
追 え
追 分
退 位
退 席
退 廃
逃 がす
逆 走
逆 鱗
逆 恨み
透 け
途 切れる
通 帳
通 運
造 る
造 影
造 艦
連 作
連 山
週 数
進 級
遅 刻
遍 歴
過 労
過 疎
道 家
道 長
達 哉
達 観
違 わ
遜 色
遠 ざ
遡 及
遣 使
適 中
適 法
選 べ
遺 書
遺 領
遼 寧
邑 智
郁 恵
郅 支
郎 党
郡 制
郡 道
郡 長
郵 送
都 築
都 江堰
配 っ
配 座
配 水
配 色
酒 蔵
酒 類
酷 評
酸 味
里 山
重 久
重 信
重 光
重 合
重 吉
重 水
重 鎮
野 上
野 木
野 本
野 馬
金 具
金 型
金 時
金 木
金 浦
金 盥
金 蘭
金 之助
鈍 い
鉄 二
鉄 材
鉄 矢
鉄 製
鉄 鉱
鉛 直
鉛 筆
鉱 工業
銀 次
銃 座
銃 火
銃 隊
銅 山
銅 鐸
銘 文
鋭 利
鋳 貨
鋼 板
錐 面
錦 部
錦 之介
錫 杖
錯 乱
錯 視
鎖 骨
鎮 信
鎮 撫
鎮 西
鐘 堂
鑑 識
長 恭
長 春
長 晟
長 澤
長 瀬
長 物
長 石
長 篠
長 者
長 辺
長 かっ
長 次郎
門 屋
門 柱
開 弁
開 皇
開 胸
開 錠
間 崎
間 柴
間 欠
間 抜け
間 仕切り
関 前
関 宿
関 屋
関 白
闘 っ
阪 鶴
防 虫
降 ら
降 水
降 臨
陣 屋
陥 れる
陸 海軍
陽 動
陽 成
陽 極
隆 一
隆 司
隆 国
隆 永
階 下
隔 日
障 子
隠 れる
隣 町
隷 書
雀 荘
雄 三
雄 二
雄 勝
雄 治
雄 花
雄 蕊
雄 物川
雅 之
雅 也
集 っ
集 材
集 まれ
雑 食
雑 魚
雛 子
離 さ
離 党
難 し
難 民
難 破
難 聴
難 関
雨 水
雪 印
雷 公
雷 帝
電 路
霊 代
霊 性
霊 界
霞 が関
露 わ
露 伴
露 天
露 見
青 く
青 み
青 本
青 根
青 洲
青 蓮
青 銅
靖 彦
静 物
静 観
非 力
面 上
鞘 師
鞭 打ち
音 羽
音 量
音 階
順 々
領 民
頚 部
頭 数
頭 皮
頼 基
頼 母
頼 れる
題 する
顔 ぶれ
顕 現
風 刺
風 月
風 見
風 説
風 連
風 防
風 雷
風 靡
風 魔
飛 台
飛 べる
食 う
食 さ
食 草
飯 南
飯 坂
飯 山
飯 高
飽 き
首 元
首 筋
香 味
香 月
香 草
香 西
香 調
馬 超
馳 せ
馳 走
駅 裏
駒 場
駿 台
騒 が
騒 ぐ
騒 乱
高 々
高 吉
高 塚
高 平
高 床
高 梨
高 畑
高 目
高 祖
高 綱
高 良
高 見
高 貴
高 陽
鬱 蒼
鬼 畜
鬼 子母
魅 惑
魔 境
魚 梁
魚 沼
魚 眼
鱗 翅
鳥 獣
鳥 飼
鳴 ら
鳴 り
鴨 居
鶴 亀
鷹 木
鷹 爪
鷺 沼
鹵 獲
麒 麟
麦 茶
麻 原
黄 泉
黄 鐘
黒 点
黒 煙
鼓 舞
龍 一
龍 尾
龍 馬
龍 驤
龍 三郎
20 51
から す
から つ
から ま
こと ごとく
リー ガル
10 16
10 58
10 57
10 79
イン ゲ
イン デ
イン トラ
イン フレ
イン ジウム
ット ガルト
スト イ
スト ス
スト ーク
ラン タン
00 5
00 8
00 9
あっ たか
12 15
12 56
られ よう
11 61
11 77
11 79
er d
er k
er u
er ated
er za
18 21
18 32
18 56
18 08
18 09
18 06
18 03
ディ ット
ディ ール
ディ エン
ディ クシー
ディ ルム
ディ テール
ディ エゴ
ディ グモン
ディ ザイア
ディ ジタル
ント ・
ティ ヴ
ティ ティ
ティ クト
ティ クス
ティ ッカー
ティ ズム
ティ アラ
ティ ントン
ティ レル
ライ ラ
ライ エン
ライ ジン
ライ アス
ライ コネン
ライ ースト
ショ ッキング
an z
an th
an te
an za
in qu
in son
in burgh
15 15
15 13
15 21
15 70
15 39
15 90
15 47
15 99
15 86
15 89
15 94
15 66
15 71
15 73
15 81
on ic
on th
on de
on ard
on ment
リア ド
リア ラ
リア ピン
リア ライズ
コン ロ
コン ドル
コン パート
コン デロ
コン プライアンス
コン ピレーション
ファ ソ
ファ ニー
ファ ブラ
かっ こ
なり すまし
バー ボ
バー ディ
バー ナム
バー ソロ
バー ベリ
en o
en ic
en ger
ロー サ
ロー ザ
レー ラ
レー テッド
プロ シー
プロ ポー
プロ ポーズ
プロ ローグ
アル ク
アル デン
アル ツェ
アル ロサ
アル ギニン
30 15
30 50
30 70
30 90
テレ サ
テレ 朝
テレ コン
16 11
16 21
16 22
16 37
16 75
16 67
16 08
16 64
16 06
16 89
16 73
16 74
ar n
ar r
ar es
ar et
ar ian
ar io
ar ach
ar ray
ar isa
ar Qle
ンド ゥ
or er
or ch
or no
シャ ティ
シャ トー
シャ ノン
シャ ボン
シャ ラント
シャ リアピン
受け 皿
受け 取れる
サー シャ
タイ キ
タイ ト
タイ コンデロ
ステ キ
ステ ス
ステ パン・
ステ ュアート
13 80
13 39
13 88
17 22
17 28
17 27
17 31
17 48
17 45
17 44
17 37
17 43
17 54
17 75
17 01
17 77
17 76
17 74
キャ レス
キャ パシ
フィ ト
フィ リーズ
フィ ニッシャー
リカ ルド
ジャ ース
ジャ ージ
ジャ ネット
ジャ スティ
al o
al y
al en
al us
マン ズ
マン ダ
マン テル
14 20
14 10
14 12
14 50
14 40
14 33
14 57
ダー マ
ダー リング
ダー ウィン
ダー バーボ
25 7
ホーム タウン
at form
ラー ラ
ラー ・
ラー ジャ
ラー ナー
カー キ
カー ナ
カー ボン
カー メル
カー ナビ
カー ウソン
ic ht
シー ニ
シー カー
シー ビー
サイ ード
サイ レンス
サイ バード
アメ コミ
es el
チャ コ
チャ ット
チャ プター
リン ネ
レイ モン
レイ モンド
とも なっ
とも なう
スタ ッド
スタ ンス
スタ ネー
シュ ン
シュ イブキジャコウソウ
エン ゼルス
is i
is u
is us
クラ ゲ
クラ ップ
スター ダスト
セン サス
セン ナリ
パー ズ
パー パス
ol i
ol ia
ジョ ヴァン
なお こ
なお し
取り 換え
取り 下げ
取り 寄せ
取り 付ける
取り 戻さ
取り 消す
取り 戻そう
取り 消さ
取り 留める
フォ ス
フォ ールズ
フォ ニカ
28 1
28 00
it or
it te
27 08
27 001
ウェ スティング
ナー レ
26 3
キー ズ
23 3
23 7
mm on
スペ ア
スペ ル
スペ シウム
JR N
フェ ード
オン セ
オン エア
コー ブ
コー ゲン
コー ライースト
サン ゴ
サン バ
アン カレ
ルト ・
29 3
29 6
ジェ ス
ジェ フリー
ジェ レミー
ジオ ール
ニュー ポール
ニュー ロパチー
なら い
なら ず
なら っ
ランド ル
ランド マーク
トル バル
アイ コ
アイ ト
アイ コン
アイ デン
アイ エス
アイ ザック
st ag
st op
st alg
50 8
re v
re y
re z
re me
re ach
ro duction
アー マ
アー チャー
アー ヘン
ブル ドー
ブル キナ
プレ シーズン
プレ ミアラ
フラン コ
いっ そう
ベル ス
ベル モット
ベル マーレ
ベル リッティ
th or
th em
th ur
th rough
さら し
ch en
ch ura
ch aft
IC IAL
le z
モン キー
モン タナ
ダイ ガイ
チェ ス
チェ ー
引き 出さ
引き 取る
引き 上げる
引き 抜か
クロ ミ
クロ ラス
クロ ッツ
付け 加える
付け 足し
ポー サ
まり え
クト ン
システ マ
こう じ
こう しゃ
こう ぎょ
システム レス
タル サ
メン チ
us h
as a
as er
as col
ウィ ット
ウィ ナーズ
デル ス
ニー デン
ig s
ig er
ig an
ig ne
入れ 替わっ
入れ 替わる
グラ ニュー
グラ インド
グラ ハム
持ち 掛け
持ち 上がっ
il us
il ian
マー カー
マー シュ
ブラ ジ
ブラ ザース
et c
et ition
et une
バル テル
バル ドリー
バル ナバ
100 3
アルバ トロス
カル ム
カル ドー
カル ボン
カル ヴァン
カル タゴ
マイ ・コー
バイ エル
000 5
キャラ メル
キャラ クタ
ac ity
シン ダー
ヴィ オ
ヴィ サイ
ヴィ クトル
ヴィ レラ
ガン マ
ガン ・
ガン ガイ
and ro
イツ ナッ
ヴァ ルト
ヴァ ルド
ヴァ タール
プラ タ
od es
od oxy
od elph
デン キ
トラ ッド
トラ ウト
トラ フィック
トラ クタ
トラ ッキング
AN SW
トン ボ
om b
om i
om sky
ou th
ou stic
パン ダ
パン パン
テン ・
テン ガンダム
テン ペスト
ポン テ
ポン ポーサ
ジュ ラ
ジュ リアン
ジュ ネー
ed es
ed ge
ライン ホルト
たい こう
がっ かり
アク セラ
アク シズ
トリ ュ
トリ シェ
トリ ッキー
トリ ゴノスティ
St ra
St ab
St ock
St ül
St orm
St ruct
ウス ・
カイ ザー
ハン ナー
ハン バーグ
ハン バーガー
ハン ・ハン
乗り 組み
乗り 込む
ビー フ
ビー スト
TO NATO
TO WER
TO WN
id er
id ent
id ed
ER T
ER ICA
さん かく
US J
US AGI
イス マ
AR EN
AR IB
AR PA
ワー ピング
un ella
ロン ソン
ガー ネット
ファイ ナンシャル
IN R
IN S
IN FINITY
カン ダ
カン ニング
カン ブリア
生まれ 変わり
48 6
リスト ラ
プレイ バック
パイ レーツ
組み 立てる
38 3
38 5
38 7
物語 っ
物語 る
スポー ティ
ST I
ST RE
ST EP
ST ATION
em an
em at
ハイ ネ
ハイ ブ
ハイ ダー
切り 拓
切り 取り
切り 換え
切り 開い
切り 替わっ
マル キ
マル サ
マル セル
マル コーネ
ハー レー
ハー レム
ot i
ot us
ot rig
そこ そこ
Th er
Th ank
シェ ク
シェ ラ
ag h
ag el
ag ain
AT IVE
ボー リング
um a
um i
33 6
45 1
45 5
45 7
ウォ ッガー
ir it
ir onment
ter ing
ter heim
iv a
iv il
立ち 向かっ
立ち 上がっ
立ち 去っ
立ち 消え
立ち 会う
立ち 寄る
立ち 退き
立ち はだ
立ち ふさ
アップ ジョン
In s
In form
リオ ル
ファン ク
ファン クション
ad ow
ad miral
どう せ
AL I
ut ils
やす らぎ
55 3
55 438
ur on
ベン ダ
ベン ガラ
AS M
AS IN
クリ ント
クリ ネックス
80 4
80 5
80 7
80 86
im ental
スカ ヤ
スティ エ
スティ ヌス
フリー ザ
メンバー ズ
ow riter
小さ けれ
プリ ル
メロ ヴィング
ブレー ブス
os s
os ition
os yl
果た さ
言わ ば
the y
SP C
SP E
ウル グアイ
ケン カ
続け ざま
プレデター ズ
エイ ブラ
エイ プリル
EN ER
EN SI
EN CORE
44 3
ワーク ステーション
チャー チル
キシ ロ
36 3
Mod ern
ポート モンマス
インド シナ
Ch ick
Ch air
Ch ange
Ch ao
ミー ・
キャン ディーズ
カリ フ
90 1
90 2
90 3
90 4
トロ ピ
トロ ピン
チー ノ
セル シオール
37 6
イタ リック
言葉 遣い
46 1
46 5
ユー リー
ユー ミー
ユー ノス
替え 歌
ジャン パー
ジャン クション
トラン シーバー
de f
de v
de bt
トー チカ
47 4
バラ し
バラ モン
58 7
バンド リ
ズム シ
ap a
ap s
ap ter
ap ore
キュ ン
ブリ ュー
The or
og rad
op s
打ち 負
打ち 立て
打ち 出す
打ち 上げる
打ち 砕く
HE AT
ov ar
ov ation
ルス キー
300 3
思い 入れ
思い 切っ
イント ネーション
シル ヴァ
シル ビントン
チュ ク
チュ ーム
チュ チュ
チュ ノム
ノー マン
エア バッグ
流れ 星
流れ 着い
OS A
OS K
ストラ クチャ
ET R
ET ERN
富士 宮
富士 河口
ディア ミール
くり はら
くり ぃむ
アド リア
アド レナ
カラ ダ
エレ トドン
グレ アム
チン ゲール
取締 り
Al to
Al bert
Al tern
かし わ
クル ミ
クル ック
CO FF
イー シンロン
イー サネット
グラン ジン
ゴー グ
スコ ッティ
勝ち 目
勝ち 上がっ
LI MIT
LI FIT
LI XIL
PC CG
シャン パン
56 3
56 9
パラ グライダー
ウェー バー
An y
しょう いち
しょう げき
しょう ぐん
ian s
ian ce
ウト ゥ
ウト ウ
イング リッシュ
ew is
LE YBALL
Re in
57 3
PS OE
ペン ション
ペン ハウ
est ar
est ral
NA O
NA ID
NA DP
ab e
フラ グ
書き 上げ
書き 残し
書き 下ろさ
59 1
59 3
ブレ ラ
ミニ バス
食べ よう
かん する
かん けい
かん きつ
追い つい
追い 込み
追い つき
RE AL
RE BO
サル サ
せい じ
作り 直し
RO O
RO W
RO HF
RO YAL
ナイ チンゲール
ニュ ウドウ
なか ま
ザン ナ
迎え よう
アレ ジ
アレ グザン
ヒロ シ
ヒロ キティア
プル シャ
建て 直し
ub e
しん じ
しん いち
スピ ーク
ヤマ ダ
ドン ・
クロス ビー
49 4
49 5
49 7
きっ ちり
指し 示す
モー モール
さい とう
バッ シング
バッ キング
やま と
やま なし
けん 引
ill y
AI L
CH RIS
グル カ
グル マ
グル コシ
グル タチ
グル ノーブル
オブ ライエン
メイ ソン
メイ プル
レギュ レーション
ほう じん
ens chaft
SS I
SS N
SS X
ME DI
up t
巻き 込み
巻き 起こす
AD P
AD EN
ge ant
落ち 込み
とり どり
ホー スト
ホー ナー
ホー ネット
乗っ 取る
フィー バー
フィー チャー
av in
ツアー ズ
ルド ロジー
TR IP
たく み
if ul
if rons
やっ と
ケー レ
ケー ニヒ
ワイ シャツ
すれ すれ
カメラ ワーク
クリス ティー
アンド レア
サラ ドゥ
サラ トガ
サラ エヴォ
感じ 取っ
振り 回す
EX PO
ホル ヘ
ホル チン
せん そう
せん だい
まと まり
まと まら
THE TA
フォル クス
フォル テール
フォル ・ジュ
フォル ラータ
コール マン
ダンス ・トゥ
見せ よう
all um
all ow
all cin
NS M
NS O
ボン ベイ
ボード レール
Pro tein
ort ico
トレ ジャー
Sh out
Sh ank
Sh are
Sh ips
Sh usui
Sh adow
ガル フ
ガル マン
言い 伝え
iss ile
man ce
グリ フ
グリ ット
グリ フィス
グリ コーゲン
ニャ ール
Ar k
Ar te
Ar thur
ケル ン
四国 中央
pr esent
スラ ング
スラ ックス
デイ ヴ
デイ ビス
トゥ ス
トゥ ルー
トゥ ナイト
トゥ デイ
トゥ ヴォック
リエ フ
リエ ール
ect omorph
800 2
qu id
qu est
ボル ジア
art a
art icle
持た さ
MO DE
キリ ル
結び つけ
結び つく
結び 付い
飛び 出
飛び 込ん
あい さつ
サブ セット
サブ マリ
サブ カルチャー
まち ぶせ
当て はめ
ip e
ip le
ip tu
88 8
ひろ こ
まつ げ
まつ もと
エス ノ
二人 乗り
67 3
Bl an
Bl ind
Bl oom
Wind ow
だい ず
アカ ネ
アカ マツ
コレ ステ
じゃ ん
落と そう
スイ フト
サイド カー
ea h
ちょう せん
sh all
ud i
きょう か
きょう だい
きょう りょう
ッサ ム
Pl an
Pl ant
Pl ants
99 58
アント ニー
アント ラーズ
マスター リュウケンドー
投げ 出さ
投げ 飛ばす
ブラック レッジ
Di GR
Di esel
ib urg
コント ラ
コント ゥベル
メル シャン
BE AU
ブロ ーク
Sp an
Sp arQle
Sp irit
知り 合う
ショー ペンハウ
Pr int
Pr unella
ver ter
ドリ フ
モーター サイクル
オーバー ハング
かわ い
かわ す
かわ しま
New Days
コス メ
コス チューム
押し 戴
KO BE
Mar ines
テク ニック
テク ノス
負け 越し
ヘル パー
Mus ashi
売り 出し
カタ マリ
LU MIN
MA Z
かす み
パッ タ
パッ カード
ey rou
パートナー シップ
ord in
おお むら
たか はし
サム ナー
サム ビット
サム スン
SD I
ラテン アメリカ
大野 田
De vice
まさ よ
まさ のり
まとめ 役
寄せ 付け
ann o
ann ar
グレイ プ
突き 付け
突き つける
突き 刺し
突き 刺さ
突き 放し
割り 込み
end a
DE TONATO
マグ ヌ
マイル ス
GP U
GP Z
バトル ナイザー
ヒュー レット
ヒュー ストン
ポリ ゴン
伸び 悩ん
yn ast
yn gsti
送り 込む
送り 届け
ボーイ ッシュ
MI A
ex t
sp in
sp ec
待ち 合わせ
チェック リスト
チェック サムビット
SC R
SC AP
SC CA
eg no
プール サイド
メガ ホン
メガ クエイク
87 6
En sem
En clos
うる おい
HT B
by g
by tes
おか しく
逃げ よう
おこ り
おこ る
おこ ない
差し 向け
差し 替える
差し 伸べ
ros phere
ちょ ぼ
マッチ ョ
回り 込ん
per imental
ug um
クー チ
クー ペ
クー ポン
ベイ ラー
ベイ ビー
久保 野
張り 付け
駆け 付け
79 1
79 8
アミ ド
シュー ター
セミ ロング
シャーロ ット
DO M
DO ME
セー レン
小野 崎
act ive
act ions
GO D
GO bject
MT A
ドロ シー
フロー ズン
引っ 張っ
eral d
ain s
iz a
おも らし
スル ターン
ポル タ
900 00
アリ ル
アリ ソン
コネ クト
コネ クタ
バカ ンス
メス シリンダー
ロバート ソン
bo idea
me et
se in
エリ ドゥ
ハッ ピ
ホイ ップ
メカ ニムーン
抱え 上げ
MS X
OK I
OK U
Or t
ウィル ヘルム
ah n
スリー ブ
借り 受け
ath ela
Ver y
no stalg
エク シ
エク セルシオール
バリ ィ
バリ ェ
バリ トン
ロゴ ート
語り 口
語り 部
語り 合っ
買い 取る
Ph ot
Ph arm
Ph oto
Ph úc
サンド ラ
メディ シス
pro x
pro xy
pro cess
sk vad
りょう こ
アム ネ
小山 内
積み 込み
積み 込む
und ur
NO VE
SE E
ージェ ンシー
Gen ome
oo ooo
りゅう せい
高野 連
ide al
My omorph
pl us
pl ate
pl ace
マジ カル
ロマン ティシズム
フィル ナー
ジェイ ミー
Am y
Sm B
Sm ok
Sm all
net ic
net ke
ウー ベ
ウー ナ・
エディ ット
su cc
su cros
エト キシド
ern er
And re
Ad rian
Ad ministr
Ad orno
com es
ヨー リン
ラボ ラト
吹き 込ま
吹き 飛ばし
開き 直
ジョー イ
96 80
Comp etition
LA ST
LA BO
ガード レール
詰め 合わせ
詰め 掛け
ach i
エド ワーズ
スリ ップ
スリ ラー
トム ス
You ng
みち こ
Ed y
Ed inburgh
つな げ
リゾ ーツ
210 1
Col on
ふく し
ふく しま
ハル ファス
フー フー
ロフ スク
叩き 付け
叩き のめ
飲み 会
フェン ハイム
Ste ve
ENT ER
すず かけ
アース クェ
マシュ マロ
ロッド マン
ung s
HO PG
ier i
ier ra
ユリ シーズ
ラ・ フォル・ジュ
ザイ ム
向かい 側
向かい 合わせ
ひとり ぼっち
Ex tra
Ex press
Ex hibition
Ex perimental
PER LA
問い かける
怒り 狂っ
FI LE
TI FF
マルチ スレッド
JA BA
Lin nae
rit ik
rit ti
みや ざき
ナツ メ
ブラン ビー
マク ドナルド
マク シミ
併せ 持っ
エンタ メ
エンタ テイメント
SR I
つか む
イチ オシ
レオ ナード
レオ ナルド
フレーム ワーク
EP A
EP O
カウン セラー
ポスト カード
ラジ カル
ラジ ウム
ニャン ニャン
ニャン ギラス
だん だん
アセ プ
アセ トン
アポ ストロ
アポ マト
カスタ マー
レッ ティ
レム ル
レム ル・
八重 垣
甲子 太郎
聞き 手
聞き つけ
ダイヤモンド プレミアラ
SM ART
SM WS
エステ ート
エステ ラーゼ
ゲー マー
モレ ノ
変わり 者
igh ter
安芸 太田
JF E
Sup reme
lo ad
sch ool
かぶ る
グレン ダ
タカ トクト
攻め 落とし
ヴェル フ
ヴェル ナー
トランス フォーマー
SL Q
pt ilian
あん た
おと ぎ
ガリ シア
ジャス パー
JU KU
ek hor
ノイ シュヴァンシュタイン
県内 外
ブラッド レー
TH ERS
mus car
mus cle
まか なう
ココ リコ
宮前 平
Cent ury
col lection
ser ling
しら さぎ
ビリ リョ
市町村 名
田園 調布
茶の 湯
Br u
GN F
KB L
VT Z
ym di
ミッド フィール
メタ ノール
成り 立ち
成り 立た
折り 畳
染め 上げ
踏み 入れ
隠れ 家
ther lands
エヴェッサ バスケットボール
-- -
きみ こ
ぜん こく
バク テリウム
enn y
リンダ リンダ
モンテ ・
Open SSH
Per fume
きら めき
パウ エル
コンプ ティーク
KI OSK
LT ER
Qu ant
スパ ロー
スパ イス
Gra ipr
cy cle
アサ ルト
カプ コン
サウ ザー
サウ ロン
サウ ロイド
ザ・ スパイダース
藤井 寺
STAR DUST
エリザ ベート
Cap t
Cap ital
Cap oriac
Cap sLock
FU L
さか き
ナラ ビ
ナード ゥ
ベー シック
off ice
Rob inson
VOL LEYBALL
ev ich
とん でも
アバ ディーン
バーン コーク
エアロ ビ
パラメ トリック
El Dorado
On line
テオ ドール
ピストン ズ
マカ ーム
望ま しく
Pet erson
VER Y
vi ol
こだ わっ
イグ ナ
テュー リンゲン
メト キサジア
締め 出し
ola us
Ne therlands
mir u
ぎり ぎり
どれ み
オリー ヴ
タキ オン
TS B
ru ary
アガ サ
クワ バタ
ナ・ ヨーリン
ノコ ギリ
目論 み
ジェネ シス
アルティメット ゲキリュウケン
YouTub er
Com o
Fran c
GEN EKI
Hen ri
MON DO
we ee
せき ぜん
オク ムラ
トロン ボキサン
バイン ダー
ベッド フォード
ミツ ォタ
出向 い
ストライ キ
ストライ ク
チャイ ム
ウィーク リー
Cy cle
Har r
エビ デンス
オラ ウェ
ク・ フィビフ
セロ トニン
ドミニ カ
信濃 川
シャッ コー
マグナ ゴウリュウガン
MENT AL
gl uc
なぎ なた
アブ ソリュート
ウイ リアム
ジナ ビア
スプライ ソソーム
ホッ ピー
ホッ フェンハイム
百済 王
stit ution
ゴッドゲキリュウケン ・アルティメット
ba ugum
もて あ
ウインド ー
クリー チャー
コロン ボ
タラ コネン
バーク シャー
名乗り 出
塗り 分け
ele phant
ヴェー ニョ
思い出 せ
ヴォー リズ
Doc um
Doc tor
Her o
Her bert
Tre es
ple ase
アストラ ハン・ハン
サウス ポー
ザル ツブルク
ルネ ッサンス
間違 える
ターボ チャージャー
ファイン ダー
プログラ マー
ater ial
isch en
isch es
コーン ウェル
let ter
ヴァル ター
ECT ION
uc lear
ぶつ かる
イリ ジウム
エキ スポ
コモン ズ
ペラ エ・
ヨシ ヲ
滑り 込ん
滑り 込む
ペンシル バニア
Black Berry
FO X
GU MI
Se ason
bin h
bin utils
par liam
さす が
オナ ゴコロ
カート リッジ
ル・ マン
国府 台
奪い 取っ
好ま しく
混ぜ 合わせ
Char niak
ワンダー ランド
モーリ タニア
Key serling
MAC CH
ひょう ご
ひょう きん
ろく でなし
カシ メ
デリ バリット
ブール ヴァール
ポポ フ
ミヤ ギ
振り返 り
掘り 起こさ
MAR VEL
Sol o
Sol id
Sol ution
bu ild
bu erger
のぞ か
カメ オ
ヘルス ケア
ユン ガー
久米 南
美味 し
鍛え 上げ
預け 入れ
ステー ファ
キャピ タン
切り離 し
SHOW ER
Dream s
Fre iburg
Li eb
Ma o
So ares
cent er
work s
たた え
たた かい
コリン ズ
ヨウ シュイブキジャコウソウ
リブ ット
レズ ビアン
燃え よ
燃え 尽き
ANN IVERS
ograph y
ograph ie
アウグ スティヌス
アグ ハ
バレル インサート
ヒラ タ
ブロン ズ
ホロ グラム
弾き 語り
コンスタン ディ
コンスタン チン
コンスタン ティン
シュトゥ ットガルト
プラグ マティ
ASS IC
Reg ister
AO I
Bu ch
Bu ff
Bu ilding
Can on
Can ad
Coun t
East ern
JE SC
Je ff
Sing les
Sing apore
fin ance
sol e
あつ こ
スキン ヘッド
ホモ ロジー
マクロ ジンマー
曽根 崎
0000 0000
コーディ ネート
プレゼン ター
ダイオ キシン
富士見 町
GOLD EX
FOR EVER
Lo thar
Pe er
Rain er
YU KI
bit Xor
car ico
dr ug
めざ し
めざ め
イェ ジ・
スカン ジナビア
ホリ ィ
ロル フ
陸前 高田
ジェノ バ
ster oid
チェル シー
チェル ニー
Str ing
フレンド リー
Ang ola
angu ages
DL IS
Jo e
Ka eru
Pre m
þa un
こっ そり
つり 革
つり 下げ
ゴット リープ
刈り 取り
向井 原
素晴 らし
ディスカ ッション
ACT AS
スケー ティング
Disc overy
GRO OVE
NB M
pos ium
くち く
のん き
はち みつ
みの る
アヌ ン
エコ ノミー
カネ ゴン
ブロー ニング
・アル ヴィドソン
ストレイ ト
キャス リン
ative hope
ATT ACK
Inn ovation
ミュン ヒハウゼン
Elect ro
Bre ak
Jan uary
Leg no
Pol y
Sant am
fon ius
かま わ
ササ フラス
スタイ ラ
ナバ ロ
リム ジン
空知 太
ヴィー ナス
Out look
Ul l
þr ia
ひな 形
ィー ニ
スチュ ワード
ペロ ナー
ラファ エル
ラファ エロ
ワラ キア
担い 手
リアクター ボルテッカ
ヴィクト リーナ
Oper a
cont in
Book s
hydro xyster
Commun ity
Ben jam
Fu ji
Flex owriter
Haf ða
Kar l
Kar sch
Mad erna
Nav al
Ol io
SING LE
ef eld
syn i
syn thesis
ос т
ос то
たこ 焼き
サヤ エンドウ
トゲ ナシ
ベネ フィット
ベネ ティクト
ティラ ノサウルス
ジョル ジュ
At tack
Are a
Ba um
Gro ov
Ha upt
How e
Iv an
Nic olaus
TM AS
Tex te
Vir gin
Vir tual
Your self
Ze it
fol kes
}} \
ひゃっ か
まゆ ずみ
イナ ズマ
クレー プ
グァ テマラ
グノー シス
セネ ター
ドレス デン
バレン シア
ミッ シェル
ラピ ッズ
七夕 まつり
中高 生
辿り 着く
フィット ネス
ジョブ ズ
stand ing
クリティ アス
コルネ リア・
book s
エンタープライ ゼス
camin os
Cult ural
LET TERS
PAT ENT
Wireless USB
cor por
fe el
あしら わ
しな やか
はみ 出し
やわ らかい
アデ ッタ
エマ ージェンシー
クィ ーン
ググ ッ
サディ スト
セク シャル
ハヤ カワ
野良 犬
野良 猫
elect rosphere
leg is
Reb irth
ニュート イレーナ
ケープ タウン
Produ ce
conf ig
Autom otive
Bib ion
Dom ain
HIT S
Jul ian
KYO TO
Log ic
OFF ICIAL
TY PE
dis c
eu fonius
fu erza
nam ed
いたっ て
そび え
のぶ ゆき
はたら く
グルー ヴ
コソ 泥
ゴッ ホ
ハギ ノカムイ
パレス チナ
パブロ チワ
ピエ トロ
与謝 野
遅ら せ
遅ら せる
omy x
Stud y
置き換 わっ
置き換 わる
オートマ トン
オートマ チック
締めく くる
Europe an
Acc ess
Id ol
Ke ep
Nat ural
RON R
mic ro
path y
ひたち なか
ウレ タン
エミュ レーション
ハリス ン
フセ イン
フセ ヴォ
ベカラ ザル
ポリエ チレン
リド アイル
リノ パチー
洗い 流す
羽衣 町
インフラ ストラクチャ
aragon esa
char acter
ワンダ フル
コレクター ズ
IGN ITION
Work ers
Boy ce
transl ated
docum ent
docum ents
Friend s
BLE ACH
Bern ard
CAT V
CIRC US
Fro zen
GRE AT
Harm s
Kent uck
Mach iner
Non os
NOR TH
Nik on
Oak land
Sym ph
dig ital
いばら き
ずん ぐり
イム ジン
ケミ ストリー
サット ン
シタ フロキサシン
シヴァ ガンガイ
セリー ヌ
ソレ ノイド
マゾ フシェ
ユージ ン
・デュ ・
迷い 込ん
ディノ ニクス
ディノ サウロイド
プロスタ グランジン
アルビ ノ
Stut tgart
Stut terheim
エルダー ・ゴッズ
ハイデ ッガー
行き詰 まり
Anne x
ROBO T
97840 63
Shin kin
アスフェ リック
アスフェ リカル
Luc as
ペルオキシ ド
ペルオキシ ダーゼ
ツァー リ
CONC ERT
Harv ard
ファルコン ズ
980 1
Bet ter
Brit ain
Cec ile
Cast le
Cert ific
Dynam ic
Fed eral
Found ation
Hugh es
Jun ior
Litt le
Ret riev
Soc ial
TUR NE
bib l
xml ns
うめ だ
こけ ら
ひゅう が
もぎ たて
アブル ッツォ
エスコ ート
サザ ビー
スカー フ
タワ レコ
デイト ナ
トルー マン
バビ ロニア
ピピ ニーデン
マウリ シオ
木の 実
津久 井
荻野 目
見逃 す
ライプ ツィヒ
フィオ レン
stud y
ブルーム フィールド
引き裂 か
グラビ ティ
Start s
ハンプ シャー
rais in
立ち塞 がっ
ロックン ロール
ENE OS
フレッチャ ルジェント
デオキシ コール
MEMOR Y
落ち着 か
言い換え れ
張り巡 らさ
エグゼ クティブ
Under standing
Алекс е
Birth day
FLO WER
Jur id
Mult ip
NU LL
NIS MO
Om ens
PAP ER
Tik ader
Ven us
Vic tor
Wil hel
beg in
cre ativehope
sour cing
tick et
あぶり 出し
えち ぜん
そぐ わ
だる ま
めっ た
アスト ゥリアス
アパー チャー
スニ ツキー
スレイ マン
チチ タケ
ヌマ ガメ
ルテ ニウム
・チャ ーロ
一之 瀬
八つ 墓
彷徨 う
揺さ ぶり
甘えん ぼ
競い 合っ
選り すぐり
ディセン ダ
シーダー ラピッズ
Stand ard
ヴェリ タス
ヴェルト フ
SPY SEE
メタルマックス リターンズ
フレゼリク ・
カラカル パク
イズ・ マイ・コー
UNIT ED
Cluster Knoppix
エクサ エレトドン
マニピュ レータ
コモティブ ・ワークス
Flor ence
haus en
KEY TALK
スーパージンマー アスフェリック
Lagen odelph
PRESENT S
BIR TH
Dict ion
Fen eyrou
Feb ruary
HOP E
Kor ea
Kern el
Lon chura
NOC TURNE
Ori ental
RSS SF
Rud olf
SNC F
Trag edia
Xen ogenesis
fri end
fah ren
gov ernment
liv etune
pn agel
rhom boidea
オッカ ムル
カト リーナ
カホ オラウェ
キプ チャク
コリアン ダー
スプリ ット
ズデ ニェ
セバス チャン
ハレル ソン
ピッツ バーグ
フレス ポ
ラゲ ッジ
リヴァ プール
レプト イド
・ソー ・ルン
刷り 込ま
新日 鐵
横た わる
田沢 湖
預り 金
あっけ なく
ディミ トリ
inde x
シーサケット ・ソー・ルン
チャルトリス キ
シュナイ ダー
オーテック ジャパン
stri ata
アニュ アル
チェイ サー
ヴィエイ ユ
ガンダル バ
oug ht
ウルリカ ・アルヴィドソン
ChE BI
ドラゴンクエスト モンスターズ
パリゾ ッティ
たんぽ ぽ
コルチコ イド
conn ect
Devel op
アルファロメ オ
Amo eba
Neigh bor
Agre ement
GUMB OS
いらっ しゃい
フォルトゥ ナ・ヨーリン
エタニット パイプ
Patr ick
guard ian
ジスフェル リノパチー
生い茂 っ
Foot ball
イニシア ティブ
スヴャトポル ク
ヘイスティング ス
unsigned Int
"→ "
Bis was
BRE AK
Biel efeld
BLA ZE
Cro atian
Ethiop ia
FFR DC
GPC S
Gunn f
HAWA II
Hept athela
Hyster ic
IUC N
IUP AC
Jung le
Kult ur
Klo ekhor
Myst ic
Mick ey
NARU TO
Oy ak
Oct ober
Omag gio
SEND AI
Yuk ky
YUSU KE
cra ft
dest roy
fia un
pill ows
wiss enschaft
woh l
đoà n
Да льн
かざ す
きな 粉
せせ らぎ
めざま し
イルー ヴァタール
イバル グエン
ウード ロゴート
エカス ベア
エメリ ・ドレ
オステ オ
オミナ エシ
カミナ リ
キボシ イシガメ
グアド ループ
グアノ シン
ゲレン デ
コアント ロー
コペル ニクス
サプリ メント
サブリ ナ
ザンス カール
シンド ローム
シチュ エーション
ジプ シー
ジブラル タル
セビー ジャ
タガン ログ
タマネ ギ
チクタ ク
トリート メント
ドレフ ュス
ネメ シス
ネマリン ミオパチー
ネバネ バ
ノストロ モ
ハバ ロフスク
ハドロ サウルス
バファ ローズ
パガニー ニ
ビジン ダー
プテラ ノモン
ベレ ケ
ベドー ヴイ
ホノル ル
ポダル ケース
ミヒラ クラ
ユトレ ヒト
ラッス ゴード
ラグラヴェ ネーズ
ロレンツ ォ
五所 川原
加布 里
寝屋 川
小美 玉
御息 所
御手 洗
徳舜 瞥
手ほど き
曼陀 羅
イントラ ネット
ディルム ラット
コンパート メント
バーソロ ミュー
バーベリ ィ
プロシー ジャ
アルデン ヌ
アルツェ ク
タイコンデロ ガ
スタネー ラ
ウェスティング ハウス
コーライースト ジャパン
アイデン ティティ
ブルドー ザー
ブルキナ ファソ
ダイガイ アン
クロラス バリア
ascol to
バルテル ミ
バルドリー ノ
カルドー ゾ
イツナッ ハ
ANSW ER
Stül pnagel
AREN A
プレイバック シアター
otrig la
立ちふさ がる
55438 9
Chick ering
エアバッグ システムレス
ETERN AL
富士河口 湖
アドレナ リン
COFF IN
LIMIT ED
REBO OT
アレグザン ダー
モーモール ルギャバン
CHRIS TMAS
グルタチ オン
MEDI AS
サラドゥ ハ
ダンス・トゥ ループ
allcin ema
ectomorph ed
サブマリ モン
DiGR A
コントゥベル ニウム
SparQle w
DETONATO R
Ensem ble
Enclos ed
skvad ron
Myomorph a
netke iba
sucros e
Administr ation
アースクェ イク
ラ・フォル・ジュ ルネ
Linnae us
マクシミ リアン
アポマト ックス
レムル・ レムル
ダイヤモンドプレミアラ ウンジ
タカトクト イス
ビリリョ フ
ミッドフィール ダー
Caporiac co
バーンコーク ノーイ
メトキサジア ゾン
クワバタ オハラ
weee ek
ミツォタ キス
ゴッドゲキリュウケン・アルティメット モード
タラコネン シス
ペラエ・ カルドーゾ
parliam entary
デリバリット ・フォース
buerger i
ANNIVERS ARY
プラグマティ ズム
hydroxyster oid
トゲナシ ケバエ
folkes kole
ハギノカムイ オー
Kentuck y
Machiner y
Wilhel m
イズ・マイ・コー パイロット
Lagenodelph is
ズデニェ ク・フィビフ
シーサケット・ソー・ルン ヴィサイ
Kloekhor st
エメリ・ドレ フェス
" $
' (
( '
( [
( ▲
) :
* -
, "
, #
- \
. ;
0 15
0 30
0 17
0 21
0 22
0 50
0 31
0 70
0 33
0 32
0 47
0 56
0 49
0 83
0 69
1 199
1 194
2 14
2 100
3 28
3 31
3 62
4 19
4 200
4 22
4 28
4 60
4 35
4 33
4 32
4 37
5 19
5 45
5 37
5 46
5 300
6 18
6 16
6 17
6 14
6 22
6 29
6 48
6 38
6 62
6 78
6 32
6 36
6 56
6 51
6 75
6 600
6 67
6 64
7 11
7 45
7 34
7 32
7 59
7 49
7 72
7 67
8 12
8 15
8 26
8 60
8 32
8 400
9 11
9 24
9 22
9 27
9 55
9 44
9 36
9 42
9 72
9 89
9 87
9 71
: "
A H
A er
A IN
A ri
A br
A phan
B J
B h
B al
B ent
B ir
B ell
B ast
B MC
B IB
B ara
B oun
B ret
B YE
B OSS
B apt
B inding
B PDMS
C N
C i
C p
C x
C z
C as
C ow
C EC
C OS
C ED
C SC
C ong
C VT
C off
C ARD
C row
C rew
C urt
C ATS
C oco
C oca
C ivil
C ENTER
D W
D y
D in
D ion
D am
D il
D AM
D OC
D AI
D ate
D IG
D LG
D osh
D oll
D ila
D ARPA
E K
E O
E Q
E q
E t
E y
E in
E ag
E AT
E ter
E ad
E VE
E LE
E ART
E rd
E sc
E MON
E SCAP
F a
F m
F er
F es
F ag
F AM
F av
F UR
F OL
F SF
F eat
F GM
F DA
F KS
F ür
F yr
F ull
F itch
F usion
F oods
F ooooo
G D
G V
G W
G h
G y
G or
G at
G IS
G IN
G ay
G ul
G Re
G eb
G LO
G Sh
G ib
G OL
G DS
G iel
G ert
G BR
G SR
G ACK
G ett
H on
H el
H it
H am
H as
H od
H ul
H AC
H op
H our
H ud
H ib
H ash
H SD
H eat
H OW
H orn
H its
H ORN
H iro
H DL
H KP
H ook
H ARU
H ARA
I z
I ch
I ra
I BC
I de
I sh
I JC
I ARC
J M
J V
J er
J IN
J ag
J FA
J AY
J ah
J BL
J PE
J une
J ARI
J enny
K N
K r
K u
K ol
K IC
K am
K om
K ra
K AT
K ad
K ur
K im
K os
K OR
K TV
K ri
K ip
K omp
K aw
K els
K ARE
K ipp
K ARA
K ids
L es
L AM
L OS
L RO
L if
L ang
L af
L lo
L MK
L ull
L ike
L ady
L otus
L ewis
L anguages
M es
M IC
M as
M ur
M AS
M AP
M BO
M IR
M ate
M MA
M az
M ong
M ain
M ah
M ech
M att
M UL
M ille
M anga
M ül
M iddle
N Z
N IN
N um
N AK
N IP
N eg
N ure
N ick
N MR
N AKA
N ations
N ANA
N gu
N ICU
N ATUR
O G
O on
O ST
O BC
O AS
O FC
O HC
P J
P U
P d
P t
P on
P ig
P il
P ra
P ir
P BC
P AL
P ul
P AC
P ID
P ub
P FA
P omp
P ah
P ick
P ier
P ont
P eck
P inus
P seud
Q G
Q R
Q LISP
R H
R am
R ac
R ing
R ou
R AL
R ight
R ub
R SD
R out
R ise
R KC
R AKU
R ena
R yan
R unning
S Y
S en
S of
S ed
S TO
S ER
S AL
S ell
S AI
S AD
S our
S IG
S af
S MB
S IM
S IX
S ign
S KK
S unn
S pha
S ris
S MCL
S dn
S ierra
T L
T U
T Z
T c
T an
T in
T on
T at
T as
T AS
T ow
T ight
T ri
T ill
T AG
T ION
T WA
T IG
T ark
T SG
T urn
T ake
T CV
T ele
T well
T AKE
T erry
T eld
T REE
T URE
T rib
T UNES
T GV
U X
U s
U KO
U MA
U LT
U BT
U COM
V B
V P
V Y
V el
V it
V ig
V ent
V ik
V eg
V FF
V ERS
V max
V ICE
V FW
W G
W ł
W en
W AN
W om
W TO
W RE
W AG
W ant
W GP
W ish
W SE
W ood
W ISH
W itch
W atch
W ilm
W OND
W ALK
W erner
X C
X O
X S
Y s
Y LE
Y AI
Y MO
Y ES
Y ps
Z M
Z R
Z ig
Z il
Z iv
Z ET
Z IG
Z MT
Z EP
Z ero
Z oom
Z eller
Z uu
Z onth
] }
] /[
_ _
a S
a ð
a ph
a udio
a ats
a Bits
b g
b el
b ot
b ut
b ind
b ip
b ass
b ody
b ound
b ability
b hp
b acter
b aby
c f
c v
c and
c ow
c ard
c all
c la
c ase
c out
c iaea
c over
c ía
c ateg
c oriac
c ould
d z
d on
d or
d il
d iv
d im
d ens
d ash
d ust
d ial
d ous
d own
d ates
d ynam
d arkness
e N
e X
e ir
e iga
f ac
f est
f ty
f lex
f ire
f eld
f usion
f iri
f abla
f issile
g j
g ro
g ur
g ill
g ard
g ran
g roup
g ood
g ird
h j
h en
h as
h ir
h im
h ip
h ong
h air
h arm
h ospital
h uman
h iza
i X
i ð
i at
i ate
i ary
j on
j ah
j ava
j apon
k el
k et
k im
k ind
k omp
k VA
k Hz
k amp
k not
k ritik
l l
l an
l am
l ay
l ow
l ers
l est
l ess
l ens
l ich
l amp
l ler
l ocal
l ude
l ontan
m c
m ut
m ph
m ak
m ine
m az
m eg
m ond
m ath
m ach
m ark
m ail
m itt
m ont
m bach
m iki
m iddle
m api
m aterial
m Eq
n í
n in
n ig
n em
n im
n ow
n ob
n ass
n ish
n ano
n elle
o i
o pher
o ire
o Rie
p i
p on
p en
p at
p ot
p ag
p ud
p ix
p ear
p ire
p yr
p ict
p iano
p rayer
r c
r or
r us
r ing
r um
r ence
r hy
r ated
r oll
s ac
s ov
s eg
s yl
s ult
s son
s ym
s unn
s ocks
s ource
t í
t el
t ro
t le
t em
t old
t tu
t imes
t abla
u W
u or
u fact
u jah
v ul
v ind
v ex
v oid
v ision
v är
w es
w el
w all
w ater
w oll
w ald
w orth
w orld
w rite
x cand
y ễ
y ok
y ev
y be
y obi
z h
z i
z el
z ep
z ym
z ero
z illa
z awa
z uki
} )
} \
° ,
× Chu
Þ iss
ß e
á lez
á ttu
ç e
ç ois
è s
ë r
ð an
ñ ando
[...]
